{
  "version": "1.0",
  "truncation": null,
  "padding": null,
  "added_tokens": [
    {
      "id": 0,
      "content": "[UNK]",
      "single_word": false,
      "lstrip": false,
      "rstrip": false,
      "normalized": false,
      "special": true
    },
    {
      "id": 1,
      "content": "[CLS]",
      "single_word": false,
      "lstrip": false,
      "rstrip": false,
      "normalized": false,
      "special": true
    },
    {
      "id": 2,
      "content": "[SEP]",
      "single_word": false,
      "lstrip": false,
      "rstrip": false,
      "normalized": false,
      "special": true
    },
    {
      "id": 3,
      "content": "[PAD]",
      "single_word": false,
      "lstrip": false,
      "rstrip": false,
      "normalized": false,
      "special": true
    },
    {
      "id": 4,
      "content": "[MASK]",
      "single_word": false,
      "lstrip": false,
      "rstrip": false,
      "normalized": false,
      "special": true
    }
  ],
  "normalizer": null,
  "pre_tokenizer": {
    "type": "Whitespace"
  },
  "post_processor": null,
  "decoder": null,
  "model": {
    "type": "BPE",
    "dropout": null,
    "unk_token": "[UNK]",
    "continuing_subword_prefix": null,
    "end_of_word_suffix": null,
    "fuse_unk": false,
    "byte_fallback": false,
    "ignore_merges": false,
    "vocab": {
      "[UNK]": 0,
      "[CLS]": 1,
      "[SEP]": 2,
      "[PAD]": 3,
      "[MASK]": 4,
      "!": 5,
      "\"": 6,
      "#": 7,
      "$": 8,
      "%": 9,
      "&": 10,
      "'": 11,
      "(": 12,
      ")": 13,
      "*": 14,
      "+": 15,
      ",": 16,
      "-": 17,
      ".": 18,
      "/": 19,
      "0": 20,
      "1": 21,
      "2": 22,
      "3": 23,
      "4": 24,
      "5": 25,
      "6": 26,
      "7": 27,
      "8": 28,
      "9": 29,
      ":": 30,
      ";": 31,
      "<": 32,
      "=": 33,
      ">": 34,
      "?": 35,
      "@": 36,
      "A": 37,
      "B": 38,
      "C": 39,
      "D": 40,
      "E": 41,
      "F": 42,
      "G": 43,
      "H": 44,
      "I": 45,
      "J": 46,
      "K": 47,
      "L": 48,
      "M": 49,
      "N": 50,
      "O": 51,
      "P": 52,
      "Q": 53,
      "R": 54,
      "S": 55,
      "T": 56,
      "U": 57,
      "V": 58,
      "W": 59,
      "X": 60,
      "Y": 61,
      "Z": 62,
      "[": 63,
      "\\": 64,
      "]": 65,
      "^": 66,
      "_": 67,
      "`": 68,
      "a": 69,
      "b": 70,
      "c": 71,
      "d": 72,
      "e": 73,
      "f": 74,
      "g": 75,
      "h": 76,
      "i": 77,
      "j": 78,
      "k": 79,
      "l": 80,
      "m": 81,
      "n": 82,
      "o": 83,
      "p": 84,
      "q": 85,
      "r": 86,
      "s": 87,
      "t": 88,
      "u": 89,
      "v": 90,
      "w": 91,
      "x": 92,
      "y": 93,
      "z": 94,
      "{": 95,
      "|": 96,
      "}": 97,
      "~": 98,
      "£": 99,
      "§": 100,
      "¨": 101,
      "«": 102,
      "­": 103,
      "°": 104,
      "²": 105,
      "´": 106,
      "·": 107,
      "»": 108,
      "À": 109,
      "É": 110,
      "Ñ": 111,
      "Ó": 112,
      "×": 113,
      "Ü": 114,
      "à": 115,
      "á": 116,
      "â": 117,
      "ä": 118,
      "ç": 119,
      "è": 120,
      "é": 121,
      "ê": 122,
      "ë": 123,
      "í": 124,
      "ò": 125,
      "ó": 126,
      "ô": 127,
      "ö": 128,
      "ú": 129,
      "û": 130,
      "ü": 131,
      "ý": 132,
      "Ą": 133,
      "ą": 134,
      "Ć": 135,
      "ć": 136,
      "Č": 137,
      "č": 138,
      "Ę": 139,
      "ę": 140,
      "ě": 141,
      "Ł": 142,
      "ł": 143,
      "Ń": 144,
      "ń": 145,
      "ō": 146,
      "ő": 147,
      "ŕ": 148,
      "ř": 149,
      "Ś": 150,
      "ś": 151,
      "š": 152,
      "Ţ": 153,
      "ţ": 154,
      "Ź": 155,
      "ź": 156,
      "Ż": 157,
      "ż": 158,
      "˝": 159,
      "–": 160,
      "—": 161,
      "‘": 162,
      "’": 163,
      "“": 164,
      "”": 165,
      "„": 166,
      "•": 167,
      "…": 168,
      "−": 169,
      "ie": 170,
      "rz": 171,
      "na": 172,
      "nie": 173,
      "ch": 174,
      "cz": 175,
      "sz": 176,
      "po": 177,
      "st": 178,
      "ni": 179,
      "ał": 180,
      "dz": 181,
      "ra": 182,
      "ię": 183,
      "ow": 184,
      "ro": 185,
      "li": 186,
      "rze": 187,
      "le": 188,
      "je": 189,
      "go": 190,
      "za": 191,
      "ci": 192,
      "się": 193,
      "ko": 194,
      "wi": 195,
      "an": 196,
      "do": 197,
      "mi": 198,
      "ka": 199,
      "te": 200,
      "ta": 201,
      "by": 202,
      "ki": 203,
      "rzy": 204,
      "to": 205,
      "wa": 206,
      "że": 207,
      "ła": 208,
      "re": 209,
      "wy": 210,
      "ja": 211,
      "ło": 212,
      "ne": 213,
      "ty": 214,
      "ny": 215,
      "wie": 216,
      "wo": 217,
      "ów": 218,
      "ar": 219,
      "dzi": 220,
      "no": 221,
      "czy": 222,
      "od": 223,
      "dzie": 224,
      "la": 225,
      "ce": 226,
      "da": 227,
      "ry": 228,
      "prze": 229,
      "kie": 230,
      "cie": 231,
      "dy": 232,
      "pa": 233,
      "mo": 234,
      "ma": 235,
      "ją": 236,
      "th": 237,
      "em": 238,
      "si": 239,
      "ku": 240,
      "szy": 241,
      "mie": 242,
      "in": 243,
      "cze": 244,
      "ob": 245,
      "kt": 246,
      "mu": 247,
      "ści": 248,
      "cy": 249,
      "przy": 250,
      "my": 251,
      "nia": 252,
      "ru": 253,
      "co": 254,
      "sta": 255,
      "sa": 256,
      "bo": 257,
      "któ": 258,
      "de": 259,
      "ły": 260,
      "sze": 261,
      "we": 262,
      "owa": 263,
      "ną": 264,
      "the": 265,
      "tu": 266,
      "ała": 267,
      "pie": 268,
      "lu": 269,
      "bi": 270,
      "pi": 271,
      "pra": 272,
      "er": 273,
      "ży": 274,
      "raz": 275,
      "ca": 276,
      "roz": 277,
      "łu": 278,
      "jak": 279,
      "cza": 280,
      "ró": 281,
      "ski": 282,
      "ba": 283,
      "ść": 284,
      "en": 285,
      "on": 286,
      "or": 287,
      "ju": 288,
      "ga": 289,
      "spo": 290,
      "ze": 291,
      "wszy": 292,
      "jest": 293,
      "tak": 294,
      "bie": 295,
      "be": 296,
      "wia": 297,
      "pe": 298,
      "zna": 299,
      "ale": 300,
      "cho": 301,
      "pod": 302,
      "pan": 303,
      "du": 304,
      "ały": 305,
      "gi": 306,
      "nych": 307,
      "owie": 308,
      "sk": 309,
      "skie": 310,
      "wię": 311,
      "owi": 312,
      "su": 313,
      "sie": 314,
      "sza": 315,
      "se": 316,
      "rę": 317,
      "gł": 318,
      "pro": 319,
      "Po": 320,
      "mó": 321,
      "lo": 322,
      "Nie": 323,
      "sto": 324,
      "and": 325,
      "me": 326,
      "niej": 327,
      "owy": 328,
      "zy": 329,
      "pu": 330,
      "ało": 331,
      "at": 332,
      "of": 333,
      "sy": 334,
      "hi": 335,
      "owe": 336,
      "al": 337,
      "ję": 338,
      "który": 339,
      "Na": 340,
      "he": 341,
      "bu": 342,
      "cha": 343,
      "już": 344,
      "ska": 345,
      "gdy": 346,
      "szcze": 347,
      "jed": 348,
      "czę": 349,
      "nym": 350,
      "nę": 351,
      "bę": 352,
      "nej": 353,
      "kł": 354,
      "Za": 355,
      "powie": 356,
      "jąc": 357,
      "tym": 358,
      "mnie": 359,
      "ad": 360,
      "ich": 361,
      "sob": 362,
      "ou": 363,
      "nego": 364,
      "any": 365,
      "lko": 366,
      "ji": 367,
      "py": 368,
      "gło": 369,
      "Ja": 370,
      "jej": 371,
      "niu": 372,
      "fi": 373,
      "jego": 374,
      "które": 375,
      "tego": 376,
      "dla": 377,
      "ków": 378,
      "wał": 379,
      "czą": 380,
      "ąd": 381,
      "sią": 382,
      "naj": 383,
      "dział": 384,
      "przed": 385,
      "myś": 386,
      "mówi": 387,
      "..": 388,
      "og": 389,
      "był": 390,
      "rzekł": 391,
      "cu": 392,
      "tylko": 393,
      "pó": 394,
      "wszyst": 395,
      "Je": 396,
      "przez": 397,
      "tem": 398,
      "ście": 399,
      "dob": 400,
      "nic": 401,
      "ck": 402,
      "mię": 403,
      "so": 404,
      "nął": 405,
      "ok": 406,
      "trzy": 407,
      "sty": 408,
      "było": 409,
      "sł": 410,
      "wz": 411,
      "praw": 412,
      "czas": 413,
      "czo": 414,
      "kę": 415,
      "wła": 416,
      "słu": 417,
      "rza": 418,
      "jeszcze": 419,
      "cji": 420,
      "ing": 421,
      "tam": 422,
      "ten": 423,
      "ha": 424,
      "trze": 425,
      "ve": 426,
      "Mr": 427,
      "im": 428,
      "bra": 429,
      "sko": 430,
      "lę": 431,
      "ti": 432,
      "tej": 433,
      "ża": 434,
      "bez": 435,
      "cia": 436,
      "par": 437,
      "kiem": 438,
      "zo": 439,
      "może": 440,
      "rów": 441,
      "dł": 442,
      "ng": 443,
      "Wo": 444,
      "ąc": 445,
      "zie": 446,
      "ri": 447,
      "Ta": 448,
      "ane": 449,
      "nad": 450,
      "tra": 451,
      "ona": 452,
      "zu": 453,
      "cią": 454,
      "rą": 455,
      "bli": 456,
      "tę": 457,
      "stra": 458,
      "są": 459,
      "To": 460,
      "dze": 461,
      "sła": 462,
      "nu": 463,
      "bar": 464,
      "Ch": 465,
      "pier": 466,
      "kła": 467,
      "ności": 468,
      "Ale": 469,
      "będzie": 470,
      "ką": 471,
      "nim": 472,
      "wó": 473,
      "mia": 474,
      "cię": 475,
      "tych": 476,
      "for": 477,
      "chwi": 478,
      "dzo": 479,
      "fa": 480,
      "zd": 481,
      "sobie": 482,
      "niem": 483,
      "kich": 484,
      "men": 485,
      "śli": 486,
      "żo": 487,
      "id": 488,
      "twa": 489,
      "ter": 490,
      "gu": 491,
      "skiego": 492,
      "dzy": 493,
      "czu": 494,
      "wsze": 495,
      "gra": 496,
      "nio": 497,
      "dę": 498,
      "kim": 499,
      "cał": 500,
      "ly": 501,
      "gie": 502,
      "chy": 503,
      "ował": 504,
      "stę": 505,
      "am": 506,
      "wiel": 507,
      "nt": 508,
      "miał": 509,
      "zi": 510,
      "two": 511,
      "stro": 512,
      "Bo": 513,
      "stan": 514,
      "his": 515,
      "też": 516,
      "śmie": 517,
      "!…": 518,
      "swo": 519,
      "nd": 520,
      "rzu": 521,
      "wać": 522,
      "Wi": 523,
      "was": 524,
      "jako": 525,
      "świa": 526,
      "wet": 527,
      "man": 528,
      "fe": 529,
      "nią": 530,
      "ste": 531,
      "now": 532,
      "jedna": 533,
      "tał": 534,
      "kró": 535,
      "ować": 536,
      "śnie": 537,
      "jący": 538,
      "dro": 539,
      "wią": 540,
      "di": 541,
      "wró": 542,
      "nik": 543,
      "woj": 544,
      "tro": 545,
      "chodzi": 546,
      "więc": 547,
      "łe": 548,
      "den": 549,
      "peł": 550,
      "kto": 551,
      "dru": 552,
      "cił": 553,
      "it": 554,
      "pła": 555,
      "ser": 556,
      "zaś": 557,
      "kra": 558,
      "ano": 559,
      "gro": 560,
      "pre": 561,
      "gó": 562,
      "nię": 563,
      "rzą": 564,
      "cja": 565,
      "Le": 566,
      "rowa": 567,
      "Ma": 568,
      "nawet": 569,
      "ho": 570,
      "stu": 571,
      "Pi": 572,
      "ll": 573,
      "gę": 574,
      "być": 575,
      "ność": 576,
      "myśl": 577,
      "kon": 578,
      "pię": 579,
      "pew": 580,
      "dłu": 581,
      "żę": 582,
      "dać": 583,
      "mar": 584,
      "dni": 585,
      "ld": 586,
      "kiego": 587,
      "sły": 588,
      "wą": 589,
      "ńst": 590,
      "you": 591,
      "ksią": 592,
      "cznie": 593,
      "dow": 594,
      "daw": 595,
      "pad": 596,
      "war": 597,
      "lski": 598,
      "krzy": 599,
      "oczy": 600,
      ",’": 601,
      "--": 602,
      "dą": 603,
      "sam": 604,
      "?…": 605,
      "owych": 606,
      "resz": 607,
      "śmy": 608,
      "łem": 609,
      "Do": 610,
      "ge": 611,
      "jednak": 612,
      "mę": 613,
      "sku": 614,
      "Ko": 615,
      "un": 616,
      "tą": 617,
      "Pa": 618,
      "strze": 619,
      "star": 620,
      "owej": 621,
      "Prze": 622,
      "cej": 623,
      "Sta": 624,
      "gdzie": 625,
      "lub": 626,
      "szą": 627,
      "robi": 628,
      "pow": 629,
      "bym": 630,
      "lą": 631,
      "Ka": 632,
      "kil": 633,
      "ej": 634,
      "is": 635,
      "była": 636,
      "sia": 637,
      "said": 638,
      "Ty": 639,
      "prowa": 640,
      "zło": 641,
      "with": 642,
      "skiej": 643,
      "dza": 644,
      "Co": 645,
      "kaz": 646,
      "nich": 647,
      "lej": 648,
      "tów": 649,
      "bro": 650,
      "miesz": 651,
      "chci": 652,
      "teraz": 653,
      "rzę": 654,
      "stał": 655,
      "szczę": 656,
      "moż": 657,
      "Wy": 658,
      "Mo": 659,
      "Ro": 660,
      "ców": 661,
      "as": 662,
      "dź": 663,
      "dał": 664,
      "szę": 665,
      "koń": 666,
      "świe": 667,
      "gh": 668,
      "tru": 669,
      "łowie": 670,
      "Sz": 671,
      "szu": 672,
      "one": 673,
      "that": 674,
      "każ": 675,
      "szedł": 676,
      "niego": 677,
      "owo": 678,
      "pani": 679,
      "mog": 680,
      "ciąg": 681,
      "ir": 682,
      "chu": 683,
      "począ": 684,
      "sło": 685,
      "miej": 686,
      "czym": 687,
      "dzą": 688,
      "nas": 689,
      "wol": 690,
      "Ju": 691,
      "bardzo": 692,
      "pół": 693,
      "odpowie": 694,
      "owski": 695,
      "pana": 696,
      "żeby": 697,
      "mło": 698,
      "el": 699,
      "róż": 700,
      "Mi": 701,
      "kiej": 702,
      "nika": 703,
      "czył": 704,
      "kro": 705,
      "Pan": 706,
      "kry": 707,
      "scy": 708,
      "Czy": 709,
      "łą": 710,
      "ałem": 711,
      "między": 712,
      "um": 713,
      "księ": 714,
      "czego": 715,
      "aby": 716,
      "ół": 717,
      "Tu": 718,
      "chwili": 719,
      "ową": 720,
      "albo": 721,
      "waż": 722,
      "rem": 723,
      "szko": 724,
      "ani": 725,
      "Wie": 726,
      "tnie": 727,
      "stęp": 728,
      "dził": 729,
      "pły": 730,
      "By": 731,
      "więk": 732,
      "miejs": 733,
      "zwy": 734,
      "powia": 735,
      "ński": 736,
      "działa": 737,
      "cą": 738,
      "ludzi": 739,
      "książę": 740,
      "kiedy": 741,
      "ran": 742,
      "którzy": 743,
      "choć": 744,
      "człowie": 745,
      "oj": 746,
      "których": 747,
      "musi": 748,
      "Te": 749,
      "red": 750,
      "ws": 751,
      "Przy": 752,
      "mówił": 753,
      "...": 754,
      "wier": 755,
      "sem": 756,
      "tr": 757,
      "wszystko": 758,
      "spra": 759,
      "lecz": 760,
      "stą": 761,
      "óg": 762,
      "Tak": 763,
      "oba": 764,
      "ble": 765,
      "mniej": 766,
      "chło": 767,
      "jakby": 768,
      "ód": 769,
      "stawi": 770,
      "jące": 771,
      "owego": 772,
      "panie": 773,
      "kre": 774,
      "tka": 775,
      "mógł": 776,
      "chod": 777,
      "Pick": 778,
      "óż": 779,
      "Pickwi": 780,
      "Jak": 781,
      "tle": 782,
      "przeci": 783,
      "chę": 784,
      "Lecz": 785,
      "zda": 786,
      "Pickwick": 787,
      "wę": 788,
      "żą": 789,
      "Woku": 790,
      "szych": 791,
      "br": 792,
      "mał": 793,
      "nił": 794,
      "Ra": 795,
      "rod": 796,
      "niec": 797,
      "aż": 798,
      "per": 799,
      "poli": 800,
      "tk": 801,
      "kom": 802,
      "czasem": 803,
      "dwa": 804,
      "nam": 805,
      "swe": 806,
      "ród": 807,
      "kar": 808,
      "Ba": 809,
      "ryce": 810,
      "wali": 811,
      "ścią": 812,
      "podob": 813,
      "nów": 814,
      "ur": 815,
      "pytał": 816,
      "dnie": 817,
      "ój": 818,
      "chał": 819,
      "nić": 820,
      "zaraz": 821,
      "gnie": 822,
      "niż": 823,
      "stwo": 824,
      "trz": 825,
      "kach": 826,
      "Zagło": 827,
      "woł": 828,
      "lat": 829,
      "szla": 830,
      "przyja": 831,
      "która": 832,
      "więcej": 833,
      "czne": 834,
      "żył": 835,
      "miast": 836,
      "towa": 837,
      "tion": 838,
      "ciu": 839,
      "wu": 840,
      ".’": 841,
      "rozu": 842,
      "nymi": 843,
      "pę": 844,
      "dzieć": 845,
      "owę": 846,
      "uczy": 847,
      "śmier": 848,
      "uro": 849,
      "poczę": 850,
      "ted": 851,
      "dziej": 852,
      "Gdy": 853,
      "siebie": 854,
      "ed": 855,
      "tow": 856,
      "usta": 857,
      "cę": 858,
      "żeli": 859,
      "szej": 860,
      "chce": 861,
      "znaj": 862,
      "osta": 863,
      "Sa": 864,
      "rom": 865,
      "łnie": 866,
      "ary": 867,
      "om": 868,
      "ss": 869,
      "tek": 870,
      "dzić": 871,
      "nicy": 872,
      "moc": 873,
      "roku": 874,
      "gle": 875,
      "gar": 876,
      "poko": 877,
      "także": 878,
      "Ni": 879,
      "samo": 880,
      "kilka": 881,
      "sił": 882,
      "cję": 883,
      "sh": 884,
      "można": 885,
      "coś": 886,
      "przeciw": 887,
      "tar": 888,
      "wal": 889,
      "ciem": 890,
      "ścia": 891,
      "ór": 892,
      "czyć": 893,
      "Sam": 894,
      "Od": 895,
      "były": 896,
      "owym": 897,
      "liśmy": 898,
      "mil": 899,
      "kami": 900,
      "lan": 901,
      "dnia": 902,
      "et": 903,
      "rzał": 904,
      "ler": 905,
      "jaki": 906,
      "którym": 907,
      "gą": 908,
      "Li": 909,
      "dar": 910,
      "fo": 911,
      "potem": 912,
      "jem": 913,
      "mów": 914,
      "cki": 915,
      "eś": 916,
      "ników": 917,
      "począł": 918,
      "ther": 919,
      "gru": 920,
      "owiem": 921,
      "nąć": 922,
      "had": 923,
      "włas": 924,
      "dwie": 925,
      "por": 926,
      "zosta": 927,
      "raj": 928,
      "cały": 929,
      "wra": 930,
      "nale": 931,
      "zmie": 932,
      "wił": 933,
      "nami": 934,
      "której": 935,
      "him": 936,
      "chać": 937,
      "ght": 938,
      "oko": 939,
      "poz": 940,
      "whi": 941,
      "No": 942,
      "ób": 943,
      "reszcie": 944,
      "anych": 945,
      "pli": 946,
      "domu": 947,
      "krze": 948,
      "miło": 949,
      "kle": 950,
      "jeden": 951,
      "nęła": 952,
      "wała": 953,
      "row": 954,
      "łody": 955,
      "ofi": 956,
      "żołnie": 957,
      "Kmi": 958,
      "godzi": 959,
      "res": 960,
      "ską": 961,
      "Kmici": 962,
      "Rze": 963,
      "hu": 964,
      "czej": 965,
      "szcza": 966,
      "myśli": 967,
      "gen": 968,
      "\".": 969,
      "sób": 970,
      "tedy": 971,
      "ple": 972,
      "pla": 973,
      "wem": 974,
      "skich": 975,
      "ner": 976,
      "der": 977,
      "pyta": 978,
      "ony": 979,
      "Wokulski": 980,
      "mam": 981,
      "trzeba": 982,
      "dzień": 983,
      "woje": 984,
      "cić": 985,
      "ver": 986,
      "szym": 987,
      "stwa": 988,
      "Zagłoba": 989,
      "bowiem": 990,
      "jeśli": 991,
      "świę": 992,
      "pis": 993,
      "qu": 994,
      "spoko": 995,
      "jedno": 996,
      "knął": 997,
      "bla": 998,
      "rzył": 999,
      "Bóg": 1000,
      "szło": 1001,
      "lnie": 1002,
      "ręce": 1003,
      "wszystkich": 1004,
      "zdo": 1005,
      "kow": 1006,
      "szli": 1007,
      "pol": 1008,
      "Wię": 1009,
      "jakie": 1010,
      "00": 1011,
      "taki": 1012,
      "zł": 1013,
      "ied": 1014,
      "19": 1015,
      "cznych": 1016,
      "Pod": 1017,
      "nem": 1018,
      "przecie": 1019,
      "mają": 1020,
      "tki": 1021,
      "jących": 1022,
      "gna": 1023,
      "rami": 1024,
      "uwa": 1025,
      "mieszka": 1026,
      "spe": 1027,
      "win": 1028,
      "woli": 1029,
      "dzę": 1030,
      "wały": 1031,
      "sen": 1032,
      "com": 1033,
      "którego": 1034,
      "Zby": 1035,
      "gdyby": 1036,
      "tłu": 1037,
      "dobrze": 1038,
      "ek": 1039,
      "cyj": 1040,
      "tor": 1041,
      "coraz": 1042,
      "żyć": 1043,
      "kobie": 1044,
      "obie": 1045,
      "piero": 1046,
      "He": 1047,
      "dem": 1048,
      "dalej": 1049,
      "pom": 1050,
      "właśnie": 1051,
      "szego": 1052,
      "ster": 1053,
      "głos": 1054,
      "iż": 1055,
      "stąpi": 1056,
      "oraz": 1057,
      "ul": 1058,
      "czer": 1059,
      "pierwszy": 1060,
      "pło": 1061,
      "wiem": 1062,
      "dziew": 1063,
      "parł": 1064,
      "zam": 1065,
      "nowu": 1066,
      "wszystkie": 1067,
      "Wołody": 1068,
      "Wołodyj": 1069,
      "The": 1070,
      "czar": 1071,
      "chciał": 1072,
      "Mar": 1073,
      "wej": 1074,
      "nek": 1075,
      "Pe": 1076,
      "szcz": 1077,
      "lep": 1078,
      "kło": 1079,
      "chwy": 1080,
      "szał": 1081,
      "rząd": 1082,
      "which": 1083,
      "wym": 1084,
      "au": 1085,
      "trzyma": 1086,
      "owania": 1087,
      "?’": 1088,
      "Bog": 1089,
      "ot": 1090,
      "rodzi": 1091,
      "dziś": 1092,
      "wido": 1093,
      "stanowi": 1094,
      "wych": 1095,
      "bardziej": 1096,
      "patrzy": 1097,
      "pró": 1098,
      "zrobi": 1099,
      "ństwa": 1100,
      "stała": 1101,
      "dzia": 1102,
      "wszyscy": 1103,
      "dwo": 1104,
      "śród": 1105,
      "nimi": 1106,
      "cje": 1107,
      "puści": 1108,
      "masz": 1109,
      "very": 1110,
      "zawsze": 1111,
      "dom": 1112,
      "spa": 1113,
      "szczy": 1114,
      "siad": 1115,
      "con": 1116,
      "żej": 1117,
      "ruszy": 1118,
      "ke": 1119,
      "głowę": 1120,
      "all": 1121,
      "che": 1122,
      "kona": 1123,
      "try": 1124,
      "każdy": 1125,
      "człowiek": 1126,
      "same": 1127,
      "Więc": 1128,
      "spraw": 1129,
      "niech": 1130,
      "mor": 1131,
      "bezpie": 1132,
      "zby": 1133,
      "wło": 1134,
      "wołał": 1135,
      "dzię": 1136,
      "sobą": 1137,
      "wój": 1138,
      "równie": 1139,
      "Kmicic": 1140,
      "War": 1141,
      "rzeczy": 1142,
      "mości": 1143,
      "razem": 1144,
      "szła": 1145,
      "tur": 1146,
      "czasu": 1147,
      "lepie": 1148,
      "pl": 1149,
      "nosi": 1150,
      "nku": 1151,
      "sti": 1152,
      "ode": 1153,
      "ął": 1154,
      "cem": 1155,
      "pamię": 1156,
      "kać": 1157,
      "chem": 1158,
      "miała": 1159,
      "kla": 1160,
      "świad": 1161,
      "prz": 1162,
      "ucie": 1163,
      "znowu": 1164,
      "świat": 1165,
      "up": 1166,
      "pięk": 1167,
      "We": 1168,
      "myślał": 1169,
      "dr": 1170,
      "oni": 1171,
      "dra": 1172,
      "ex": 1173,
      "drugi": 1174,
      "pozna": 1175,
      "usz": 1176,
      "kazał": 1177,
      "dów": 1178,
      "emu": 1179,
      "ludzie": 1180,
      "póź": 1181,
      "powiada": 1182,
      "szo": 1183,
      "stało": 1184,
      "żad": 1185,
      "wrócił": 1186,
      "nach": 1187,
      "noc": 1188,
      "Lu": 1189,
      "zale": 1190,
      "this": 1191,
      "tach": 1192,
      "dale": 1193,
      "cych": 1194,
      "prawie": 1195,
      "Niech": 1196,
      "śpie": 1197,
      "lek": 1198,
      "tó": 1199,
      "got": 1200,
      "dej": 1201,
      "tku": 1202,
      "cach": 1203,
      "zg": 1204,
      "skar": 1205,
      "kr": 1206,
      "ach": 1207,
      "jeno": 1208,
      "not": 1209,
      "!”": 1210,
      "dząc": 1211,
      "obo": 1212,
      "mość": 1213,
      "dzieci": 1214,
      "god": 1215,
      "kilku": 1216,
      "czny": 1217,
      "prac": 1218,
      ").": 1219,
      "Krzy": 1220,
      "głę": 1221,
      "ostat": 1222,
      "powo": 1223,
      "następ": 1224,
      "orą": 1225,
      "prę": 1226,
      "czyna": 1227,
      "gdyż": 1228,
      "kał": 1229,
      "inte": 1230,
      "sami": 1231,
      "sów": 1232,
      "cznej": 1233,
      "drze": 1234,
      "przyj": 1235,
      "tan": 1236,
      "zwie": 1237,
      "Kie": 1238,
      "ak": 1239,
      "owanie": 1240,
      "Pol": 1241,
      "skim": 1242,
      "znów": 1243,
      "wio": 1244,
      "tyle": 1245,
      "którą": 1246,
      "ziemi": 1247,
      "Wa": 1248,
      "zę": 1249,
      "czyli": 1250,
      "pole": 1251,
      "mina": 1252,
      "będą": 1253,
      "król": 1254,
      "drugie": 1255,
      "Dla": 1256,
      "rzecz": 1257,
      "sław": 1258,
      "jcie": 1259,
      "żu": 1260,
      "niał": 1261,
      "lne": 1262,
      "wh": 1263,
      "rek": 1264,
      "dło": 1265,
      "odparł": 1266,
      "takie": 1267,
      "mój": 1268,
      "II": 1269,
      "nió": 1270,
      "dwó": 1271,
      "pł": 1272,
      "łam": 1273,
      "cer": 1274,
      "Mu": 1275,
      "słowa": 1276,
      "wróci": 1277,
      "dli": 1278,
      "powiedział": 1279,
      "Tym": 1280,
      "sel": 1281,
      "trafi": 1282,
      "cięż": 1283,
      "środ": 1284,
      "drz": 1285,
      "mat": 1286,
      "sce": 1287,
      "potrze": 1288,
      "dość": 1289,
      "wyso": 1290,
      "bieg": 1291,
      "Roz": 1292,
      "przyjacie": 1293,
      "rozumie": 1294,
      "Kto": 1295,
      "dzenia": 1296,
      "jechał": 1297,
      "have": 1298,
      "wam": 1299,
      "wyda": 1300,
      "kol": 1301,
      "życie": 1302,
      "nigdy": 1303,
      "niósł": 1304,
      "rok": 1305,
      "stary": 1306,
      "wreszcie": 1307,
      "ron": 1308,
      "Pro": 1309,
      "ego": 1310,
      "Wołodyjowski": 1311,
      "kości": 1312,
      "ludz": 1313,
      "Już": 1314,
      "who": 1315,
      "szlach": 1316,
      "brze": 1317,
      "Pra": 1318,
      "zja": 1319,
      "twarz": 1320,
      "byli": 1321,
      "świą": 1322,
      "lar": 1323,
      "potę": 1324,
      "ówczas": 1325,
      "dzieli": 1326,
      "ment": 1327,
      "odpowiedział": 1328,
      "glą": 1329,
      "Da": 1330,
      "spoj": 1331,
      "dek": 1332,
      "oto": 1333,
      "widzi": 1334,
      "taj": 1335,
      "stanie": 1336,
      "Bi": 1337,
      "In": 1338,
      "stać": 1339,
      "sięcy": 1340,
      "vi": 1341,
      "ut": 1342,
      "głowy": 1343,
      "nagle": 1344,
      "konie": 1345,
      "Że": 1346,
      "her": 1347,
      "kład": 1348,
      "strony": 1349,
      "Może": 1350,
      "jestem": 1351,
      "lepiej": 1352,
      "rach": 1353,
      "es": 1354,
      "towarzy": 1355,
      "dopiero": 1356,
      "żał": 1357,
      "czenia": 1358,
      "również": 1359,
      "zdr": 1360,
      "czenie": 1361,
      "ct": 1362,
      "wości": 1363,
      "spokoj": 1364,
      "us": 1365,
      "gów": 1366,
      "osob": 1367,
      "ktu": 1368,
      "sed": 1369,
      "padł": 1370,
      "”.": 1371,
      "mal": 1372,
      "kowi": 1373,
      "And": 1374,
      "My": 1375,
      "dal": 1376,
      "Jest": 1377,
      "panu": 1378,
      "chyba": 1379,
      "let": 1380,
      "jął": 1381,
      "Wszy": 1382,
      "Cza": 1383,
      "Cze": 1384,
      "zgo": 1385,
      "wiado": 1386,
      "),": 1387,
      "cj": 1388,
      "bywa": 1389,
      "zupeł": 1390,
      "ned": 1391,
      "chi": 1392,
      "nki": 1393,
      "lew": 1394,
      "jeżeli": 1395,
      "długo": 1396,
      "ląd": 1397,
      "lił": 1398,
      "Skrze": 1399,
      "ństwo": 1400,
      "chwilę": 1401,
      "ude": 1402,
      "sposób": 1403,
      "Skrzetu": 1404,
      "ńca": 1405,
      "wyż": 1406,
      "mą": 1407,
      "sp": 1408,
      "jedy": 1409,
      "zawołał": 1410,
      "ol": 1411,
      "stru": 1412,
      "innych": 1413,
      "pospo": 1414,
      "mówić": 1415,
      "mini": 1416,
      "mis": 1417,
      "pierwsze": 1418,
      "czki": 1419,
      "nikt": 1420,
      "gre": 1421,
      "ciebie": 1422,
      "ST": 1423,
      "strasz": 1424,
      "proce": 1425,
      "pospoli": 1426,
      "tel": 1427,
      "pal": 1428,
      "uld": 1429,
      "wiesz": 1430,
      "krę": 1431,
      "szka": 1432,
      "zach": 1433,
      "biera": 1434,
      "życia": 1435,
      "dia": 1436,
      "dziec": 1437,
      "jakiś": 1438,
      "gospo": 1439,
      "chorą": 1440,
      "ile": 1441,
      "widział": 1442,
      "żd": 1443,
      "Mich": 1444,
      "obe": 1445,
      "pój": 1446,
      "owali": 1447,
      "On": 1448,
      "lle": 1449,
      "żem": 1450,
      "ina": 1451,
      "rozma": 1452,
      "trud": 1453,
      "rękę": 1454,
      "plied": 1455,
      "ono": 1456,
      "łę": 1457,
      "lit": 1458,
      "out": 1459,
      "Jan": 1460,
      "rad": 1461,
      "but": 1462,
      "kli": 1463,
      "dlatego": 1464,
      "swoje": 1465,
      "mod": 1466,
      "fir": 1467,
      "Go": 1468,
      "bą": 1469,
      "nością": 1470,
      "zes": 1471,
      "odrzekł": 1472,
      "szep": 1473,
      "wśród": 1474,
      "Me": 1475,
      "owała": 1476,
      "bia": 1477,
      "krót": 1478,
      "lem": 1479,
      "wraca": 1480,
      "temu": 1481,
      "trochę": 1482,
      "Ży": 1483,
      "wzi": 1484,
      "śle": 1485,
      "grze": 1486,
      "upo": 1487,
      "rzekła": 1488,
      "het": 1489,
      "pracy": 1490,
      "skrzy": 1491,
      "gentle": 1492,
      "kty": 1493,
      "wiąza": 1494,
      "nocy": 1495,
      "dziw": 1496,
      "pia": 1497,
      "gip": 1498,
      "dwóch": 1499,
      "spytał": 1500,
      "ust": 1501,
      "zbli": 1502,
      "woła": 1503,
      "So": 1504,
      "were": 1505,
      "przód": 1506,
      "śni": 1507,
      "replied": 1508,
      "został": 1509,
      "Dzi": 1510,
      "rea": 1511,
      "niach": 1512,
      "cier": 1513,
      "prawdę": 1514,
      "polity": 1515,
      "nicju": 1516,
      "tąd": 1517,
      "eller": 1518,
      "wiele": 1519,
      "chłop": 1520,
      "zer": 1521,
      "dali": 1522,
      "Be": 1523,
      "Winicju": 1524,
      "czeka": 1525,
      "they": 1526,
      "ling": 1527,
      "wszystkim": 1528,
      "zabi": 1529,
      "ratu": 1530,
      "leg": 1531,
      "Re": 1532,
      "sę": 1533,
      "miar": 1534,
      "czaj": 1535,
      "uj": 1536,
      "panna": 1537,
      "hand": 1538,
      "twar": 1539,
      "obec": 1540,
      "Weller": 1541,
      "cznego": 1542,
      "wość": 1543,
      "dle": 1544,
      "tery": 1545,
      "byś": 1546,
      "from": 1547,
      "rak": 1548,
      "ren": 1549,
      "służ": 1550,
      "ucz": 1551,
      "cznym": 1552,
      "kamie": 1553,
      "sprawie": 1554,
      "Szwe": 1555,
      "głu": 1556,
      "licy": 1557,
      "ant": 1558,
      "gani": 1559,
      "uśmie": 1560,
      "Jeśli": 1561,
      "Tymczasem": 1562,
      "twier": 1563,
      "razy": 1564,
      "pisa": 1565,
      "Zbyszko": 1566,
      "Jed": 1567,
      "Naj": 1568,
      "tysięcy": 1569,
      "oka": 1570,
      "Mać": 1571,
      "wiek": 1572,
      "Bogu": 1573,
      "rzej": 1574,
      "komu": 1575,
      "cami": 1576,
      "Dob": 1577,
      "kogo": 1578,
      "bły": 1579,
      "robo": 1580,
      "puł": 1581,
      "aną": 1582,
      "wasz": 1583,
      "ażeby": 1584,
      "całą": 1585,
      "ia": 1586,
      "wielki": 1587,
      "ded": 1588,
      "wania": 1589,
      "dziesią": 1590,
      "serce": 1591,
      "rzyć": 1592,
      "najmniej": 1593,
      "tami": 1594,
      "słucha": 1595,
      "później": 1596,
      "ber": 1597,
      "klę": 1598,
      "lon": 1599,
      "trą": 1600,
      "owane": 1601,
      "raź": 1602,
      "stały": 1603,
      "widać": 1604,
      "zbyt": 1605,
      "swego": 1606,
      "tom": 1607,
      "Warsza": 1608,
      "strzy": 1609,
      "czasie": 1610,
      "koniec": 1611,
      "dła": 1612,
      "gła": 1613,
      "śla": 1614,
      "wca": 1615,
      "!’": 1616,
      "razie": 1617,
      "rozm": 1618,
      "drzwi": 1619,
      "mieć": 1620,
      "ńskiego": 1621,
      "licz": 1622,
      "anym": 1623,
      "szły": 1624,
      "przer": 1625,
      "Sir": 1626,
      "szyb": 1627,
      "męż": 1628,
      "świecie": 1629,
      "zbro": 1630,
      "prawi": 1631,
      "miasta": 1632,
      "zwał": 1633,
      "publi": 1634,
      "old": 1635,
      "gości": 1636,
      "głów": 1637,
      "księcia": 1638,
      "kole": 1639,
      "właści": 1640,
      "krew": 1641,
      "anu": 1642,
      "net": 1643,
      "głosem": 1644,
      "spotka": 1645,
      "brzy": 1646,
      "mach": 1647,
      "sek": 1648,
      "strz": 1649,
      "bó": 1650,
      "szczegó": 1651,
      "poda": 1652,
      "bud": 1653,
      "resztą": 1654,
      "stoj": 1655,
      "wody": 1656,
      "bit": 1657,
      "wicz": 1658,
      "mały": 1659,
      "pią": 1660,
      "here": 1661,
      "zupełnie": 1662,
      "nii": 1663,
      "żenie": 1664,
      "gląd": 1665,
      "ral": 1666,
      "kój": 1667,
      "dziesię": 1668,
      "pił": 1669,
      "patrz": 1670,
      "wspo": 1671,
      "żar": 1672,
      "ształ": 1673,
      "obro": 1674,
      "będę": 1675,
      "nadzie": 1676,
      "czną": 1677,
      "jeżd": 1678,
      "infor": 1679,
      "dwu": 1680,
      "gał": 1681,
      "Cho": 1682,
      "nka": 1683,
      "dam": 1684,
      "af": 1685,
      "wało": 1686,
      "powi": 1687,
      "wro": 1688,
      "lnic": 1689,
      "pry": 1690,
      "mieli": 1691,
      "czoraj": 1692,
      "moje": 1693,
      "Panie": 1694,
      "smu": 1695,
      "zoba": 1696,
      "fu": 1697,
      "młody": 1698,
      "obu": 1699,
      "owią": 1700,
      "Jako": 1701,
      "ns": 1702,
      "mogę": 1703,
      "kapł": 1704,
      "wzię": 1705,
      "ard": 1706,
      "gry": 1707,
      "she": 1708,
      "samy": 1709,
      "wil": 1710,
      "chro": 1711,
      "koło": 1712,
      "mimo": 1713,
      "twarzy": 1714,
      "śmierci": 1715,
      "self": 1716,
      "ist": 1717,
      "king": 1718,
      "szczęśli": 1719,
      "ban": 1720,
      "nieco": 1721,
      "stępu": 1722,
      "zdu": 1723,
      "zabe": 1724,
      "mogą": 1725,
      "chodzą": 1726,
      "wówczas": 1727,
      "gach": 1728,
      "Pie": 1729,
      "kosz": 1730,
      "wtedy": 1731,
      "zaczę": 1732,
      "thing": 1733,
      "ciaż": 1734,
      "mogła": 1735,
      "krzyknął": 1736,
      "drodze": 1737,
      "okre": 1738,
      "wiście": 1739,
      "głową": 1740,
      "Ku": 1741,
      "drogi": 1742,
      "Ram": 1743,
      "isto": 1744,
      "list": 1745,
      "skła": 1746,
      "swoją": 1747,
      "kolwiek": 1748,
      "An": 1749,
      "Bar": 1750,
      "ks": 1751,
      "ning": 1752,
      "\",": 1753,
      "fara": 1754,
      "bił": 1755,
      "sach": 1756,
      "decy": 1757,
      "skoń": 1758,
      "Ci": 1759,
      "pada": 1760,
      "Kiedy": 1761,
      "Dzie": 1762,
      "jaką": 1763,
      "Teraz": 1764,
      "naz": 1765,
      "takim": 1766,
      "jednym": 1767,
      "wraz": 1768,
      "czał": 1769,
      "powiedzieć": 1770,
      "groma": 1771,
      "wska": 1772,
      "mną": 1773,
      "tele": 1774,
      "wor": 1775,
      "kształ": 1776,
      "been": 1777,
      "duszy": 1778,
      "jednej": 1779,
      "qui": 1780,
      "choćby": 1781,
      "czna": 1782,
      "słów": 1783,
      "Ha": 1784,
      "kaza": 1785,
      "kazu": 1786,
      "rycerz": 1787,
      "bor": 1788,
      "swoich": 1789,
      "tne": 1790,
      "fun": 1791,
      "tać": 1792,
      "jas": 1793,
      "dach": 1794,
      "our": 1795,
      "kapłan": 1796,
      "Izabe": 1797,
      "dzien": 1798,
      "some": 1799,
      "szczęście": 1800,
      "ckiego": 1801,
      "powin": 1802,
      "nau": 1803,
      "daje": 1804,
      "razu": 1805,
      "drogę": 1806,
      "Mie": 1807,
      "łów": 1808,
      "zwycię": 1809,
      "way": 1810,
      "maga": 1811,
      "serca": 1812,
      "Wszyst": 1813,
      "wiedział": 1814,
      "natu": 1815,
      "takich": 1816,
      "mili": 1817,
      "kur": 1818,
      "inne": 1819,
      "znala": 1820,
      "dobry": 1821,
      "Boże": 1822,
      "ud": 1823,
      "pomo": 1824,
      "zaczą": 1825,
      "puszcza": 1826,
      "dzenie": 1827,
      "are": 1828,
      "nęły": 1829,
      "bec": 1830,
      "if": 1831,
      "ssi": 1832,
      "rzenia": 1833,
      "into": 1834,
      "zmar": 1835,
      "posta": 1836,
      "obowią": 1837,
      "brał": 1838,
      "dobre": 1839,
      "naprzód": 1840,
      "chwila": 1841,
      "son": 1842,
      "polski": 1843,
      "ous": 1844,
      "wiąz": 1845,
      "ppe": 1846,
      "korzy": 1847,
      "kocha": 1848,
      "organi": 1849,
      "pierw": 1850,
      "możli": 1851,
      "cego": 1852,
      "przej": 1853,
      "your": 1854,
      "nasz": 1855,
      "ponie": 1856,
      "prawo": 1857,
      "nowe": 1858,
      "ńce": 1859,
      "lud": 1860,
      "śniej": 1861,
      "jedzie": 1862,
      "jechać": 1863,
      "kolej": 1864,
      "logi": 1865,
      "królew": 1866,
      "całe": 1867,
      "prowadzi": 1868,
      "Egip": 1869,
      "taka": 1870,
      "wanie": 1871,
      "boga": 1872,
      "cją": 1873,
      "szczo": 1874,
      "ogó": 1875,
      "kraj": 1876,
      "hat": 1877,
      "kan": 1878,
      "ałam": 1879,
      "całej": 1880,
      "śmierć": 1881,
      "pić": 1882,
      "snął": 1883,
      "rado": 1884,
      "łek": 1885,
      "umie": 1886,
      "wego": 1887,
      "biał": 1888,
      "Chmie": 1889,
      "jącego": 1890,
      "cieka": 1891,
      "myśle": 1892,
      "wiać": 1893,
      "zapa": 1894,
      "glę": 1895,
      "lny": 1896,
      "minu": 1897,
      "prawda": 1898,
      "przecież": 1899,
      "LE": 1900,
      "Boga": 1901,
      "zaj": 1902,
      "Ksią": 1903,
      "Niem": 1904,
      "zła": 1905,
      "wszel": 1906,
      "stry": 1907,
      "wzglę": 1908,
      "chnął": 1909,
      "trzymał": 1910,
      "skó": 1911,
      "dostoj": 1912,
      "wielu": 1913,
      "bel": 1914,
      "when": 1915,
      "rie": 1916,
      "człowieka": 1917,
      "Gdzie": 1918,
      "gentleman": 1919,
      "opie": 1920,
      "czach": 1921,
      "najwięk": 1922,
      "inaczej": 1923,
      "cóż": 1924,
      "powta": 1925,
      "miejscu": 1926,
      "świąty": 1927,
      "tymi": 1928,
      "bić": 1929,
      "znale": 1930,
      "dowie": 1931,
      "bło": 1932,
      "często": 1933,
      "Mó": 1934,
      "cio": 1935,
      "czyn": 1936,
      "czek": 1937,
      "nato": 1938,
      "kraju": 1939,
      "Al": 1940,
      "dziwił": 1941,
      "cen": 1942,
      "there": 1943,
      "żony": 1944,
      "dawało": 1945,
      "góry": 1946,
      "końcu": 1947,
      "Bu": 1948,
      "tre": 1949,
      "daj": 1950,
      "jakieś": 1951,
      "Winicjusz": 1952,
      "tni": 1953,
      "bod": 1954,
      "lnych": 1955,
      "pio": 1956,
      "waćpan": 1957,
      "poło": 1958,
      "mian": 1959,
      "cząc": 1960,
      "brać": 1961,
      "gin": 1962,
      "takiego": 1963,
      "zen": 1964,
      "sier": 1965,
      "rady": 1966,
      "tysią": 1967,
      "czyz": 1968,
      "ogrom": 1969,
      "gan": 1970,
      "sztu": 1971,
      "skiem": 1972,
      "ele": 1973,
      "mru": 1974,
      "otwo": 1975,
      "żenia": 1976,
      "piersi": 1977,
      "jącym": 1978,
      "poja": 1979,
      "jeź": 1980,
      "swoim": 1981,
      "spi": 1982,
      "niesie": 1983,
      "połu": 1984,
      "sio": 1985,
      "ńców": 1986,
      "czyła": 1987,
      "mogli": 1988,
      "swej": 1989,
      "Rzeczy": 1990,
      "sma": 1991,
      "Był": 1992,
      "Maćko": 1993,
      "Cz": 1994,
      "rou": 1995,
      "chociaż": 1996,
      "taką": 1997,
      "otwar": 1998,
      "rew": 1999,
      "maty": 2000,
      "ziemię": 2001,
      "twie": 2002,
      "zię": 2003,
      "nogi": 2004,
      "staro": 2005,
      "Oto": 2006,
      "niepo": 2007,
      "set": 2008,
      "świata": 2009,
      "należy": 2010,
      "inni": 2011,
      "stare": 2012,
      "Fe": 2013,
      "wcze": 2014,
      "jemy": 2015,
      "lał": 2016,
      "przyszło": 2017,
      "zaję": 2018,
      "gospodar": 2019,
      "chorąg": 2020,
      "tała": 2021,
      "ńcu": 2022,
      "uczu": 2023,
      "ręką": 2024,
      "mało": 2025,
      "mieni": 2026,
      "rzucił": 2027,
      "ciągnął": 2028,
      "gląda": 2029,
      "Skrzetuski": 2030,
      "prawa": 2031,
      "jaka": 2032,
      "say": 2033,
      "osób": 2034,
      "chrze": 2035,
      "mienia": 2036,
      "owskiego": 2037,
      "jesz": 2038,
      "Przez": 2039,
      "lata": 2040,
      "pięć": 2041,
      "run": 2042,
      "wielkie": 2043,
      "wyj": 2044,
      "głowie": 2045,
      "zasa": 2046,
      "jednego": 2047,
      "stronę": 2048,
      "menta": 2049,
      "powtó": 2050,
      "jakim": 2051,
      "moja": 2052,
      "rzuca": 2053,
      "ckie": 2054,
      "zdy": 2055,
      "zapytał": 2056,
      "tobie": 2057,
      "sama": 2058,
      "zji": 2059,
      "Staś": 2060,
      "miejsce": 2061,
      "bła": 2062,
      "mer": 2063,
      "Win": 2064,
      "owany": 2065,
      "wypad": 2066,
      "bezpiecze": 2067,
      "nce": 2068,
      "czka": 2069,
      "zapew": 2070,
      "miecz": 2071,
      "anej": 2072,
      "tna": 2073,
      "pozy": 2074,
      "Chmielnic": 2075,
      "wczoraj": 2076,
      "bior": 2077,
      "znaczy": 2078,
      "póki": 2079,
      "zaczął": 2080,
      "koch": 2081,
      "kazy": 2082,
      "wojska": 2083,
      "kwi": 2084,
      "time": 2085,
      "Ne": 2086,
      "uda": 2087,
      "wdzię": 2088,
      "nieprzyjacie": 2089,
      "Tam": 2090,
      "ktor": 2091,
      "wasza": 2092,
      "sir": 2093,
      "kul": 2094,
      "ńskich": 2095,
      "uży": 2096,
      "pat": 2097,
      "ii": 2098,
      "krwi": 2099,
      "wojny": 2100,
      "little": 2101,
      "dko": 2102,
      "zem": 2103,
      "leci": 2104,
      "okru": 2105,
      "chodził": 2106,
      "ckich": 2107,
      "prosi": 2108,
      "niebo": 2109,
      "ful": 2110,
      "liz": 2111,
      "tymczasem": 2112,
      "wąt": 2113,
      "miłości": 2114,
      "Ze": 2115,
      "miały": 2116,
      "przygo": 2117,
      "cąc": 2118,
      "ntów": 2119,
      "zamk": 2120,
      "widok": 2121,
      "niebie": 2122,
      "cieli": 2123,
      "jecha": 2124,
      "ktoś": 2125,
      "Ry": 2126,
      "jąca": 2127,
      "nęli": 2128,
      "miało": 2129,
      "dziedzi": 2130,
      "wódz": 2131,
      "podej": 2132,
      "cym": 2133,
      "lony": 2134,
      "siada": 2135,
      "min": 2136,
      "czony": 2137,
      "potrzeb": 2138,
      "nienia": 2139,
      "tychmiast": 2140,
      "bój": 2141,
      "miesią": 2142,
      "szero": 2143,
      "rozpa": 2144,
      "jedną": 2145,
      "pen": 2146,
      "wiał": 2147,
      "podniósł": 2148,
      "prezy": 2149,
      "pokoju": 2150,
      "sąd": 2151,
      "prawdzie": 2152,
      "potęż": 2153,
      "Ten": 2154,
      "cała": 2155,
      "wach": 2156,
      "mem": 2157,
      "obok": 2158,
      "chrześci": 2159,
      "kapła": 2160,
      "wer": 2161,
      "wojsk": 2162,
      "daleko": 2163,
      "jo": 2164,
      "szem": 2165,
      "konia": 2166,
      "giem": 2167,
      "głębo": 2168,
      "sprze": 2169,
      "tny": 2170,
      "ciec": 2171,
      "ramiona": 2172,
      "ąć": 2173,
      "pusty": 2174,
      "pospolitej": 2175,
      "idzie": 2176,
      "art": 2177,
      "jesteś": 2178,
      "zdra": 2179,
      "pał": 2180,
      "para": 2181,
      "języ": 2182,
      "ńskie": 2183,
      "mio": 2184,
      "Potem": 2185,
      "usza": 2186,
      "szwe": 2187,
      "upon": 2188,
      "wcale": 2189,
      "lone": 2190,
      "anego": 2191,
      "200": 2192,
      "ria": 2193,
      "mówię": 2194,
      "dziesiąt": 2195,
      "Słu": 2196,
      "ukry": 2197,
      "wnę": 2198,
      "nar": 2199,
      "szwedz": 2200,
      "jącą": 2201,
      "ądź": 2202,
      "Gdyby": 2203,
      "ura": 2204,
      "czeniu": 2205,
      "łym": 2206,
      "Woj": 2207,
      "dziewczy": 2208,
      "lskiego": 2209,
      "gor": 2210,
      "biegł": 2211,
      "właszcza": 2212,
      "lić": 2213,
      "wić": 2214,
      "parę": 2215,
      "patrzył": 2216,
      "wski": 2217,
      "ces": 2218,
      "nęło": 2219,
      "czerwo": 2220,
      "wod": 2221,
      "Petro": 2222,
      "łych": 2223,
      "współ": 2224,
      "siadł": 2225,
      "know": 2226,
      "dego": 2227,
      "gór": 2228,
      "drugiej": 2229,
      "samym": 2230,
      "Cóż": 2231,
      "żało": 2232,
      "zacji": 2233,
      "chcesz": 2234,
      "wobec": 2235,
      "około": 2236,
      "Petroniu": 2237,
      "De": 2238,
      "tere": 2239,
      "olbrzy": 2240,
      "Michał": 2241,
      "kowie": 2242,
      "natychmiast": 2243,
      "Wiel": 2244,
      "iść": 2245,
      "cle": 2246,
      "hy": 2247,
      "pała": 2248,
      "chni": 2249,
      "gorą": 2250,
      "would": 2251,
      "dlaczego": 2252,
      "poczęła": 2253,
      "pomoc": 2254,
      "rzuci": 2255,
      "oczyma": 2256,
      "Tata": 2257,
      "warto": 2258,
      "ńskiej": 2259,
      "świ": 2260,
      "wen": 2261,
      "owia": 2262,
      "łeś": 2263,
      "Rzeczypospolitej": 2264,
      "ting": 2265,
      "swój": 2266,
      "zwrócił": 2267,
      "don": 2268,
      "ręku": 2269,
      "ven": 2270,
      "muje": 2271,
      "look": 2272,
      "wór": 2273,
      "chodzić": 2274,
      "słyszał": 2275,
      "Ligi": 2276,
      "każdym": 2277,
      "Czar": 2278,
      "Si": 2279,
      "Wła": 2280,
      "niez": 2281,
      "sur": 2282,
      "grani": 2283,
      "pita": 2284,
      "prawdzi": 2285,
      "Ot": 2286,
      "komen": 2287,
      "dosta": 2288,
      "długi": 2289,
      "Se": 2290,
      "znać": 2291,
      "Pola": 2292,
      "albowiem": 2293,
      "króla": 2294,
      "odpowiedzi": 2295,
      "uli": 2296,
      "przekona": 2297,
      "prostu": 2298,
      "fore": 2299,
      "samego": 2300,
      "Winkle": 2301,
      "Trze": 2302,
      "naprawdę": 2303,
      "bio": 2304,
      "jeżdża": 2305,
      "grz": 2306,
      "proszę": 2307,
      "Jeżeli": 2308,
      "tajem": 2309,
      "bur": 2310,
      ".”": 2311,
      "Ody": 2312,
      "ving": 2313,
      "wan": 2314,
      "rzem": 2315,
      "społe": 2316,
      "Chry": 2317,
      "them": 2318,
      "powiem": 2319,
      "niejsze": 2320,
      "znaleź": 2321,
      "tyw": 2322,
      "side": 2323,
      "musiał": 2324,
      "nasze": 2325,
      "nieść": 2326,
      "czyni": 2327,
      "their": 2328,
      "La": 2329,
      "doty": 2330,
      "ceza": 2331,
      "most": 2332,
      "prost": 2333,
      "pełni": 2334,
      "…”": 2335,
      "chcę": 2336,
      "syn": 2337,
      "ciągle": 2338,
      "gami": 2339,
      "wieczo": 2340,
      "obra": 2341,
      "ses": 2342,
      "pracow": 2343,
      "ić": 2344,
      "tch": 2345,
      "trza": 2346,
      "koła": 2347,
      "tua": 2348,
      "ciąż": 2349,
      "Przed": 2350,
      "wziął": 2351,
      "uch": 2352,
      "duje": 2353,
      "szak": 2354,
      "czone": 2355,
      "dzej": 2356,
      "uważa": 2357,
      "zw": 2358,
      "łó": 2359,
      "poch": 2360,
      "woda": 2361,
      "knia": 2362,
      "żeś": 2363,
      "wyja": 2364,
      "państwa": 2365,
      "prócz": 2366,
      "Spo": 2367,
      "znał": 2368,
      "Jagie": 2369,
      "zwykle": 2370,
      "ojciec": 2371,
      "OF": 2372,
      "yy": 2373,
      "wybu": 2374,
      "gać": 2375,
      "bry": 2376,
      "lnego": 2377,
      "nagro": 2378,
      "śnia": 2379,
      "siły": 2380,
      "szybko": 2381,
      "Nel": 2382,
      "listy": 2383,
      "rzeć": 2384,
      "mamy": 2385,
      "interes": 2386,
      "żna": 2387,
      "przypad": 2388,
      "doj": 2389,
      "stosu": 2390,
      "hetman": 2391,
      "il": 2392,
      "kup": 2393,
      "żyła": 2394,
      "Kon": 2395,
      "cka": 2396,
      "poru": 2397,
      "obej": 2398,
      "słusz": 2399,
      "miłość": 2400,
      "Euro": 2401,
      "okaz": 2402,
      "poczęli": 2403,
      "Andrzej": 2404,
      "wiadomo": 2405,
      "mowa": 2406,
      "Sy": 2407,
      "ciel": 2408,
      "pil": 2409,
      "przedstawi": 2410,
      "zio": 2411,
      "poczęły": 2412,
      "mon": 2413,
      "gniew": 2414,
      "stop": 2415,
      "wzro": 2416,
      "miejsca": 2417,
      "Ge": 2418,
      "zdzi": 2419,
      "wają": 2420,
      "Ramzes": 2421,
      "zim": 2422,
      "sząc": 2423,
      "weso": 2424,
      "ziem": 2425,
      "puścił": 2426,
      "Pat": 2427,
      "Zo": 2428,
      "rabia": 2429,
      "lach": 2430,
      "more": 2431,
      "groź": 2432,
      "ruszył": 2433,
      "zwłaszcza": 2434,
      "szk": 2435,
      "koni": 2436,
      "mojej": 2437,
      "szył": 2438,
      "dodał": 2439,
      "swojej": 2440,
      "Nic": 2441,
      "hor": 2442,
      "Danu": 2443,
      "cór": 2444,
      "widzę": 2445,
      "pas": 2446,
      "nikiem": 2447,
      "dużo": 2448,
      "dowo": 2449,
      "urzę": 2450,
      "wnio": 2451,
      "nien": 2452,
      "budow": 2453,
      "całym": 2454,
      "dzwo": 2455,
      "Jedna": 2456,
      "Dzię": 2457,
      "części": 2458,
      "ogar": 2459,
      "górę": 2460,
      "Praw": 2461,
      "dała": 2462,
      "ton": 2463,
      "owicz": 2464,
      "niewol": 2465,
      "inter": 2466,
      "stanę": 2467,
      "łego": 2468,
      "Sie": 2469,
      "rand": 2470,
      "rzenie": 2471,
      "himself": 2472,
      "riend": 2473,
      "błę": 2474,
      "kola": 2475,
      "kuję": 2476,
      "Polsce": 2477,
      "naście": 2478,
      "dotąd": 2479,
      "stoi": 2480,
      "dawno": 2481,
      "ELE": 2482,
      "abo": 2483,
      "niejszy": 2484,
      "ojca": 2485,
      "zarazem": 2486,
      "innego": 2487,
      "obraz": 2488,
      "szere": 2489,
      "powiadał": 2490,
      "jan": 2491,
      "pose": 2492,
      "rol": 2493,
      "kara": 2494,
      "jutro": 2495,
      "oczach": 2496,
      "pora": 2497,
      "dzieje": 2498,
      "przyję": 2499,
      "zostanie": 2500,
      "18": 2501,
      "Zy": 2502,
      "ił": 2503,
      "zało": 2504,
      "wyszedł": 2505,
      "staw": 2506,
      "Au": 2507,
      "friend": 2508,
      "ogni": 2509,
      "żołnierzy": 2510,
      "lega": 2511,
      "ness": 2512,
      "progra": 2513,
      "down": 2514,
      "szlachci": 2515,
      "nor": 2516,
      "iz": 2517,
      "leń": 2518,
      "żegna": 2519,
      "siedzi": 2520,
      "trzymać": 2521,
      "gla": 2522,
      "oczu": 2523,
      "pali": 2524,
      "cześnie": 2525,
      "pienię": 2526,
      "Bę": 2527,
      "Cie": 2528,
      "sow": 2529,
      "dziecko": 2530,
      "ac": 2531,
      "potrafi": 2532,
      "teri": 2533,
      "Książę": 2534,
      "klu": 2535,
      "udział": 2536,
      "mistrz": 2537,
      "wydo": 2538,
      "pun": 2539,
      "Tylko": 2540,
      "ńskim": 2541,
      "znajo": 2542,
      "FI": 2543,
      "Her": 2544,
      "Kró": 2545,
      "thin": 2546,
      "mery": 2547,
      "199": 2548,
      "Ar": 2549,
      "wami": 2550,
      "głowa": 2551,
      "med": 2552,
      "część": 2553,
      "Jego": 2554,
      "spostrze": 2555,
      "Powie": 2556,
      "lnym": 2557,
      "żona": 2558,
      "ponad": 2559,
      "stor": 2560,
      "moim": 2561,
      "mieniu": 2562,
      "życiu": 2563,
      "została": 2564,
      "kwia": 2565,
      "swych": 2566,
      "sposob": 2567,
      "pory": 2568,
      "nice": 2569,
      "trzech": 2570,
      "Mrs": 2571,
      "powodu": 2572,
      "ME": 2573,
      "ps": 2574,
      "rob": 2575,
      "sytua": 2576,
      "fina": 2577,
      "następnie": 2578,
      "informa": 2579,
      "jechali": 2580,
      "niku": 2581,
      "tutaj": 2582,
      "skał": 2583,
      "pozwoli": 2584,
      "Kor": 2585,
      "ckiej": 2586,
      "spodzie": 2587,
      "wiecz": 2588,
      "produ": 2589,
      "rąk": 2590,
      "początku": 2591,
      "wspó": 2592,
      "stępo": 2593,
      "mysł": 2594,
      "tys": 2595,
      "prowadził": 2596,
      "szuka": 2597,
      "what": 2598,
      "rał": 2599,
      "swą": 2600,
      "proje": 2601,
      "fil": 2602,
      "kąd": 2603,
      "niemie": 2604,
      "pomyślał": 2605,
      "zami": 2606,
      "dent": 2607,
      "pienią": 2608,
      "mek": 2609,
      "auto": 2610,
      "gwia": 2611,
      "jąć": 2612,
      "pułkow": 2613,
      "sną": 2614,
      "zapła": 2615,
      "mąd": 2616,
      "other": 2617,
      "zresztą": 2618,
      "zamiast": 2619,
      "soby": 2620,
      "wszech": 2621,
      "prędzej": 2622,
      "zni": 2623,
      "znalazł": 2624,
      "chów": 2625,
      "spod": 2626,
      "ogro": 2627,
      "stron": 2628,
      "wojen": 2629,
      "ts": 2630,
      "cztery": 2631,
      "poprzed": 2632,
      "skiemu": 2633,
      "ER": 2634,
      "pokry": 2635,
      "raczej": 2636,
      "mią": 2637,
      "ściu": 2638,
      "ved": 2639,
      "Ru": 2640,
      "krzyk": 2641,
      "robić": 2642,
      "great": 2643,
      "10": 2644,
      "szczą": 2645,
      "jakiej": 2646,
      "czuł": 2647,
      "wielką": 2648,
      "brz": 2649,
      "lite": 2650,
      "zamie": 2651,
      "przykład": 2652,
      "nicę": 2653,
      "Pio": 2654,
      "dług": 2655,
      "takiej": 2656,
      "czych": 2657,
      "krótce": 2658,
      "You": 2659,
      "naszych": 2660,
      "stem": 2661,
      "arty": 2662,
      "głoś": 2663,
      "ksiądz": 2664,
      "It": 2665,
      "ocze": 2666,
      "wpły": 2667,
      "wciąż": 2668,
      "komi": 2669,
      "mienie": 2670,
      "pewno": 2671,
      "----": 2672,
      "Koza": 2673,
      "przerwał": 2674,
      "jącej": 2675,
      "siła": 2676,
      "widocznie": 2677,
      "nica": 2678,
      "Oj": 2679,
      "zgu": 2680,
      "czło": 2681,
      "najlep": 2682,
      "prezen": 2683,
      "could": 2684,
      "Polski": 2685,
      "słał": 2686,
      "niony": 2687,
      "trwo": 2688,
      "spokojnie": 2689,
      "ey": 2690,
      "good": 2691,
      "zaba": 2692,
      "dzili": 2693,
      "myślę": 2694,
      "spie": 2695,
      "znak": 2696,
      "zgin": 2697,
      "15": 2698,
      "chmu": 2699,
      "owana": 2700,
      "proble": 2701,
      "wnet": 2702,
      "wprawdzie": 2703,
      "wid": 2704,
      "pewnie": 2705,
      "uczyni": 2706,
      "Wszystko": 2707,
      "Któ": 2708,
      "kwa": 2709,
      "stwie": 2710,
      "lady": 2711,
      "Ga": 2712,
      "lnej": 2713,
      "ńska": 2714,
      "pacho": 2715,
      "Tade": 2716,
      "krzyw": 2717,
      "Jurand": 2718,
      "prędko": 2719,
      "Pier": 2720,
      "aga": 2721,
      "imię": 2722,
      "sre": 2723,
      "bij": 2724,
      "zamku": 2725,
      "ciągu": 2726,
      "tłuma": 2727,
      "Fa": 2728,
      "Ho": 2729,
      "wyraź": 2730,
      "odda": 2731,
      "tury": 2732,
      "rozpo": 2733,
      "broni": 2734,
      "sji": 2735,
      "zwa": 2736,
      "pochy": 2737,
      "lenia": 2738,
      "kor": 2739,
      "Jeszcze": 2740,
      "jakoby": 2741,
      "dan": 2742,
      "dniu": 2743,
      "ucze": 2744,
      "dobro": 2745,
      "wsty": 2746,
      "czkę": 2747,
      "państ": 2748,
      "deli": 2749,
      "baron": 2750,
      "mego": 2751,
      "żołnierz": 2752,
      "natomiast": 2753,
      "szan": 2754,
      "skąd": 2755,
      "stej": 2756,
      "AN": 2757,
      "ukła": 2758,
      "zostawi": 2759,
      "Chrystu": 2760,
      "clo": 2761,
      "wając": 2762,
      "panem": 2763,
      "łatwo": 2764,
      "słowo": 2765,
      "Wtem": 2766,
      "rat": 2767,
      "len": 2768,
      "mił": 2769,
      "mogło": 2770,
      "head": 2771,
      "sprawiedli": 2772,
      "Izabela": 2773,
      "lności": 2774,
      "opi": 2775,
      "plan": 2776,
      "zawie": 2777,
      "doświad": 2778,
      "podczas": 2779,
      "sercu": 2780,
      "będziesz": 2781,
      "chcą": 2782,
      "waszej": 2783,
      "obli": 2784,
      "biały": 2785,
      "brak": 2786,
      "skoczył": 2787,
      "żone": 2788,
      "chrześcija": 2789,
      "Sę": 2790,
      "ostro": 2791,
      "pomina": 2792,
      "stre": 2793,
      "tobli": 2794,
      "prowadzić": 2795,
      "ofiar": 2796,
      "źle": 2797,
      "czem": 2798,
      "liście": 2799,
      "will": 2800,
      "jakiego": 2801,
      "tuje": 2802,
      "spojrzał": 2803,
      "zwo": 2804,
      "częście": 2805,
      "panowie": 2806,
      "kobiety": 2807,
      "mował": 2808,
      "szar": 2809,
      "mówiła": 2810,
      "sława": 2811,
      "słysz": 2812,
      "poszedł": 2813,
      "doda": 2814,
      "kawa": 2815,
      "lubi": 2816,
      "miejsc": 2817,
      "Now": 2818,
      "poł": 2819,
      "poważ": 2820,
      "ład": 2821,
      "loka": 2822,
      "Chci": 2823,
      "rycer": 2824,
      "Pre": 2825,
      "próż": 2826,
      "inny": 2827,
      "ręko": 2828,
      "wód": 2829,
      "ocho": 2830,
      "postanowi": 2831,
      "!\"": 2832,
      "Fran": 2833,
      "bru": 2834,
      "związ": 2835,
      "podo": 2836,
      "całkiem": 2837,
      "Dobrze": 2838,
      "mówiąc": 2839,
      "blisko": 2840,
      "padła": 2841,
      "siaj": 2842,
      "pierwszej": 2843,
      "after": 2844,
      "faraon": 2845,
      "poza": 2846,
      "przede": 2847,
      "mier": 2848,
      "legł": 2849,
      "muzy": 2850,
      "Petroniusz": 2851,
      "gnął": 2852,
      "doku": 2853,
      "przyszedł": 2854,
      "then": 2855,
      "rium": 2856,
      "nazy": 2857,
      "than": 2858,
      "głosy": 2859,
      "równa": 2860,
      "wielkim": 2861,
      "STOF": 2862,
      "ELES": 2863,
      "FISTOF": 2864,
      "MEFISTOF": 2865,
      "again": 2866,
      "MEFISTOFELES": 2867,
      "can": 2868,
      "pocie": 2869,
      "ced": 2870,
      "parti": 2871,
      "specja": 2872,
      "Mam": 2873,
      "zaczyna": 2874,
      "Przecie": 2875,
      "shou": 2876,
      "Rozdział": 2877,
      "funk": 2878,
      "Są": 2879,
      "boż": 2880,
      "skę": 2881,
      "trzeć": 2882,
      "nowy": 2883,
      "dziła": 2884,
      "pej": 2885,
      "Radziwił": 2886,
      "Ach": 2887,
      "wnie": 2888,
      "niezmie": 2889,
      "sali": 2890,
      "Trzeba": 2891,
      "pieniądze": 2892,
      "ram": 2893,
      "przyjdzie": 2894,
      "Każ": 2895,
      "AT": 2896,
      "tkiem": 2897,
      "vo": 2898,
      "piecho": 2899,
      "stąpił": 2900,
      "sny": 2901,
      "wrócić": 2902,
      "dłuż": 2903,
      "Jakoż": 2904,
      "ap": 2905,
      "oce": 2906,
      "twój": 2907,
      "cicho": 2908,
      "tygo": 2909,
      "rozkaz": 2910,
      "Pani": 2911,
      "myśla": 2912,
      "chodziło": 2913,
      "rozumiał": 2914,
      "zrobić": 2915,
      "intere": 2916,
      "leka": 2917,
      "szenia": 2918,
      "bierze": 2919,
      "niosła": 2920,
      "pomni": 2921,
      "Sły": 2922,
      "moją": 2923,
      "Sto": 2924,
      "ciół": 2925,
      "byle": 2926,
      "wolno": 2927,
      "CH": 2928,
      "naszej": 2929,
      "stwem": 2930,
      "grzy": 2931,
      "pt": 2932,
      "nosił": 2933,
      "tychczas": 2934,
      "chcąc": 2935,
      "nemu": 2936,
      "odwie": 2937,
      "much": 2938,
      "przynajmniej": 2939,
      "żyli": 2940,
      "żywo": 2941,
      "hetma": 2942,
      "kru": 2943,
      "nieba": 2944,
      "rać": 2945,
      "żela": 2946,
      "żyw": 2947,
      "Rzy": 2948,
      ".,": 2949,
      "gli": 2950,
      "porząd": 2951,
      "lenie": 2952,
      "jazd": 2953,
      "lau": 2954,
      "szek": 2955,
      "miasto": 2956,
      "stronie": 2957,
      "Wokulskiego": 2958,
      "pisał": 2959,
      "trudno": 2960,
      "Chi": 2961,
      "szto": 2962,
      "danie": 2963,
      "przera": 2964,
      "30": 2965,
      "chle": 2966,
      "wich": 2967,
      "wierz": 2968,
      "dzier": 2969,
      "przewo": 2970,
      "mieniem": 2971,
      "fra": 2972,
      "lum": 2973,
      "sprawy": 2974,
      "nazwi": 2975,
      "źni": 2976,
      "każe": 2977,
      "przyjaciół": 2978,
      "Du": 2979,
      "narod": 2980,
      "stawie": 2981,
      "kiedyś": 2982,
      "OR": 2983,
      "gię": 2984,
      "spół": 2985,
      "stów": 2986,
      "jech": 2987,
      "dami": 2988,
      "różnych": 2989,
      "Or": 2990,
      "czci": 2991,
      "wieku": 2992,
      "sej": 2993,
      "pytała": 2994,
      "książ": 2995,
      "końca": 2996,
      "świątobli": 2997,
      "ogóle": 2998,
      "Lit": 2999,
      "Pu": 3000,
      "Su": 3001,
      "ds": 3002,
      "nków": 3003,
      "over": 3004,
      "ies": 3005,
      "równo": 3006,
      "12": 3007,
      "ponieważ": 3008,
      "sro": 3009,
      "speł": 3010,
      "źnie": 3011,
      "FA": 3012,
      "IE": 3013,
      "har": 3014,
      "tnych": 3015,
      "mając": 3016,
      "sil": 3017,
      "stytu": 3018,
      "zba": 3019,
      "pot": 3020,
      "dzian": 3021,
      "moich": 3022,
      "rum": 3023,
      "boy": 3024,
      "nione": 3025,
      "ction": 3026,
      "groz": 3027,
      "odzy": 3028,
      "sługi": 3029,
      "wszedł": 3030,
      "mogły": 3031,
      "about": 3032,
      "thou": 3033,
      "długie": 3034,
      "Krzyża": 3035,
      "tmo": 3036,
      "niby": 3037,
      "staje": 3038,
      "zdrowie": 3039,
      "Hi": 3040,
      "oby": 3041,
      "mieście": 3042,
      "pieniędzy": 3043,
      "pta": 3044,
      "zakoń": 3045,
      "regu": 3046,
      "wodę": 3047,
      "bom": 3048,
      "szenie": 3049,
      "wez": 3050,
      "spor": 3051,
      "jach": 3052,
      "innym": 3053,
      "niami": 3054,
      "okrzy": 3055,
      "nóg": 3056,
      "rzyła": 3057,
      "waj": 3058,
      "wyzna": 3059,
      "see": 3060,
      "chaj": 3061,
      "mówią": 3062,
      "zdraj": 3063,
      "wnętrz": 3064,
      "SA": 3065,
      "widząc": 3066,
      "door": 3067,
      "przyczy": 3068,
      "suk": 3069,
      "którymi": 3070,
      "rzekłszy": 3071,
      "Jezu": 3072,
      "znajdzie": 3073,
      "chwycił": 3074,
      "swym": 3075,
      "żon": 3076,
      "nieszczę": 3077,
      "poczy": 3078,
      "cel": 3079,
      "pać": 3080,
      "nąwszy": 3081,
      "byłem": 3082,
      "istotnie": 3083,
      "zga": 3084,
      "ńcy": 3085,
      "wymi": 3086,
      "szyć": 3087,
      "muszę": 3088,
      "ręki": 3089,
      "kroć": 3090,
      "pytanie": 3091,
      "Proszę": 3092,
      "śmiał": 3093,
      "ciła": 3094,
      "zostały": 3095,
      "nięte": 3096,
      "Jednak": 3097,
      "ker": 3098,
      "dzisiaj": 3099,
      "siedział": 3100,
      "Nagle": 3101,
      "straszli": 3102,
      "gier": 3103,
      "ministra": 3104,
      "ńczy": 3105,
      "sion": 3106,
      "stym": 3107,
      "niezmier": 3108,
      "zac": 3109,
      "rucho": 3110,
      "stanął": 3111,
      "godziny": 3112,
      "cierpli": 3113,
      "rodza": 3114,
      "rzec": 3115,
      "wybo": 3116,
      "laty": 3117,
      "sing": 3118,
      "cof": 3119,
      "panny": 3120,
      "wład": 3121,
      "tęsk": 3122,
      "środku": 3123,
      "nadz": 3124,
      "naszego": 3125,
      "tuż": 3126,
      "proc": 3127,
      "bliż": 3128,
      "Basia": 3129,
      "Eu": 3130,
      "did": 3131,
      "opa": 3132,
      "zów": 3133,
      "chan": 3134,
      "przestrze": 3135,
      "Nawet": 3136,
      "Kali": 3137,
      "prób": 3138,
      "Myś": 3139,
      "powinien": 3140,
      "kowa": 3141,
      "dziel": 3142,
      "before": 3143,
      "sunął": 3144,
      "glądał": 3145,
      "dziesięć": 3146,
      "szer": 3147,
      "powro": 3148,
      "wolna": 3149,
      "powa": 3150,
      "jakich": 3151,
      "tyka": 3152,
      "świet": 3153,
      "wtrą": 3154,
      "”,": 3155,
      "kieru": 3156,
      "kuje": 3157,
      "wzru": 3158,
      "zwyczaj": 3159,
      "bów": 3160,
      "uje": 3161,
      "niena": 3162,
      "polu": 3163,
      "kont": 3164,
      "tale": 3165,
      "tobą": 3166,
      "wiedzieć": 3167,
      "dis": 3168,
      "okoli": 3169,
      "III": 3170,
      "nieu": 3171,
      "niedo": 3172,
      "lin": 3173,
      "znacznie": 3174,
      "ogie": 3175,
      "ogra": 3176,
      "Tutmo": 3177,
      "zostać": 3178,
      "Dziś": 3179,
      "Czarniec": 3180,
      "Tutmozi": 3181,
      "ab": 3182,
      "gwał": 3183,
      "low": 3184,
      "zatrzy": 3185,
      "party": 3186,
      "powtórzył": 3187,
      "20": 3188,
      "wcześniej": 3189,
      "room": 3190,
      "okrę": 3191,
      "powtarza": 3192,
      "żal": 3193,
      "dania": 3194,
      "ep": 3195,
      "va": 3196,
      "ledwie": 3197,
      "kierow": 3198,
      "obser": 3199,
      "stawia": 3200,
      "prasza": 3201,
      "żyje": 3202,
      "spokój": 3203,
      "ręka": 3204,
      "gdzieś": 3205,
      "samej": 3206,
      "kły": 3207,
      "osie": 3208,
      "wili": 3209,
      "face": 3210,
      "uczynił": 3211,
      "ustawy": 3212,
      "żołnierze": 3213,
      "Stra": 3214,
      "miest": 3215,
      "bili": 3216,
      "najwyż": 3217,
      "drob": 3218,
      "słysze": 3219,
      "szepnął": 3220,
      "Aż": 3221,
      "bądź": 3222,
      "szczu": 3223,
      "kana": 3224,
      "tali": 3225,
      "ruch": 3226,
      "dobra": 3227,
      "gni": 3228,
      "ort": 3229,
      "duch": 3230,
      "histor": 3231,
      "wszę": 3232,
      "dzał": 3233,
      "któw": 3234,
      "come": 3235,
      "więzie": 3236,
      "young": 3237,
      "myśleć": 3238,
      "pów": 3239,
      "żół": 3240,
      "ponu": 3241,
      "like": 3242,
      "skle": 3243,
      "skoro": 3244,
      "nowo": 3245,
      "misji": 3246,
      "wstrzy": 3247,
      "ged": 3248,
      "włosy": 3249,
      "Ket": 3250,
      "car": 3251,
      "czyło": 3252,
      "day": 3253,
      "panią": 3254,
      "inqui": 3255,
      "piec": 3256,
      "rozum": 3257,
      "Kazi": 3258,
      "księży": 3259,
      "Kry": 3260,
      "oz": 3261,
      "ope": 3262,
      "dotychczas": 3263,
      "rubli": 3264,
      "entu": 3265,
      "dzony": 3266,
      "chłopa": 3267,
      "waszmości": 3268,
      "Lon": 3269,
      "Sej": 3270,
      "nat": 3271,
      "czwar": 3272,
      "materi": 3273,
      "ent": 3274,
      "hun": 3275,
      "pogo": 3276,
      "żaden": 3277,
      "kroków": 3278,
      "niejszych": 3279,
      "wojna": 3280,
      "chciała": 3281,
      "szukać": 3282,
      "słońce": 3283,
      "opowiada": 3284,
      "wsi": 3285,
      "wyczaj": 3286,
      "drzewa": 3287,
      "pomocy": 3288,
      "fran": 3289,
      "osoby": 3290,
      "stali": 3291,
      "jęcia": 3292,
      "idą": 3293,
      "pomniał": 3294,
      "Fenic": 3295,
      "ener": 3296,
      "nowi": 3297,
      "snu": 3298,
      "podróż": 3299,
      "ckim": 3300,
      "psy": 3301,
      "nastu": 3302,
      "nienie": 3303,
      "widzieć": 3304,
      "odkry": 3305,
      "Dlaczego": 3306,
      "Choć": 3307,
      "mała": 3308,
      "rzała": 3309,
      "wielkiego": 3310,
      "twoje": 3311,
      "drugą": 3312,
      "cznik": 3313,
      "wierzy": 3314,
      "bole": 3315,
      "Poli": 3316,
      "syna": 3317,
      "UST": 3318,
      "lną": 3319,
      "pri": 3320,
      "wkrótce": 3321,
      "chcieli": 3322,
      "gosła": 3323,
      "kasz": 3324,
      "waść": 3325,
      "regi": 3326,
      "lami": 3327,
      "staną": 3328,
      "pójdzie": 3329,
      "chód": 3330,
      "oddział": 3331,
      "stos": 3332,
      "syj": 3333,
      "kół": 3334,
      "niewia": 3335,
      "lam": 3336,
      "marszał": 3337,
      "zmieni": 3338,
      "ear": 3339,
      "smo": 3340,
      "wskiego": 3341,
      "niki": 3342,
      "jeste": 3343,
      "rii": 3344,
      "Star": 3345,
      "związa": 3346,
      "mierz": 3347,
      "part": 3348,
      "wielkiej": 3349,
      "wojsko": 3350,
      "wołała": 3351,
      "ofice": 3352,
      "pierwszym": 3353,
      "cjan": 3354,
      "Była": 3355,
      "Chmielnicki": 3356,
      "ogień": 3357,
      "fan": 3358,
      "zwróci": 3359,
      "dosko": 3360,
      "wykona": 3361,
      "dear": 3362,
      "pracu": 3363,
      "spotk": 3364,
      "najbardziej": 3365,
      "lod": 3366,
      "ozna": 3367,
      "posa": 3368,
      "posła": 3369,
      "zakła": 3370,
      "stara": 3371,
      "west": 3372,
      "przedsię": 3373,
      "oświad": 3374,
      "zapo": 3375,
      "wien": 3376,
      "lać": 3377,
      "celu": 3378,
      "haj": 3379,
      "dzać": 3380,
      "zrobił": 3381,
      "racji": 3382,
      "ciała": 3383,
      "kot": 3384,
      "cal": 3385,
      "pur": 3386,
      "możesz": 3387,
      "wielka": 3388,
      "Mil": 3389,
      "Było": 3390,
      "godzin": 3391,
      "kcji": 3392,
      "zm": 3393,
      "ryta": 3394,
      "przezna": 3395,
      "bogów": 3396,
      "rój": 3397,
      "such": 3398,
      "chodu": 3399,
      "dziesięciu": 3400,
      "mii": 3401,
      "off": 3402,
      "llow": 3403,
      "słychać": 3404,
      "kościo": 3405,
      "prywa": 3406,
      "Czę": 3407,
      "nowa": 3408,
      "bara": 3409,
      "Bogusław": 3410,
      "znaleźć": 3411,
      "częściej": 3412,
      "Bie": 3413,
      "Ser": 3414,
      "eg": 3415,
      "wst": 3416,
      "nieraz": 3417,
      "owały": 3418,
      "leni": 3419,
      "Wówczas": 3420,
      "spad": 3421,
      "wizy": 3422,
      "mocno": 3423,
      "krwa": 3424,
      "Warszawie": 3425,
      "FAUST": 3426,
      "Bra": 3427,
      "Zresztą": 3428,
      "ozwał": 3429,
      "uważ": 3430,
      "ture": 3431,
      "puszcz": 3432,
      "dawna": 3433,
      "Wszyscy": 3434,
      "patrząc": 3435,
      "fon": 3436,
      "znik": 3437,
      "nauczy": 3438,
      "chowa": 3439,
      "wolę": 3440,
      "zostało": 3441,
      "Chy": 3442,
      "miłosier": 3443,
      "oficer": 3444,
      "szlachta": 3445,
      "long": 3446,
      "Jo": 3447,
      "far": 3448,
      "fry": 3449,
      "osa": 3450,
      "niemal": 3451,
      "nikogo": 3452,
      "zawo": 3453,
      "byłby": 3454,
      "stych": 3455,
      "stąpić": 3456,
      "wprost": 3457,
      "czemu": 3458,
      "poży": 3459,
      "led": 3460,
      "wybor": 3461,
      "oda": 3462,
      "dzież": 3463,
      "trzeci": 3464,
      ",”": 3465,
      "błą": 3466,
      "izby": 3467,
      "nowych": 3468,
      "noszą": 3469,
      "strach": 3470,
      "wojewódz": 3471,
      "Piotr": 3472,
      "should": 3473,
      "kować": 3474,
      "nne": 3475,
      "ota": 3476,
      "wpadł": 3477,
      "łka": 3478,
      "pomyśl": 3479,
      "ciąga": 3480,
      "body": 3481,
      "?”": 3482,
      "zmu": 3483,
      "stąd": 3484,
      "papie": 3485,
      "obaj": 3486,
      "minister": 3487,
      "jakaś": 3488,
      "Dziękuję": 3489,
      "many": 3490,
      "posiada": 3491,
      "niczego": 3492,
      "dań": 3493,
      "rządu": 3494,
      "Stani": 3495,
      "zdoby": 3496,
      "drugim": 3497,
      "dało": 3498,
      "Wil": 3499,
      "zbroj": 3500,
      "wście": 3501,
      "leżą": 3502,
      "wiła": 3503,
      "ryj": 3504,
      "syć": 3505,
      "anek": 3506,
      "któremu": 3507,
      "dzone": 3508,
      "uwagę": 3509,
      "rękoma": 3510,
      "Per": 3511,
      "kała": 3512,
      "kowski": 3513,
      "naszym": 3514,
      "kony": 3515,
      "wyro": 3516,
      "wystar": 3517,
      "dają": 3518,
      "mień": 3519,
      "lona": 3520,
      "stety": 3521,
      "dłużej": 3522,
      "kobieta": 3523,
      "drew": 3524,
      "lie": 3525,
      "wyciąg": 3526,
      "wyżej": 3527,
      "choro": 3528,
      "trzydzie": 3529,
      "drugiego": 3530,
      "fal": 3531,
      "gotów": 3532,
      "zek": 3533,
      "Bohun": 3534,
      "księż": 3535,
      "ojczyz": 3536,
      "uroczy": 3537,
      "zbu": 3538,
      "zawi": 3539,
      "wina": 3540,
      "wieści": 3541,
      "czonych": 3542,
      "Tup": 3543,
      "hou": 3544,
      "pach": 3545,
      "charak": 3546,
      "zuje": 3547,
      "wano": 3548,
      "śred": 3549,
      "nara": 3550,
      "cent": 3551,
      "pij": 3552,
      "stole": 3553,
      "głośno": 3554,
      "ide": 3555,
      "napa": 3556,
      "niepoko": 3557,
      "niebezpiecze": 3558,
      "kimi": 3559,
      "ciele": 3560,
      "polskich": 3561,
      "stw": 3562,
      "leż": 3563,
      "wice": 3564,
      "dopodob": 3565,
      "right": 3566,
      "mentu": 3567,
      "Mini": 3568,
      "Babi": 3569,
      "pr": 3570,
      "swa": 3571,
      "niczym": 3572,
      "bami": 3573,
      "proś": 3574,
      "Musi": 3575,
      "round": 3576,
      "meryka": 3577,
      "16": 3578,
      "Ob": 3579,
      "Par": 3580,
      "kta": 3581,
      "łzy": 3582,
      "czli": 3583,
      "szpita": 3584,
      "poczu": 3585,
      "latach": 3586,
      "prawy": 3587,
      "bet": 3588,
      "Nad": 3589,
      "mówili": 3590,
      "ktora": 3591,
      "dźmi": 3592,
      "Sze": 3593,
      "krą": 3594,
      "tną": 3595,
      "uzy": 3596,
      "łow": 3597,
      "komo": 3598,
      "wienia": 3599,
      "dzieścia": 3600,
      "mocy": 3601,
      "maj": 3602,
      "pisy": 3603,
      "znam": 3604,
      "owymi": 3605,
      "wojnę": 3606,
      "Rzecz": 3607,
      "sprawę": 3608,
      "brzegu": 3609,
      "inquired": 3610,
      "Tupman": 3611,
      "wrza": 3612,
      "źli": 3613,
      "połą": 3614,
      "tal": 3615,
      "reli": 3616,
      "never": 3617,
      "Wą": 3618,
      "Wreszcie": 3619,
      "pola": 3620,
      "pojedy": 3621,
      "Pow": 3622,
      "pozosta": 3623,
      "temat": 3624,
      "cenia": 3625,
      "czekać": 3626,
      "sześć": 3627,
      "okry": 3628,
      "jednocześnie": 3629,
      "dąc": 3630,
      "ostrze": 3631,
      "pem": 3632,
      "czność": 3633,
      "stwier": 3634,
      "arcy": 3635,
      "ciej": 3636,
      "owaniu": 3637,
      "słuchał": 3638,
      "istnie": 3639,
      "ludźmi": 3640,
      "wiatr": 3641,
      "jakoś": 3642,
      "Ki": 3643,
      "nó": 3644,
      "obywa": 3645,
      "nin": 3646,
      "byśmy": 3647,
      "przypa": 3648,
      "wedle": 3649,
      "powiedziała": 3650,
      "okro": 3651,
      "Dopiero": 3652,
      "drzwia": 3653,
      "Tadeusz": 3654,
      "ON": 3655,
      "What": 3656,
      "ali": 3657,
      "ff": 3658,
      "naro": 3659,
      "obi": 3660,
      "słońca": 3661,
      "Zbyszka": 3662,
      "pisać": 3663,
      "Prawda": 3664,
      "Będzie": 3665,
      "ubra": 3666,
      "wrze": 3667,
      "tytu": 3668,
      "muszą": 3669,
      "przyci": 3670,
      "bok": 3671,
      "bogi": 3672,
      "gina": 3673,
      "mart": 3674,
      "męża": 3675,
      "Wiem": 3676,
      "Szu": 3677,
      "XV": 3678,
      "zje": 3679,
      "teat": 3680,
      "dysku": 3681,
      "przywi": 3682,
      "duży": 3683,
      "stego": 3684,
      "droga": 3685,
      "Warszawy": 3686,
      "spostrzegł": 3687,
      "nadzwyczaj": 3688,
      "Sza": 3689,
      "zauwa": 3690,
      "rej": 3691,
      "ody": 3692,
      "innymi": 3693,
      "wese": 3694,
      "szać": 3695,
      "budy": 3696,
      "złotych": 3697,
      "większo": 3698,
      "świątyni": 3699,
      "prezyden": 3700,
      "AR": 3701,
      "łaska": 3702,
      "ree": 3703,
      "Pamię": 3704,
      "strzel": 3705,
      "żadnej": 3706,
      "ppea": 3707,
      "think": 3708,
      "cla": 3709,
      "fał": 3710,
      "mować": 3711,
      "spę": 3712,
      "tków": 3713,
      "biega": 3714,
      "skło": 3715,
      "los": 3716,
      "niejsza": 3717,
      "Justy": 3718,
      "sprawa": 3719,
      "rycerza": 3720,
      "zaledwie": 3721,
      "Jestem": 3722,
      "mąż": 3723,
      "Oleń": 3724,
      "kcie": 3725,
      "pobli": 3726,
      "cili": 3727,
      "tera": 3728,
      "przypomina": 3729,
      "met": 3730,
      "kapłani": 3731,
      "namiest": 3732,
      "czeń": 3733,
      "czele": 3734,
      "ścić": 3735,
      "skać": 3736,
      "powiedzi": 3737,
      "byłoby": 3738,
      "wielkich": 3739,
      "chorągwi": 3740,
      "Ce": 3741,
      "uzna": 3742,
      "ufa": 3743,
      "zbo": 3744,
      "niespo": 3745,
      "przeszło": 3746,
      "cor": 3747,
      "wery": 3748,
      "dzeniu": 3749,
      "Bardzo": 3750,
      "looked": 3751,
      "finans": 3752,
      "Gre": 3753,
      "Igna": 3754,
      "Ona": 3755,
      "wygląda": 3756,
      "wienie": 3757,
      "matka": 3758,
      "nicą": 3759,
      "miałem": 3760,
      "oczywiście": 3761,
      "siach": 3762,
      "wspani": 3763,
      "dwadzieścia": 3764,
      "poznał": 3765,
      "skarb": 3766,
      "kształt": 3767,
      "cju": 3768,
      "zał": 3769,
      "rzad": 3770,
      "pog": 3771,
      "posą": 3772,
      "skry": 3773,
      "czący": 3774,
      "Oczy": 3775,
      "Osta": 3776,
      "blu": 3777,
      "hal": 3778,
      "zmi": 3779,
      "zdawało": 3780,
      "czności": 3781,
      "tes": 3782,
      "table": 3783,
      "back": 3784,
      "pytać": 3785,
      "szlachty": 3786,
      "Dy": 3787,
      "Rad": 3788,
      "posł": 3789,
      "these": 3790,
      "loo": 3791,
      "twarzą": 3792,
      "Jakże": 3793,
      "dwor": 3794,
      "rozmawia": 3795,
      "wołać": 3796,
      "Krak": 3797,
      "np": 3798,
      "psu": 3799,
      "upły": 3800,
      "rana": 3801,
      "koro": 3802,
      "won": 3803,
      "odu": 3804,
      "lada": 3805,
      "dyna": 3806,
      "pomocą": 3807,
      "hen": 3808,
      "niemu": 3809,
      "czni": 3810,
      "rab": 3811,
      "wala": 3812,
      "broń": 3813,
      "głębi": 3814,
      "Żeby": 3815,
      "Ur": 3816,
      "dne": 3817,
      "łowi": 3818,
      "czyły": 3819,
      "bach": 3820,
      "panów": 3821,
      "żadnych": 3822,
      "okrop": 3823,
      "dna": 3824,
      "wza": 3825,
      "łowa": 3826,
      "strzał": 3827,
      "owano": 3828,
      "przysię": 3829,
      "każdej": 3830,
      "Dlatego": 3831,
      "zbliża": 3832,
      "50": 3833,
      "pki": 3834,
      "rzeli": 3835,
      "rzeki": 3836,
      "mać": 3837,
      "czami": 3838,
      "pewien": 3839,
      "Kmicica": 3840,
      "zwierzę": 3841,
      "radości": 3842,
      "kniazi": 3843,
      "Ketling": 3844,
      "St": 3845,
      "nowego": 3846,
      "opuści": 3847,
      "tować": 3848,
      "nade": 3849,
      "potwier": 3850,
      "zatem": 3851,
      "kapi": 3852,
      "wiej": 3853,
      "nod": 3854,
      "gii": 3855,
      "świado": 3856,
      "Sapie": 3857,
      "que": 3858,
      "błogosła": 3859,
      "plu": 3860,
      "uszy": 3861,
      "czter": 3862,
      "koza": 3863,
      "Ang": 3864,
      "Zna": 3865,
      "ulicy": 3866,
      "łóż": 3867,
      "szki": 3868,
      "miny": 3869,
      "dzisz": 3870,
      "patrzeć": 3871,
      "przyby": 3872,
      "prakty": 3873,
      "prote": 3874,
      "czona": 3875,
      "będziemy": 3876,
      "zaczęła": 3877,
      "starego": 3878,
      "zmę": 3879,
      "ńską": 3880,
      "rzeź": 3881,
      "leś": 3882,
      "zabra": 3883,
      "wyją": 3884,
      "wyraz": 3885,
      "odpowiada": 3886,
      "cenie": 3887,
      "bisku": 3888,
      "wałem": 3889,
      "czoło": 3890,
      "has": 3891,
      "całego": 3892,
      "komna": 3893,
      "jedynie": 3894,
      "tysiące": 3895,
      "every": 3896,
      "gr": 3897,
      "okiem": 3898,
      "postawi": 3899,
      "warun": 3900,
      "wyra": 3901,
      "duszę": 3902,
      "Zali": 3903,
      "IN": 3904,
      "Zie": 3905,
      "dba": 3906,
      "stki": 3907,
      "ciało": 3908,
      "kono": 3909,
      "dokona": 3910,
      "czeć": 3911,
      "ścian": 3912,
      "podobne": 3913,
      "dniach": 3914,
      "odezwał": 3915,
      "poznać": 3916,
      "ciężko": 3917,
      "faraona": 3918,
      "poseł": 3919,
      "umar": 3920,
      "strza": 3921,
      "zadowo": 3922,
      "gdyś": 3923,
      "dzięki": 3924,
      "potrzebu": 3925,
      "okreś": 3926,
      "Księ": 3927,
      "dry": 3928,
      "jów": 3929,
      "urzą": 3930,
      "podzie": 3931,
      "tain": 3932,
      "wypa": 3933,
      "wzgó": 3934,
      "uczynić": 3935,
      "kilkanaście": 3936,
      "Daj": 3937,
      "eyes": 3938,
      "Bob": 3939,
      "Łu": 3940,
      "roni": 3941,
      "dyre": 3942,
      "ind": 3943,
      "sym": 3944,
      "wrót": 3945,
      "widziałem": 3946,
      "Mef": 3947,
      "obowiąz": 3948,
      "ctwa": 3949,
      "niesi": 3950,
      "cou": 3951,
      "sub": 3952,
      "nięty": 3953,
      "własną": 3954,
      "szlachcic": 3955,
      "zły": 3956,
      "pomiędzy": 3957,
      "rano": 3958,
      "lako": 3959,
      "cony": 3960,
      "ludziom": 3961,
      "zależ": 3962,
      "Oni": 3963,
      "away": 3964,
      "cted": 3965,
      "łta": 3966,
      "mawia": 3967,
      "ściany": 3968,
      "Char": 3969,
      "Wito": 3970,
      "first": 3971,
      "wątpli": 3972,
      "ostroż": 3973,
      "house": 3974,
      "17": 3975,
      "ami": 3976,
      "oskar": 3977,
      "czyzna": 3978,
      "dusza": 3979,
      "krotnie": 3980,
      "ostatni": 3981,
      "ludzkie": 3982,
      "Bez": 3983,
      "wtrącił": 3984,
      "op": 3985,
      "zała": 3986,
      "wieść": 3987,
      "krai": 3988,
      "Szcze": 3989,
      "rozmowy": 3990,
      "nadzieję": 3991,
      "Albo": 3992,
      "Tutmozis": 3993,
      "PR": 3994,
      "Pru": 3995,
      "Tro": 3996,
      "ger": 3997,
      "usu": 3998,
      "wane": 3999,
      "śro": 4000,
      "miły": 4001,
      "weź": 4002,
      "lot": 4003,
      "ally": 4004,
      "słuchać": 4005,
      "kapłanów": 4006,
      "nieprzyjaciel": 4007,
      "SL": 4008,
      "spó": 4009,
      "złe": 4010,
      "powszech": 4011,
      "odwa": 4012,
      "przyzna": 4013,
      "pamięta": 4014,
      "cjona": 4015,
      "jakąś": 4016,
      "bóg": 4017,
      "sna": 4018,
      "poe": 4019,
      "roli": 4020,
      "gon": 4021,
      "łatwie": 4022,
      "cześć": 4023,
      "pragnie": 4024,
      "głem": 4025,
      "wóz": 4026,
      "Nikt": 4027,
      "Rzecki": 4028,
      "wojewoda": 4029,
      "kobiet": 4030,
      "wysoko": 4031,
      "ctwo": 4032,
      "dny": 4033,
      "twór": 4034,
      "nicz": 4035,
      "niać": 4036,
      "bed": 4037,
      "puszczo": 4038,
      "owałem": 4039,
      "błyska": 4040,
      "sch": 4041,
      "wany": 4042,
      "char": 4043,
      "rep": 4044,
      "wyer": 4045,
      "made": 4046,
      "siej": 4047,
      "Następ": 4048,
      "Jana": 4049,
      "wzrok": 4050,
      "wojow": 4051,
      "There": 4052,
      "Szwedów": 4053,
      "opo": 4054,
      "sor": 4055,
      "umiał": 4056,
      "ustawi": 4057,
      "rozwi": 4058,
      "bawi": 4059,
      "powietrze": 4060,
      "prawdopodob": 4061,
      "milczeniu": 4062,
      "dziewczyna": 4063,
      "drzew": 4064,
      "wesoło": 4065,
      "sznie": 4066,
      "owanych": 4067,
      "lea": 4068,
      "legło": 4069,
      "kat": 4070,
      "jazdy": 4071,
      "well": 4072,
      "being": 4073,
      "młod": 4074,
      "daleka": 4075,
      "kazać": 4076,
      "sc": 4077,
      "cztere": 4078,
      "wyr": 4079,
      "powiedz": 4080,
      "fortu": 4081,
      "niom": 4082,
      "szlachet": 4083,
      "białe": 4084,
      "Chyba": 4085,
      ".)": 4086,
      "SZ": 4087,
      "zrozumie": 4088,
      "too": 4089,
      "przyjechał": 4090,
      "cką": 4091,
      "Tego": 4092,
      "namio": 4093,
      "uderzył": 4094,
      "ried": 4095,
      "night": 4096,
      "own": 4097,
      "rośli": 4098,
      "zakon": 4099,
      "kali": 4100,
      "skrę": 4101,
      "wszystkiego": 4102,
      "Jeden": 4103,
      "having": 4104,
      "ziemia": 4105,
      "jednakże": 4106,
      "prowadza": 4107,
      "odpowiedziała": 4108,
      "własne": 4109,
      "Pentu": 4110,
      "Tru": 4111,
      "how": 4112,
      "lna": 4113,
      "tło": 4114,
      "wino": 4115,
      "cep": 4116,
      "siłą": 4117,
      "cone": 4118,
      "mej": 4119,
      "któren": 4120,
      "mówisz": 4121,
      "Tom": 4122,
      "dzono": 4123,
      "nerał": 4124,
      "światło": 4125,
      "wziąć": 4126,
      "zbliżył": 4127,
      "dwudzie": 4128,
      "uczest": 4129,
      "Hrabia": 4130,
      "uf": 4131,
      "włó": 4132,
      "ognia": 4133,
      "dowód": 4134,
      "samą": 4135,
      "sprzę": 4136,
      "Zyg": 4137,
      "Przecież": 4138,
      "Ber": 4139,
      "Cha": 4140,
      "wki": 4141,
      "wną": 4142,
      "szale": 4143,
      "proku": 4144,
      "oglą": 4145,
      "ves": 4146,
      "każdego": 4147,
      "wschod": 4148,
      "błęki": 4149,
      "oczeki": 4150,
      "half": 4151,
      "!!": 4152,
      "fur": 4153,
      "lnik": 4154,
      "sne": 4155,
      "utwo": 4156,
      "przytom": 4157,
      "rób": 4158,
      "only": 4159,
      "owości": 4160,
      "własnej": 4161,
      "rough": 4162,
      "bał": 4163,
      "cało": 4164,
      "hra": 4165,
      "nasza": 4166,
      "zakrzyknął": 4167,
      "wykorzy": 4168,
      "wielko": 4169,
      "przychodzi": 4170,
      "sprzeda": 4171,
      "Łę": 4172,
      "str": 4173,
      "kawał": 4174,
      "rzyły": 4175,
      "wyłą": 4176,
      "oddał": 4177,
      "prag": 4178,
      "służby": 4179,
      "Sędzia": 4180,
      "Rzę": 4181,
      "rzo": 4182,
      "nes": 4183,
      "czyta": 4184,
      "siu": 4185,
      "pany": 4186,
      "duże": 4187,
      "prosił": 4188,
      "syła": 4189,
      "Tele": 4190,
      "zapewne": 4191,
      "francu": 4192,
      "knie": 4193,
      "opła": 4194,
      "zbiera": 4195,
      "niezna": 4196,
      "les": 4197,
      "zawołała": 4198,
      "dostał": 4199,
      "waniu": 4200,
      "tura": 4201,
      "put": 4202,
      "Zaraz": 4203,
      "drogą": 4204,
      "aniżeli": 4205,
      "mógłby": 4206,
      "rozumiem": 4207,
      "wieczorem": 4208,
      "Spy": 4209,
      "bin": 4210,
      "brzu": 4211,
      "dno": 4212,
      "ćwi": 4213,
      "lik": 4214,
      "rzyło": 4215,
      "żek": 4216,
      "once": 4217,
      "hań": 4218,
      "cjach": 4219,
      "pewne": 4220,
      "under": 4221,
      "ściach": 4222,
      "Wardle": 4223,
      "rozmowę": 4224,
      "stępuje": 4225,
      "wieczór": 4226,
      "zdecy": 4227,
      "posto": 4228,
      "popraw": 4229,
      "żywszy": 4230,
      "zesa": 4231,
      "zebra": 4232,
      "krzyża": 4233,
      "dźwie": 4234,
      "różne": 4235,
      "śmiertel": 4236,
      "Często": 4237,
      "fy": 4238,
      "oli": 4239,
      "umy": 4240,
      "konu": 4241,
      "wasze": 4242,
      "obja": 4243,
      "ducha": 4244,
      "słow": 4245,
      "Hele": 4246,
      "państw": 4247,
      "grozi": 4248,
      "Dru": 4249,
      "kwe": 4250,
      "nk": 4251,
      "podzi": 4252,
      "less": 4253,
      "dotk": 4254,
      "czela": 4255,
      "podło": 4256,
      "prezes": 4257,
      "Pana": 4258,
      "Stary": 4259,
      "cyjne": 4260,
      "mężczyz": 4261,
      "budże": 4262,
      "smi": 4263,
      "owało": 4264,
      "dosyć": 4265,
      "łach": 4266,
      "nosząc": 4267,
      "profe": 4268,
      "robił": 4269,
      "podobny": 4270,
      "Wołodyjowskiego": 4271,
      "gentlemen": 4272,
      "14": 4273,
      "Wtedy": 4274,
      "leży": 4275,
      "zachod": 4276,
      "tora": 4277,
      "wodą": 4278,
      "dając": 4279,
      "sure": 4280,
      "wzbu": 4281,
      "dworze": 4282,
      "rzeczywi": 4283,
      "widzisz": 4284,
      "zobaczy": 4285,
      "ever": 4286,
      "nny": 4287,
      "oca": 4288,
      "zasłu": 4289,
      "koły": 4290,
      "wiary": 4291,
      "Tur": 4292,
      "mieszkania": 4293,
      "nosić": 4294,
      "Nero": 4295,
      "looking": 4296,
      "Mię": 4297,
      "die": 4298,
      "plo": 4299,
      "lina": 4300,
      "roze": 4301,
      "zdą": 4302,
      "powsta": 4303,
      "chętnie": 4304,
      "Każdy": 4305,
      "13": 4306,
      "Kra": 4307,
      "Stan": 4308,
      "Zgo": 4309,
      "jmy": 4310,
      "ml": 4311,
      "niedzie": 4312,
      "rację": 4313,
      "bija": 4314,
      "czasy": 4315,
      "możemy": 4316,
      "ostatnich": 4317,
      "modlit": 4318,
      "Szwedzi": 4319,
      "mruknął": 4320,
      "łatwiej": 4321,
      "Mat": 4322,
      "Ocho": 4323,
      "Tar": 4324,
      "ined": 4325,
      "osła": 4326,
      "ochro": 4327,
      "postać": 4328,
      "koście": 4329,
      "wana": 4330,
      "cour": 4331,
      "owiska": 4332,
      "lonych": 4333,
      "jęt": 4334,
      "pytania": 4335,
      "polskiego": 4336,
      "Lud": 4337,
      "wspomnie": 4338,
      "przewodni": 4339,
      "Oba": 4340,
      "Py": 4341,
      "Wło": 4342,
      "ked": 4343,
      "uspoko": 4344,
      "narze": 4345,
      "szony": 4346,
      "poga": 4347,
      "pożegna": 4348,
      "wycie": 4349,
      "czyk": 4350,
      "pracę": 4351,
      "bej": 4352,
      "podró": 4353,
      "Jam": 4354,
      "bliżej": 4355,
      "rząt": 4356,
      "Rozu": 4357,
      "słod": 4358,
      "minut": 4359,
      "Wszak": 4360,
      "ntu": 4361,
      "sja": 4362,
      "zde": 4363,
      "posi": 4364,
      "poświę": 4365,
      "cina": 4366,
      "państwo": 4367,
      "jutrz": 4368,
      "owiej": 4369,
      "Kości": 4370,
      "place": 4371,
      "uczci": 4372,
      "sytuacji": 4373,
      "Jó": 4374,
      "gnąć": 4375,
      "lność": 4376,
      "nta": 4377,
      "tt": 4378,
      "‘“": 4379,
      "niewin": 4380,
      "wicza": 4381,
      "kacji": 4382,
      "chory": 4383,
      "czasów": 4384,
      "zwykł": 4385,
      "dwaj": 4386,
      "cezara": 4387,
      "Mój": 4388,
      "rzch": 4389,
      "rela": 4390,
      "remo": 4391,
      "moment": 4392,
      "pienia": 4393,
      "ludu": 4394,
      "ręcz": 4395,
      "głosu": 4396,
      "działem": 4397,
      "słysza": 4398,
      "Sawyer": 4399,
      "Mówi": 4400,
      "nierucho": 4401,
      "pożar": 4402,
      "koniu": 4403,
      "last": 4404,
      "siedzą": 4405,
      "okna": 4406,
      "tent": 4407,
      "Chło": 4408,
      "wojnie": 4409,
      "Panna": 4410,
      "wrażenie": 4411,
      "eks": 4412,
      "wydaje": 4413,
      "waszmość": 4414,
      "wybuch": 4415,
      "Mnie": 4416,
      "XI": 4417,
      "Świę": 4418,
      "pocz": 4419,
      "pochod": 4420,
      "light": 4421,
      "lec": 4422,
      "czynić": 4423,
      "skra": 4424,
      "Masz": 4425,
      "rozmai": 4426,
      "Jagienka": 4427,
      "ograni": 4428,
      "dował": 4429,
      "fer": 4430,
      "kwie": 4431,
      "zgroma": 4432,
      "Ła": 4433,
      "lip": 4434,
      "wiar": 4435,
      "ostate": 4436,
      "Patrz": 4437,
      "As": 4438,
      "Hej": 4439,
      "Pary": 4440,
      "egip": 4441,
      "gły": 4442,
      "radość": 4443,
      "lii": 4444,
      "zarówno": 4445,
      "tości": 4446,
      "las": 4447,
      "giew": 4448,
      "Mości": 4449,
      "Winicjusza": 4450,
      "wartości": 4451,
      "dotyczą": 4452,
      "Herhor": 4453,
      "Czu": 4454,
      "człek": 4455,
      "postępo": 4456,
      "kam": 4457,
      "tość": 4458,
      "żeniem": 4459,
      "dziewię": 4460,
      "przykła": 4461,
      "żyły": 4462,
      "rzawszy": 4463,
      "Tomasz": 4464,
      "piersiach": 4465,
      "feren": 4466,
      "Ludzie": 4467,
      "okrutnie": 4468,
      "Chciał": 4469,
      "nienawi": 4470,
      "Dłu": 4471,
      "blo": 4472,
      "lt": 4473,
      "where": 4474,
      "łał": 4475,
      "jemu": 4476,
      "przewi": 4477,
      "weł": 4478,
      "ound": 4479,
      "twoja": 4480,
      "godzinę": 4481,
      "przypadku": 4482,
      "otrzy": 4483,
      "pośpie": 4484,
      "zatrzymał": 4485,
      "przeba": 4486,
      "czekał": 4487,
      "must": 4488,
      "coun": 4489,
      "rozleg": 4490,
      "sków": 4491,
      "rzucić": 4492,
      "roboty": 4493,
      "chorągwie": 4494,
      "Odys": 4495,
      "Czarniecki": 4496,
      "IA": 4497,
      "Mary": 4498,
      "ameryka": 4499,
      "potrzeba": 4500,
      "dują": 4501,
      "rycerzy": 4502,
      "cyjnych": 4503,
      "drago": 4504,
      "sho": 4505,
      "wpad": 4506,
      "zamy": 4507,
      "took": 4508,
      "wymaga": 4509,
      "inwe": 4510,
      "przyszły": 4511,
      "podobna": 4512,
      "żadnego": 4513,
      "uśmiechem": 4514,
      "Nowowiej": 4515,
      "imi": 4516,
      "kowe": 4517,
      "mni": 4518,
      "mnó": 4519,
      "nr": 4520,
      "ślub": 4521,
      "zagro": 4522,
      "tacy": 4523,
      "odej": 4524,
      "system": 4525,
      "another": 4526,
      "dawała": 4527,
      "własnym": 4528,
      "dziecka": 4529,
      "gospoda": 4530,
      "bem": 4531,
      "poprze": 4532,
      "niów": 4533,
      "łat": 4534,
      "mury": 4535,
      "przyszła": 4536,
      "deł": 4537,
      "czasach": 4538,
      "ati": 4539,
      "brat": 4540,
      "zuch": 4541,
      "kładnie": 4542,
      "Aleks": 4543,
      "Powiedz": 4544,
      "thought": 4545,
      "euro": 4546,
      "land": 4547,
      "zanim": 4548,
      "kape": 4549,
      "wynika": 4550,
      "czam": 4551,
      "pełne": 4552,
      "większa": 4553,
      "Sopli": 4554,
      "miarę": 4555,
      "izbie": 4556,
      "Król": 4557,
      "mln": 4558,
      "jał": 4559,
      "zor": 4560,
      "zję": 4561,
      "Świa": 4562,
      "żąd": 4563,
      "pokój": 4564,
      "ans": 4565,
      "dostać": 4566,
      "działy": 4567,
      "dawał": 4568,
      "szyję": 4569,
      "wek": 4570,
      "biało": 4571,
      "ters": 4572,
      "szuki": 4573,
      "tions": 4574,
      "fol": 4575,
      "osobi": 4576,
      "letni": 4577,
      "pierwszego": 4578,
      "bitwy": 4579,
      "udało": 4580,
      "Lor": 4581,
      "umil": 4582,
      "stand": 4583,
      "dostrze": 4584,
      "przyro": 4585,
      "mych": 4586,
      "jakże": 4587,
      "dusz": 4588,
      "zdro": 4589,
      "gene": 4590,
      "Skrzetuskiego": 4591,
      "shed": 4592,
      "Hu": 4593,
      "schod": 4594,
      "sztur": 4595,
      "rzeń": 4596,
      "kier": 4597,
      "morze": 4598,
      "mokra": 4599,
      "inę": 4600,
      "nus": 4601,
      "mentów": 4602,
      "myślnie": 4603,
      "Miał": 4604,
      "większy": 4605,
      "zdaje": 4606,
      "rzeczywiście": 4607,
      "zdrowia": 4608,
      "dostojność": 4609,
      "głęboko": 4610,
      "poprzednio": 4611,
      "próżno": 4612,
      "rodzaju": 4613,
      "jesteśmy": 4614,
      "Ignacy": 4615,
      "wzajem": 4616,
      "Między": 4617,
      "?!": 4618,
      "cno": 4619,
      "fie": 4620,
      "wskiej": 4621,
      "śka": 4622,
      "poty": 4623,
      "poczyna": 4624,
      "anty": 4625,
      "wiedzą": 4626,
      "inten": 4627,
      "rozwiąza": 4628,
      "straż": 4629,
      "grass": 4630,
      "Sło": 4631,
      "use": 4632,
      "kupić": 4633,
      "int": 4634,
      "onu": 4635,
      "stołu": 4636,
      "nową": 4637,
      "dawniej": 4638,
      "szczęścia": 4639,
      "powiadać": 4640,
      "okolicy": 4641,
      ".:": 4642,
      "dano": 4643,
      "trzu": 4644,
      "utra": 4645,
      "znie": 4646,
      "szta": 4647,
      "rada": 4648,
      "arm": 4649,
      "mag": 4650,
      "boj": 4651,
      "stycz": 4652,
      "forma": 4653,
      "organiza": 4654,
      "prosić": 4655,
      "Otóż": 4656,
      "postanowił": 4657,
      "Mefres": 4658,
      "gwa": 4659,
      "gowie": 4660,
      "sno": 4661,
      "zwraca": 4662,
      "niegdyś": 4663,
      "posu": 4664,
      "liwie": 4665,
      "zanie": 4666,
      "wiony": 4667,
      "dzisiej": 4668,
      "lasu": 4669,
      "ryk": 4670,
      "pami": 4671,
      "ruchu": 4672,
      "szef": 4673,
      "rękach": 4674,
      "without": 4675,
      "mieszkańców": 4676,
      "Michale": 4677,
      "lled": 4678,
      "elekt": 4679,
      "cezar": 4680,
      "Wal": 4681,
      "und": 4682,
      "powoli": 4683,
      "mind": 4684,
      "według": 4685,
      "ente": 4686,
      "just": 4687,
      "get": 4688,
      "spać": 4689,
      "obecnie": 4690,
      "kazuje": 4691,
      "organiz": 4692,
      "związku": 4693,
      "Krze": 4694,
      "ogło": 4695,
      "ciły": 4696,
      "minie": 4697,
      "telu": 4698,
      "matki": 4699,
      "mur": 4700,
      "małe": 4701,
      "Czech": 4702,
      "ssion": 4703,
      "Czemu": 4704,
      "wyraźnie": 4705,
      "ata": 4706,
      "tatar": 4707,
      "may": 4708,
      "cofa": 4709,
      "chodzie": 4710,
      "żonych": 4711,
      "chodziły": 4712,
      "odpowiedź": 4713,
      "shall": 4714,
      "przygotow": 4715,
      "11": 4716,
      "Kro": 4717,
      "Pó": 4718,
      "San": 4719,
      "pch": 4720,
      "zmiesz": 4721,
      "sić": 4722,
      "boku": 4723,
      "dur": 4724,
      "pyty": 4725,
      "figu": 4726,
      "pewny": 4727,
      "książęca": 4728,
      "Zbysz": 4729,
      "ruszyć": 4730,
      "Well": 4731,
      "uśmiech": 4732,
      "Ligia": 4733,
      "słyszawszy": 4734,
      "Anu": 4735,
      "Azja": 4736,
      "Skąd": 4737,
      "kował": 4738,
      "zasło": 4739,
      "ciszy": 4740,
      "przeto": 4741,
      "hear": 4742,
      "najbliż": 4743,
      "menty": 4744,
      "mencie": 4745,
      "myślą": 4746,
      "gel": 4747,
      "pozwo": 4748,
      "myślił": 4749,
      "rodziny": 4750,
      "turned": 4751,
      "oboje": 4752,
      "procent": 4753,
      "wypadku": 4754,
      "Chrystus": 4755,
      "wszędzie": 4756,
      "ana": 4757,
      "tnym": 4758,
      "rzały": 4759,
      "zajutrz": 4760,
      "wością": 4761,
      "ari": 4762,
      "kupi": 4763,
      "take": 4764,
      "Pozna": 4765,
      "nictwa": 4766,
      "rzami": 4767,
      "sęp": 4768,
      "ujrzał": 4769,
      "żelaz": 4770,
      "dokładnie": 4771,
      "czytał": 4772,
      "nięcie": 4773,
      "krzyż": 4774,
      "czegoś": 4775,
      "ostatnie": 4776,
      "kilkunastu": 4777,
      "chorągiew": 4778,
      "wspomina": 4779,
      "Pię": 4780,
      "imieniu": 4781,
      "jne": 4782,
      "lała": 4783,
      "potra": 4784,
      "liła": 4785,
      "mir": 4786,
      "sekre": 4787,
      "policji": 4788,
      "ciemności": 4789,
      "dłoń": 4790,
      "Andrze": 4791,
      "Ligii": 4792,
      "nkę": 4793,
      "oc": 4794,
      "niedźwie": 4795,
      "jeść": 4796,
      "gorzej": 4797,
      "jam": 4798,
      "życzli": 4799,
      "otworzył": 4800,
      "Ak": 4801,
      "Mów": 4802,
      "lta": 4803,
      "złego": 4804,
      "ąb": 4805,
      "naszą": 4806,
      "pomy": 4807,
      "zamek": 4808,
      "miu": 4809,
      "ming": 4810,
      "new": 4811,
      "macie": 4812,
      "sieni": 4813,
      "gdybym": 4814,
      "ącą": 4815,
      "--------": 4816,
      "czterech": 4817,
      "cła": 4818,
      "wstał": 4819,
      "leżał": 4820,
      "damy": 4821,
      "miesięcy": 4822,
      "mują": 4823,
      "boi": 4824,
      "rozległ": 4825,
      "czać": 4826,
      "bier": 4827,
      "niejszym": 4828,
      "musiała": 4829,
      "głosów": 4830,
      "krwią": 4831,
      "głównie": 4832,
      "osiem": 4833,
      "wnątrz": 4834,
      "hała": 4835,
      "osią": 4836,
      "tował": 4837,
      "widziała": 4838,
      "rego": 4839,
      "musz": 4840,
      "wewnętrz": 4841,
      "piera": 4842,
      "end": 4843,
      "szab": 4844,
      "Bohu": 4845,
      "prowadzą": 4846,
      "człowiekiem": 4847,
      "Niechże": 4848,
      "glądać": 4849,
      "telewi": 4850,
      "Właśnie": 4851,
      "yyy": 4852,
      "czterdzie": 4853,
      "Oh": 4854,
      "lno": 4855,
      "uni": 4856,
      "zra": 4857,
      "ney": 4858,
      "tyki": 4859,
      "kieli": 4860,
      "three": 4861,
      "prawił": 4862,
      "gam": 4863,
      "skach": 4864,
      "przedmio": 4865,
      "sług": 4866,
      "kazała": 4867,
      "młodzi": 4868,
      "młodego": 4869,
      "policjan": 4870,
      "znajduje": 4871,
      "samochod": 4872,
      "ból": 4873,
      "porządku": 4874,
      "25": 4875,
      "Snod": 4876,
      "Wę": 4877,
      "ery": 4878,
      "oś": 4879,
      "might": 4880,
      "przestęp": 4881,
      "paść": 4882,
      "ojczy": 4883,
      "tłum": 4884,
      "Bogda": 4885,
      "Polska": 4886,
      "kolei": 4887,
      "zobaczyć": 4888,
      "dziennika": 4889,
      "Rzeczpospoli": 4890,
      "Snodgrass": 4891,
      "ilo": 4892,
      "os": 4893,
      "zwi": 4894,
      "winy": 4895,
      "rzyli": 4896,
      "tory": 4897,
      "mogłem": 4898,
      "przyjął": 4899,
      "podnie": 4900,
      "słuch": 4901,
      "twarze": 4902,
      "większe": 4903,
      "trwa": 4904,
      "firmy": 4905,
      "zerwał": 4906,
      "postaci": 4907,
      "Ani": 4908,
      "usze": 4909,
      "uję": 4910,
      "pon": 4911,
      "pomie": 4912,
      "zaga": 4913,
      "zawar": 4914,
      "zawod": 4915,
      "mien": 4916,
      "musie": 4917,
      "rusza": 4918,
      "rozkazy": 4919,
      "stości": 4920,
      "rzach": 4921,
      "stracił": 4922,
      "nięcia": 4923,
      "zwycza": 4924,
      "przeciwko": 4925,
      "zęby": 4926,
      "dane": 4927,
      "wpół": 4928,
      "nacze": 4929,
      "pogar": 4930,
      "owskiej": 4931,
      "zać": 4932,
      "wieniem": 4933,
      "pień": 4934,
      "gaze": 4935,
      "prosto": 4936,
      "Nigdy": 4937,
      "sklepu": 4938,
      "ojczyzny": 4939,
      "Ow": 4940,
      "pą": 4941,
      "posłów": 4942,
      "ałe": 4943,
      "dzieży": 4944,
      "kiewicz": 4945,
      "róg": 4946,
      "chodząc": 4947,
      "sklepie": 4948,
      "przedtem": 4949,
      "pór": 4950,
      "cket": 4951,
      "tamtej": 4952,
      "tran": 4953,
      "hono": 4954,
      "pięciu": 4955,
      "Raz": 4956,
      "obozu": 4957,
      "srebr": 4958,
      "podróży": 4959,
      "Dro": 4960,
      "zainteres": 4961,
      "cisza": 4962,
      "cać": 4963,
      "Podob": 4964,
      "najlepiej": 4965,
      "stanu": 4966,
      "fee": 4967,
      "towania": 4968,
      "leciał": 4969,
      "Minister": 4970,
      "pobliżu": 4971,
      "lni": 4972,
      "upad": 4973,
      "szów": 4974,
      "zali": 4975,
      "zakre": 4976,
      "odrzekła": 4977,
      "wzdłuż": 4978,
      "nionych": 4979,
      "presen": 4980,
      "pewnością": 4981,
      "pamięci": 4982,
      "Egipt": 4983,
      "Egiptu": 4984,
      "przedsiębior": 4985,
      "wstrzą": 4986,
      "nkiem": 4987,
      "tkę": 4988,
      "domów": 4989,
      "prawia": 4990,
      "rozkazu": 4991,
      "podstaw": 4992,
      "its": 4993,
      "Juran": 4994,
      "księciu": 4995,
      "Wasza": 4996,
      "Miej": 4997,
      "Wszystkie": 4998,
      "Jezus": 4999,
      "Pój": 5000,
      "kowych": 5001,
      "oku": 5002,
      "napeł": 5003,
      "sznu": 5004,
      "poboż": 5005,
      "ramię": 5006,
      "anki": 5007,
      "cień": 5008,
      "ciela": 5009,
      "innej": 5010,
      "owiec": 5011,
      "siedem": 5012,
      "chair": 5013,
      "tive": 5014,
      "zielo": 5015,
      "Stach": 5016,
      "brała": 5017,
      "myślisz": 5018,
      "obozie": 5019,
      "nadziei": 5020,
      "jeźdź": 5021,
      "pałacu": 5022,
      "słyszeć": 5023,
      "pogrą": 5024,
      "mowy": 5025,
      "kolo": 5026,
      "kata": 5027,
      "wola": 5028,
      "odde": 5029,
      "sted": 5030,
      "łeb": 5031,
      "pewnym": 5032,
      "gałę": 5033,
      "friends": 5034,
      "metrów": 5035,
      "TA": 5036,
      "źć": 5037,
      "niała": 5038,
      "roż": 5039,
      "rzym": 5040,
      "nos": 5041,
      "obfi": 5042,
      "przyjem": 5043,
      "boha": 5044,
      "druga": 5045,
      "Rady": 5046,
      "rycerze": 5047,
      "MA": 5048,
      "appea": 5049,
      "lili": 5050,
      "bywał": 5051,
      "jaw": 5052,
      "odga": 5053,
      "przybra": 5054,
      "beł": 5055,
      "!…”": 5056,
      "Pewnie": 5057,
      "puścić": 5058,
      "wszelkie": 5059,
      "Miller": 5060,
      "Klu": 5061,
      "zmniej": 5062,
      "zrozumiał": 5063,
      "ńcem": 5064,
      "rzony": 5065,
      "angie": 5066,
      "tena": 5067,
      "wydał": 5068,
      "dyda": 5069,
      "mana": 5070,
      "onów": 5071,
      "grafi": 5072,
      "jącymi": 5073,
      "słyszy": 5074,
      "polskie": 5075,
      "Krzyszto": 5076,
      "miesiąc": 5077,
      "Ursu": 5078,
      "Two": 5079,
      "dniem": 5080,
      "nieważ": 5081,
      "nieszczęście": 5082,
      "gość": 5083,
      "zatru": 5084,
      "mistrza": 5085,
      "waża": 5086,
      "mując": 5087,
      "chwilą": 5088,
      "szukał": 5089,
      "nikami": 5090,
      "walki": 5091,
      "pozwala": 5092,
      "święty": 5093,
      "dwór": 5094,
      "Murzy": 5095,
      "wysokości": 5096,
      "nieprzyjaciela": 5097,
      "sposobem": 5098,
      "tanie": 5099,
      "wysła": 5100,
      "dala": 5101,
      "Pom": 5102,
      "strachu": 5103,
      "strzela": 5104,
      "dźwię": 5105,
      "gniewu": 5106,
      "skrzydła": 5107,
      "podoba": 5108,
      "Perker": 5109,
      "Pentuer": 5110,
      "bł": 5111,
      "gwar": 5112,
      "km": 5113,
      "powrót": 5114,
      "miłu": 5115,
      "wodzie": 5116,
      "boże": 5117,
      "went": 5118,
      "sona": 5119,
      "strang": 5120,
      "owskim": 5121,
      "zdanie": 5122,
      "198": 5123,
      "majątek": 5124,
      "brzeg": 5125,
      "środek": 5126,
      "AP": 5127,
      "CK": 5128,
      "Gra": 5129,
      "łzami": 5130,
      "zamiesz": 5131,
      "tely": 5132,
      "żebym": 5133,
      "mas": 5134,
      "coat": 5135,
      "codzien": 5136,
      "nąc": 5137,
      "piał": 5138,
      "sklep": 5139,
      "jegomość": 5140,
      "czono": 5141,
      "służą": 5142,
      "parła": 5143,
      "wielce": 5144,
      "pełno": 5145,
      "kazało": 5146,
      "Można": 5147,
      "każdą": 5148,
      "północ": 5149,
      "spokoju": 5150,
      "rodzin": 5151,
      "Czego": 5152,
      "zgodnie": 5153,
      "SLD": 5154,
      "Rzędzian": 5155,
      "Kale": 5156,
      "niebezpie": 5157,
      "pomó": 5158,
      "rather": 5159,
      "manie": 5160,
      "alko": 5161,
      "vel": 5162,
      "brakło": 5163,
      "Tuhaj": 5164,
      "większą": 5165,
      "polskiej": 5166,
      "ucieka": 5167,
      "Jedno": 5168,
      "powinna": 5169,
      "kawaler": 5170,
      "100": 5171,
      "Gło": 5172,
      "RO": 5173,
      "pru": 5174,
      "niła": 5175,
      "owska": 5176,
      "zatrzyma": 5177,
      "cymi": 5178,
      "skier": 5179,
      "szczerze": 5180,
      "Jeste": 5181,
      "port": 5182,
      "wracał": 5183,
      "Bille": 5184,
      "pped": 5185,
      "olbrzymi": 5186,
      "projekt": 5187,
      "At": 5188,
      "gnia": 5189,
      "wtó": 5190,
      "chra": 5191,
      "pomaga": 5192,
      "nikomu": 5193,
      "dzona": 5194,
      "rosły": 5195,
      "tomiast": 5196,
      "wysu": 5197,
      "wygląd": 5198,
      "rynku": 5199,
      "story": 5200,
      "brata": 5201,
      "swojego": 5202,
      "uśmiechnął": 5203,
      "względu": 5204,
      "kawale": 5205,
      "kwesti": 5206,
      "Owszem": 5207,
      "Kar": 5208,
      "Kil": 5209,
      "schro": 5210,
      "wprowa": 5211,
      "zgło": 5212,
      "zmia": 5213,
      "nadal": 5214,
      "liza": 5215,
      "koron": 5216,
      "wysł": 5217,
      "dziło": 5218,
      "nom": 5219,
      "nomar": 5220,
      "pannę": 5221,
      "kłó": 5222,
      "pary": 5223,
      "warsza": 5224,
      "bronić": 5225,
      "Ol": 5226,
      "Zdawało": 5227,
      "snąć": 5228,
      "napi": 5229,
      "wychy": 5230,
      "oddać": 5231,
      "niejszą": 5232,
      "Natomiast": 5233,
      "żoną": 5234,
      "ństwie": 5235,
      "Wyso": 5236,
      "lang": 5237,
      "biegła": 5238,
      "kolana": 5239,
      "danych": 5240,
      "ft": 5241,
      "fla": 5242,
      "lów": 5243,
      "udzie": 5244,
      "śmiało": 5245,
      "nasi": 5246,
      "liwy": 5247,
      "rzego": 5248,
      "zachwy": 5249,
      "kolum": 5250,
      "wind": 5251,
      "dziły": 5252,
      "chami": 5253,
      "będąc": 5254,
      "powietrzu": 5255,
      "służyć": 5256,
      "forte": 5257,
      "starszy": 5258,
      "odpowiedzial": 5259,
      "znaleźli": 5260,
      "Babinicz": 5261,
      "TH": 5262,
      "bór": 5263,
      "ogo": 5264,
      "oszczę": 5265,
      "porozumie": 5266,
      "rzeniem": 5267,
      "zawzię": 5268,
      "wycię": 5269,
      "tyk": 5270,
      "owaniem": 5271,
      "spon": 5272,
      "ściem": 5273,
      "prawdy": 5274,
      "dłem": 5275,
      "Chce": 5276,
      "zdję": 5277,
      "księżna": 5278,
      "żołnier": 5279,
      "akcji": 5280,
      "koniecznie": 5281,
      "Tatarów": 5282,
      "Polaków": 5283,
      "Cen": 5284,
      "afe": 5285,
      "nowej": 5286,
      "orze": 5287,
      "chowie": 5288,
      "goni": 5289,
      "niają": 5290,
      "stam": 5291,
      "zel": 5292,
      "siedli": 5293,
      "Toż": 5294,
      "chodziła": 5295,
      "górze": 5296,
      "Szlang": 5297,
      "szkoły": 5298,
      "Teli": 5299,
      "własnych": 5300,
      "uwagi": 5301,
      "morning": 5302,
      "klasy": 5303,
      "przyczyny": 5304,
      "Ben": 5305,
      "fro": 5306,
      "oznaj": 5307,
      "zza": 5308,
      "ńscy": 5309,
      "Żo": 5310,
      "wybra": 5311,
      "wierzyć": 5312,
      "moło": 5313,
      "maja": 5314,
      "sile": 5315,
      "owed": 5316,
      "służy": 5317,
      "trakt": 5318,
      "otwie": 5319,
      "obrony": 5320,
      "skóry": 5321,
      "Europej": 5322,
      "wzrokiem": 5323,
      "urzędni": 5324,
      "informacji": 5325,
      "praszam": 5326,
      "Witold": 5327,
      "Kur": 5328,
      "NA": 5329,
      "ain": 5330,
      "jże": 5331,
      "tko": 5332,
      "ukazał": 5333,
      "znu": 5334,
      "żby": 5335,
      "niewiele": 5336,
      "zapomni": 5337,
      "działo": 5338,
      "czytać": 5339,
      "make": 5340,
      "piw": 5341,
      "skro": 5342,
      "szczenia": 5343,
      "łej": 5344,
      "małego": 5345,
      "szlache": 5346,
      "pójdę": 5347,
      "szczęśliwy": 5348,
      "Izabeli": 5349,
      "szeroko": 5350,
      "słyszałem": 5351,
      "zmiany": 5352,
      "kniaziów": 5353,
      "KA": 5354,
      "Wczoraj": 5355,
      "mgnie": 5356,
      "schy": 5357,
      "żała": 5358,
      "pośred": 5359,
      "kochał": 5360,
      "wymie": 5361,
      "wypła": 5362,
      "tył": 5363,
      "przeszka": 5364,
      "coach": 5365,
      "bab": 5366,
      "spoczy": 5367,
      "skały": 5368,
      "owisko": 5369,
      "sup": 5370,
      "Jakie": 5371,
      "przyjaciel": 5372,
      "wiadomości": 5373,
      "wiadomość": 5374,
      "spotkanie": 5375,
      "Chrystusa": 5376,
      "kierunku": 5377,
      "fanta": 5378,
      "Juranda": 5379,
      "Ger": 5380,
      "dować": 5381,
      "dół": 5382,
      "sfe": 5383,
      "name": 5384,
      "nastąpi": 5385,
      "zar": 5386,
      "dopóki": 5387,
      "kato": 5388,
      "łożył": 5389,
      "cien": 5390,
      "through": 5391,
      "biła": 5392,
      "sądu": 5393,
      "brwi": 5394,
      "czarne": 5395,
      "dworu": 5396,
      "następca": 5397,
      "przyjść": 5398,
      "dziewczyny": 5399,
      "pracowników": 5400,
      "program": 5401,
      "asy": 5402,
      "czały": 5403,
      "poszli": 5404,
      "zagrani": 5405,
      "żeni": 5406,
      "żeniu": 5407,
      "nogami": 5408,
      "czyński": 5409,
      "przery": 5410,
      "inde": 5411,
      "pieśni": 5412,
      "heł": 5413,
      "władzy": 5414,
      "niosły": 5415,
      "tronu": 5416,
      "pewna": 5417,
      "chęć": 5418,
      "milczenie": 5419,
      "porwał": 5420,
      "Rzekł": 5421,
      "głupi": 5422,
      "oficerów": 5423,
      "doskonale": 5424,
      "Szlangba": 5425,
      "40": 5426,
      "CE": 5427,
      "sha": 5428,
      "iem": 5429,
      "posęp": 5430,
      "stó": 5431,
      "lia": 5432,
      "jezio": 5433,
      "tylu": 5434,
      "dym": 5435,
      "mami": 5436,
      "podał": 5437,
      "chach": 5438,
      "fis": 5439,
      "dzeniem": 5440,
      "Chwi": 5441,
      "pierwej": 5442,
      "chciałem": 5443,
      "każda": 5444,
      "siłę": 5445,
      "pamiętam": 5446,
      "rozmawiać": 5447,
      "seksu": 5448,
      "samych": 5449,
      "Aulu": 5450,
      "But": 5451,
      "umyślnie": 5452,
      "śpi": 5453,
      "nieprzyjaciół": 5454,
      "zasta": 5455,
      "dole": 5456,
      "done": 5457,
      "techni": 5458,
      "kilo": 5459,
      "toż": 5460,
      "tyłu": 5461,
      "pija": 5462,
      "Jaki": 5463,
      "złota": 5464,
      "chodź": 5465,
      "tłumy": 5466,
      "cyjnej": 5467,
      "ostatniej": 5468,
      "Żydów": 5469,
      "dobrego": 5470,
      "Który": 5471,
      "Oleńka": 5472,
      "alkoho": 5473,
      "This": 5474,
      "bre": 5475,
      "whe": 5476,
      "ódł": 5477,
      "śń": 5478,
      "napad": 5479,
      "czką": 5480,
      "gom": 5481,
      "wyszła": 5482,
      "tydzień": 5483,
      "wiecznie": 5484,
      "noś": 5485,
      "czynił": 5486,
      "pies": 5487,
      "soli": 5488,
      "pewnego": 5489,
      "Miło": 5490,
      "zależy": 5491,
      "środka": 5492,
      "biegli": 5493,
      "powinni": 5494,
      "powtarzał": 5495,
      "jakimś": 5496,
      "ramionami": 5497,
      "Kazimierz": 5498,
      "Wąsow": 5499,
      "prezydenta": 5500,
      "wów": 5501,
      "czce": 5502,
      "pocał": 5503,
      "oblę": 5504,
      "niając": 5505,
      "stawał": 5506,
      "nadto": 5507,
      "gieł": 5508,
      "późno": 5509,
      "południ": 5510,
      "miecznik": 5511,
      "partii": 5512,
      "Fenicja": 5513,
      "Ró": 5514,
      "Tra": 5515,
      "zowie": 5516,
      "niekiedy": 5517,
      "reda": 5518,
      "wyciągnął": 5519,
      "wykony": 5520,
      "dawać": 5521,
      "indi": 5522,
      "instru": 5523,
      "okół": 5524,
      "targ": 5525,
      "światła": 5526,
      "Według": 5527,
      "młodych": 5528,
      "gwałtow": 5529,
      "Czer": 5530,
      "Mał": 5531,
      "snęła": 5532,
      "tzw": 5533,
      "uwol": 5534,
      "zwło": 5535,
      "żka": 5536,
      "rosyj": 5537,
      "ciwszy": 5538,
      "wywo": 5539,
      "wiedząc": 5540,
      "przeszedł": 5541,
      "magi": 5542,
      "stada": 5543,
      "boru": 5544,
      "tują": 5545,
      "niejszego": 5546,
      "sobo": 5547,
      "ństw": 5548,
      "księdza": 5549,
      "szczególnie": 5550,
      "możliwe": 5551,
      "wieczora": 5552,
      "Myśl": 5553,
      "better": 5554,
      "stóp": 5555,
      "dały": 5556,
      "tnej": 5557,
      "uci": 5558,
      "naraz": 5559,
      "stół": 5560,
      "liczne": 5561,
      "zap": 5562,
      "tań": 5563,
      "nothing": 5564,
      "deszcz": 5565,
      "szel": 5566,
      "pisu": 5567,
      "czap": 5568,
      "ginie": 5569,
      "adwo": 5570,
      "Woje": 5571,
      "trady": 5572,
      "skute": 5573,
      "powstrzy": 5574,
      "wolał": 5575,
      "dziawszy": 5576,
      "piękny": 5577,
      "pojedyn": 5578,
      "oświe": 5579,
      "sar": 5580,
      "trzą": 5581,
      "zmy": 5582,
      "pociąg": 5583,
      "łańcu": 5584,
      "inna": 5585,
      "szeni": 5586,
      "Niemie": 5587,
      "manner": 5588,
      "Mia": 5589,
      "milczał": 5590,
      "grupy": 5591,
      "pamięć": 5592,
      "pierwsza": 5593,
      "robię": 5594,
      "voi": 5595,
      "Hiram": 5596,
      "Stanisław": 5597,
      "Telime": 5598,
      "Cy": 5599,
      "otu": 5600,
      "szty": 5601,
      "roka": 5602,
      "rezy": 5603,
      "mani": 5604,
      "inną": 5605,
      "czes": 5606,
      "stal": 5607,
      "najwięcej": 5608,
      "cudzo": 5609,
      "?…”": 5610,
      "społecze": 5611,
      "świątobliwości": 5612,
      "wściekło": 5613,
      "Gru": 5614,
      "Mem": 5615,
      "Ste": 5616,
      "Sar": 5617,
      "Yes": 5618,
      "han": 5619,
      "kały": 5620,
      "wzy": 5621,
      "szone": 5622,
      "pogrze": 5623,
      "liwe": 5624,
      "zapro": 5625,
      "zamiar": 5626,
      "koryta": 5627,
      "łaski": 5628,
      "lad": 5629,
      "mojego": 5630,
      "obło": 5631,
      "came": 5632,
      "zechce": 5633,
      "skali": 5634,
      "anymi": 5635,
      "Taki": 5636,
      "Ależ": 5637,
      "form": 5638,
      "dawały": 5639,
      "Maria": 5640,
      "próbu": 5641,
      "godny": 5642,
      "zwierząt": 5643,
      "ciężar": 5644,
      "pułki": 5645,
      "rzuciła": 5646,
      "okazji": 5647,
      "Pierwszy": 5648,
      "interesu": 5649,
      "jechała": 5650,
      "mnóstwo": 5651,
      "Żołnie": 5652,
      "CZ": 5653,
      "có": 5654,
      "efe": 5655,
      "naprzeciw": 5656,
      "godz": 5657,
      "dostęp": 5658,
      "wodz": 5659,
      "pasa": 5660,
      "mierza": 5661,
      "obszer": 5662,
      "Jej": 5663,
      "ingle": 5664,
      "impre": 5665,
      "sąsiad": 5666,
      "dzonych": 5667,
      "całkowi": 5668,
      "chodzili": 5669,
      "anom": 5670,
      "ństwem": 5671,
      "Mimo": 5672,
      "działania": 5673,
      "należą": 5674,
      "Here": 5675,
      "Chilo": 5676,
      "świątobliwość": 5677,
      "22": 5678,
      "AW": 5679,
      "OW": 5680,
      "okie": 5681,
      "onych": 5682,
      "oprócz": 5683,
      "pozostał": 5684,
      "cin": 5685,
      "wygra": 5686,
      "wiecze": 5687,
      "szymi": 5688,
      "pienie": 5689,
      "biły": 5690,
      "okno": 5691,
      "faj": 5692,
      "niono": 5693,
      "począć": 5694,
      "walił": 5695,
      "Zagłoby": 5696,
      "Sammy": 5697,
      "właściwie": 5698,
      "kandyda": 5699,
      "jakiegoś": 5700,
      "puszczał": 5701,
      "wypadek": 5702,
      "słowem": 5703,
      "uszu": 5704,
      "wne": 5705,
      "zle": 5706,
      "nań": 5707,
      "naci": 5708,
      "pojechał": 5709,
      "dzam": 5710,
      "widzieli": 5711,
      "owarzy": 5712,
      "granicy": 5713,
      "Stasia": 5714,
      "dźwi": 5715,
      "trum": 5716,
      "Mikoła": 5717,
      "huk": 5718,
      "demu": 5719,
      "pierwszych": 5720,
      "klaszto": 5721,
      "!”.": 5722,
      "kolor": 5723,
      "misja": 5724,
      "kogoś": 5725,
      "logii": 5726,
      "Niemców": 5727,
      "prezydent": 5728,
      "Tatarzy": 5729,
      "Asy": 5730,
      "Gó": 5731,
      "Trzy": 5732,
      "jona": 5733,
      "pin": 5734,
      "łki": 5735,
      "cek": 5736,
      "bogowie": 5737,
      "lubo": 5738,
      "żono": 5739,
      "ward": 5740,
      "odpowied": 5741,
      "szono": 5742,
      "niepokój": 5743,
      "says": 5744,
      "Radziwiłł": 5745,
      "kaszte": 5746,
      "Andrzeja": 5747,
      "musieli": 5748,
      "Ara": 5749,
      "lały": 5750,
      "opuścił": 5751,
      "spy": 5752,
      "niedawno": 5753,
      "niały": 5754,
      "domy": 5755,
      "wielo": 5756,
      "przeszko": 5757,
      "sarz": 5758,
      "medy": 5759,
      "Zawsze": 5760,
      "father": 5761,
      "słone": 5762,
      "małże": 5763,
      "kompu": 5764,
      "ustach": 5765,
      "Mari": 5766,
      "ruszyli": 5767,
      "dłoni": 5768,
      "starosta": 5769,
      "trzydzieści": 5770,
      "Charłam": 5771,
      "Szy": 5772,
      "ucha": 5773,
      "stka": 5774,
      "wata": 5775,
      "nocą": 5776,
      "sit": 5777,
      "sal": 5778,
      "dell": 5779,
      "best": 5780,
      "dum": 5781,
      "sied": 5782,
      "dobrą": 5783,
      "trop": 5784,
      "sercem": 5785,
      "lekko": 5786,
      "gotowi": 5787,
      "słuchaj": 5788,
      "bitwie": 5789,
      "jeździe": 5790,
      "chmur": 5791,
      "sport": 5792,
      "kapelu": 5793,
      "Malbo": 5794,
      "ołta": 5795,
      "zmian": 5796,
      "źre": 5797,
      "rany": 5798,
      "tacji": 5799,
      "wiam": 5800,
      "podniosła": 5801,
      "Pott": 5802,
      "meto": 5803,
      "trzecie": 5804,
      "wól": 5805,
      "myślałem": 5806,
      "tarł": 5807,
      "Wać": 5808,
      "dłonie": 5809,
      "osoba": 5810,
      "llen": 5811,
      "krótko": 5812,
      "Niemcy": 5813,
      "względem": 5814,
      "sztuki": 5815,
      "więzienia": 5816,
      "course": 5817,
      "mołoj": 5818,
      "Malbor": 5819,
      "awan": 5820,
      "fli": 5821,
      "grał": 5822,
      "spytała": 5823,
      "Żmu": 5824,
      "czała": 5825,
      "poto": 5826,
      "lizacji": 5827,
      "wicy": 5828,
      "dokoła": 5829,
      "mija": 5830,
      "wybiera": 5831,
      "state": 5832,
      "pió": 5833,
      "fizy": 5834,
      "czoną": 5835,
      "żać": 5836,
      "wszelako": 5837,
      "stek": 5838,
      "konkur": 5839,
      "mogąc": 5840,
      "zdania": 5841,
      "Lip": 5842,
      "godne": 5843,
      "Czasem": 5844,
      "quite": 5845,
      "pustyni": 5846,
      "mądro": 5847,
      "piechoty": 5848,
      "tygodni": 5849,
      "nazwisko": 5850,
      "Jednakże": 5851,
      "tęskno": 5852,
      "namiestnik": 5853,
      "ation": 5854,
      "anie": 5855,
      "wiły": 5856,
      "waru": 5857,
      "pania": 5858,
      "duchu": 5859,
      "medi": 5860,
      "braci": 5861,
      "dzeń": 5862,
      "zdoła": 5863,
      "zaczęli": 5864,
      "Bardell": 5865,
      "południe": 5866,
      "artyku": 5867,
      "większość": 5868,
      "Rob": 5869,
      "Zło": 5870,
      "fat": 5871,
      "kowy": 5872,
      "opan": 5873,
      "utrzy": 5874,
      "udał": 5875,
      "posiad": 5876,
      "maszy": 5877,
      "jedni": 5878,
      "twojej": 5879,
      "stanow": 5880,
      "dawnych": 5881,
      "podobno": 5882,
      "cyjny": 5883,
      "whole": 5884,
      "straszne": 5885,
      "wzią": 5886,
      "chłopów": 5887,
      "prawić": 5888,
      "telefon": 5889,
      "radością": 5890,
      "tysiąc": 5891,
      "Chmielnickiego": 5892,
      "Wojski": 5893,
      "drewni": 5894,
      "Justyna": 5895,
      "Cię": 5896,
      "For": 5897,
      "Wró": 5898,
      "ekono": 5899,
      "klej": 5900,
      "opowiadał": 5901,
      "niektórzy": 5902,
      "pojedzie": 5903,
      "radę": 5904,
      "lewo": 5905,
      "zarzu": 5906,
      "dziad": 5907,
      "daniem": 5908,
      "przysz": 5909,
      "ers": 5910,
      "ważne": 5911,
      "towar": 5912,
      "Kiej": 5913,
      "zdrowi": 5914,
      "Janusz": 5915,
      "hands": 5916,
      "rozmowa": 5917,
      "możliwości": 5918,
      "słusznie": 5919,
      "chłopak": 5920,
      "Sejm": 5921,
      "Ochocki": 5922,
      "Aleksand": 5923,
      "europej": 5924,
      "Ej": 5925,
      "Idry": 5926,
      "ado": 5927,
      "nować": 5928,
      "złu": 5929,
      "nareszcie": 5930,
      "nina": 5931,
      "łami": 5932,
      "moi": 5933,
      "pisze": 5934,
      "socja": 5935,
      "Takie": 5936,
      "serde": 5937,
      "robią": 5938,
      "Tygel": 5939,
      "expre": 5940,
      "Maćka": 5941,
      "mężczyzna": 5942,
      "drzwiach": 5943,
      "Fi": 5944,
      "Mę": 5945,
      "Zbara": 5946,
      "bly": 5947,
      "lor": 5948,
      "swymi": 5949,
      "zbi": 5950,
      "ślu": 5951,
      "listo": 5952,
      "zastęp": 5953,
      "woju": 5954,
      "zespo": 5955,
      "siedzieć": 5956,
      "ciął": 5957,
      "twoją": 5958,
      "śmiechem": 5959,
      "fellow": 5960,
      "robot": 5961,
      "pięćdziesiąt": 5962,
      "kochany": 5963,
      "Im": 5964,
      "pnia": 5965,
      "spły": 5966,
      "napo": 5967,
      "ponow": 5968,
      "pomimo": 5969,
      "dochod": 5970,
      "dostanie": 5971,
      "dokąd": 5972,
      "mić": 5973,
      "miot": 5974,
      "waści": 5975,
      "kują": 5976,
      "despe": 5977,
      "stoli": 5978,
      "Jere": 5979,
      "powstał": 5980,
      "kończył": 5981,
      "zostali": 5982,
      "dwoma": 5983,
      "piękne": 5984,
      "następcy": 5985,
      "spokojny": 5986,
      "struktu": 5987,
      "wniosek": 5988,
      "Bądź": 5989,
      "cku": 5990,
      "trzę": 5991,
      "chą": 5992,
      "poszła": 5993,
      "cicha": 5994,
      "torów": 5995,
      "nex": 5996,
      "wiecie": 5997,
      "nogach": 5998,
      "boju": 5999,
      "baro": 6000,
      "wzdy": 6001,
      "bracia": 6002,
      "Mag": 6003,
      "konta": 6004,
      "panii": 6005,
      "Wiesz": 6006,
      "milczenia": 6007,
      "oficja": 6008,
      "proces": 6009,
      "Aby": 6010,
      "Aposto": 6011,
      "Allen": 6012,
      "ptak": 6013,
      "sprzed": 6014,
      "schwy": 6015,
      "ugh": 6016,
      "utk": 6017,
      "nał": 6018,
      "niektórych": 6019,
      "niecierpli": 6020,
      "raca": 6021,
      "zabezpie": 6022,
      "instan": 6023,
      "Ponieważ": 6024,
      "administra": 6025,
      "twoim": 6026,
      "fect": 6027,
      "Mah": 6028,
      "wolności": 6029,
      "zdaniem": 6030,
      "ściami": 6031,
      "stanowisko": 6032,
      "draż": 6033,
      "biegły": 6034,
      "kosztow": 6035,
      "zginę": 6036,
      "Głu": 6037,
      "TER": 6038,
      "hour": 6039,
      "ktem": 6040,
      "ośmie": 6041,
      "rzało": 6042,
      "szó": 6043,
      "owni": 6044,
      "ject": 6045,
      "czysz": 6046,
      "przeprowa": 6047,
      "koncer": 6048,
      "tkach": 6049,
      "czerwie": 6050,
      "przod": 6051,
      "potrzeby": 6052,
      "wracać": 6053,
      "Ramzesa": 6054,
      "natural": 6055,
      "kościoła": 6056,
      "US": 6057,
      "mp": 6058,
      "wka": 6059,
      "ózł": 6060,
      "żki": 6061,
      "szczył": 6062,
      "porówna": 6063,
      "wozy": 6064,
      "gabi": 6065,
      "gadać": 6066,
      "biegu": 6067,
      "znakomi": 6068,
      "progu": 6069,
      "lono": 6070,
      "szczenie": 6071,
      "okrą": 6072,
      "Wido": 6073,
      "few": 6074,
      "króle": 6075,
      "owość": 6076,
      "Sakowi": 6077,
      "kilkadziesiąt": 6078,
      "matter": 6079,
      "ards": 6080,
      "listów": 6081,
      "polskim": 6082,
      "zamknię": 6083,
      "język": 6084,
      "Longin": 6085,
      "bow": 6086,
      "tnego": 6087,
      "upadł": 6088,
      "wców": 6089,
      "niżej": 6090,
      "redni": 6091,
      "jadą": 6092,
      "wierzył": 6093,
      "czają": 6094,
      "stość": 6095,
      "filo": 6096,
      "małżon": 6097,
      "firm": 6098,
      "jasno": 6099,
      "Ksiądz": 6100,
      "położył": 6101,
      "dziewięć": 6102,
      "Kul": 6103,
      "USA": 6104,
      "aku": 6105,
      "fle": 6106,
      "hur": 6107,
      "mk": 6108,
      "san": 6109,
      "wny": 6110,
      "zą": 6111,
      "naród": 6112,
      "stri": 6113,
      "life": 6114,
      "wiod": 6115,
      "kary": 6116,
      "ścił": 6117,
      "ordy": 6118,
      "bierał": 6119,
      "bek": 6120,
      "gim": 6121,
      "prof": 6122,
      "hed": 6123,
      "premie": 6124,
      "kończy": 6125,
      "cyjnego": 6126,
      "przyszłości": 6127,
      "olbrzymie": 6128,
      "stamtąd": 6129,
      "Dan": 6130,
      "Kir": 6131,
      "hm": 6132,
      "mro": 6133,
      "tnia": 6134,
      "żały": 6135,
      "nieprze": 6136,
      "doszło": 6137,
      "mit": 6138,
      "rent": 6139,
      "reprezen": 6140,
      "wiedziała": 6141,
      "dama": 6142,
      "tho": 6143,
      "rumie": 6144,
      "dera": 6145,
      "pilnie": 6146,
      "alem": 6147,
      "podar": 6148,
      "cham": 6149,
      "cud": 6150,
      "ham": 6151,
      "parla": 6152,
      "złożył": 6153,
      "natura": 6154,
      "lla": 6155,
      "lniej": 6156,
      "ople": 6157,
      "zwol": 6158,
      "Ślą": 6159,
      "niewoli": 6160,
      "poku": 6161,
      "zaprze": 6162,
      "wysy": 6163,
      "czeniem": 6164,
      "orę": 6165,
      "owicza": 6166,
      "media": 6167,
      "history": 6168,
      "hea": 6169,
      "najważ": 6170,
      "rzucał": 6171,
      "kryty": 6172,
      "trafił": 6173,
      "Inni": 6174,
      "pójść": 6175,
      "wiczów": 6176,
      "Danusi": 6177,
      "regular": 6178,
      "powrotem": 6179,
      "religi": 6180,
      "hrabi": 6181,
      "Józe": 6182,
      "Krzesz": 6183,
      "Dale": 6184,
      "Kowa": 6185,
      "PO": 6186,
      "air": 6187,
      "gno": 6188,
      "usłyszał": 6189,
      "wtem": 6190,
      "nala": 6191,
      "niewy": 6192,
      "połowie": 6193,
      "zato": 6194,
      "ciał": 6195,
      "żeń": 6196,
      "kupy": 6197,
      "instytu": 6198,
      "fire": 6199,
      "bramy": 6200,
      "piętna": 6201,
      "Czyli": 6202,
      "sprawach": 6203,
      "tkowo": 6204,
      "Ligię": 6205,
      "cjon": 6206,
      "dziwne": 6207,
      "błyszczą": 6208,
      "owanego": 6209,
      "Oczywiście": 6210,
      "aresz": 6211,
      "tly": 6212,
      "nij": 6213,
      "going": 6214,
      "zawa": 6215,
      "wokół": 6216,
      "któż": 6217,
      "praca": 6218,
      "bran": 6219,
      "każde": 6220,
      "pisów": 6221,
      "straszny": 6222,
      "zaczęły": 6223,
      "skończy": 6224,
      "zauważył": 6225,
      "Następnie": 6226,
      "cudzoziem": 6227,
      "60": 6228,
      "Mło": 6229,
      "dre": 6230,
      "zry": 6231,
      "sting": 6232,
      "nili": 6233,
      "ration": 6234,
      "obraź": 6235,
      "pili": 6236,
      "skimi": 6237,
      "skała": 6238,
      "Niektórzy": 6239,
      "pyt": 6240,
      "Coś": 6241,
      "miejscach": 6242,
      "bled": 6243,
      "Samo": 6244,
      "święt": 6245,
      "patrzyli": 6246,
      "rachun": 6247,
      "głup": 6248,
      "centra": 6249,
      "ogromne": 6250,
      "stopni": 6251,
      "film": 6252,
      "żonę": 6253,
      "spotkał": 6254,
      "23": 6255,
      "Dnie": 6256,
      "El": 6257,
      "That": 6258,
      "kno": 6259,
      "possi": 6260,
      "rolę": 6261,
      "zachę": 6262,
      "cichy": 6263,
      "koł": 6264,
      "dostar": 6265,
      "rejest": 6266,
      "paź": 6267,
      "mali": 6268,
      "kuzy": 6269,
      "staj": 6270,
      "del": 6271,
      "demokra": 6272,
      "care": 6273,
      "propozy": 6274,
      "stoją": 6275,
      "som": 6276,
      "żalu": 6277,
      "Widzę": 6278,
      "druży": 6279,
      "lskich": 6280,
      "północy": 6281,
      "stawić": 6282,
      "mocniej": 6283,
      "short": 6284,
      "excla": 6285,
      "żadna": 6286,
      "śpiewa": 6287,
      "wysokie": 6288,
      "hetmana": 6289,
      "marszałek": 6290,
      "Krakowie": 6291,
      "inwesty": 6292,
      "Pło": 6293,
      "Sła": 6294,
      "ath": 6295,
      "brew": 6296,
      "ding": 6297,
      "ole": 6298,
      "oży": 6299,
      "zny": 6300,
      "óz": 6301,
      "średni": 6302,
      "poszuki": 6303,
      "radzi": 6304,
      "jenerał": 6305,
      "teli": 6306,
      "byt": 6307,
      "waszą": 6308,
      "łom": 6309,
      "wieki": 6310,
      "lasy": 6311,
      "żyło": 6312,
      "gatu": 6313,
      "Niestety": 6314,
      "sol": 6315,
      "hap": 6316,
      "Widać": 6317,
      "gęst": 6318,
      "krzyki": 6319,
      "śmiercią": 6320,
      "Sara": 6321,
      "wojewody": 6322,
      "kłopo": 6323,
      "środków": 6324,
      "przypatry": 6325,
      "countena": 6326,
      "Nowowiejski": 6327,
      "countenance": 6328,
      "Unii": 6329,
      "usa": 6330,
      "wskim": 6331,
      "nieśli": 6332,
      "posłu": 6333,
      "jesta": 6334,
      "zabrał": 6335,
      "zapytała": 6336,
      "tonem": 6337,
      "dywi": 6338,
      "rus": 6339,
      "syte": 6340,
      "burza": 6341,
      "żonym": 6342,
      "Ledwie": 6343,
      "działalności": 6344,
      "kamień": 6345,
      "chwilami": 6346,
      "wyjść": 6347,
      "tajemni": 6348,
      "pozwolił": 6349,
      "książki": 6350,
      "though": 6351,
      "księżyc": 6352,
      "oznacza": 6353,
      "rzadko": 6354,
      "filoz": 6355,
      "Vi": 6356,
      "dka": 6357,
      "imed": 6358,
      "klie": 6359,
      "nowym": 6360,
      "popu": 6361,
      "pocket": 6362,
      "zaci": 6363,
      "zagra": 6364,
      "respon": 6365,
      "wypeł": 6366,
      "wozu": 6367,
      "obję": 6368,
      "cona": 6369,
      "podnosi": 6370,
      "podstawie": 6371,
      "lonym": 6372,
      "skom": 6373,
      "śniegu": 6374,
      "płaci": 6375,
      "hoj": 6376,
      "złote": 6377,
      "dzają": 6378,
      "Nilu": 6379,
      "Podkomo": 6380,
      "zjawi": 6381,
      "komuni": 6382,
      "owanej": 6383,
      "nadzieja": 6384,
      "opieku": 6385,
      "niewolników": 6386,
      "rozporzą": 6387,
      "historii": 6388,
      "mgnieniu": 6389,
      "Adam": 6390,
      "Dod": 6391,
      "EL": 6392,
      "dki": 6393,
      "dany": 6394,
      "ise": 6395,
      "towi": 6396,
      "chwa": 6397,
      "szpa": 6398,
      "jezd": 6399,
      "koszy": 6400,
      "przybył": 6401,
      "seł": 6402,
      "chając": 6403,
      "pierś": 6404,
      "konku": 6405,
      "rzędu": 6406,
      "różno": 6407,
      "płynie": 6408,
      "Basi": 6409,
      "poczęło": 6410,
      "własnego": 6411,
      "blask": 6412,
      "Bene": 6413,
      "ratury": 6414,
      "spotkać": 6415,
      "dobrym": 6416,
      "grzmo": 6417,
      "gwiazdy": 6418,
      "zginął": 6419,
      "Lorche": 6420,
      "Jingle": 6421,
      "atak": 6422,
      "bri": 6423,
      "lly": 6424,
      "otrzyma": 6425,
      "uści": 6426,
      "chrz": 6427,
      "czkach": 6428,
      "cznymi": 6429,
      "owanym": 6430,
      "komisji": 6431,
      "każę": 6432,
      "rejo": 6433,
      "wieś": 6434,
      "wierzę": 6435,
      "morza": 6436,
      "matu": 6437,
      "szyi": 6438,
      "szacu": 6439,
      "lonej": 6440,
      "mięk": 6441,
      "czołem": 6442,
      "kredy": 6443,
      "piękna": 6444,
      "ciężkie": 6445,
      "ratunek": 6446,
      "zobaczył": 6447,
      "puszczać": 6448,
      "południu": 6449,
      "człon": 6450,
      "Francu": 6451,
      "wicher": 6452,
      "weźmie": 6453,
      "Ban": 6454,
      "Hra": 6455,
      "kowej": 6456,
      "ory": 6457,
      "poinfor": 6458,
      "nikom": 6459,
      "ładu": 6460,
      "wyjechał": 6461,
      "main": 6462,
      "ruje": 6463,
      "sud": 6464,
      "szabla": 6465,
      "ogniem": 6466,
      "czonym": 6467,
      "strate": 6468,
      "podobnych": 6469,
      "wemu": 6470,
      "jasne": 6471,
      "zwycięstwo": 6472,
      "pierwszą": 6473,
      "otwarte": 6474,
      "pachoł": 6475,
      "doskona": 6476,
      "repti": 6477,
      "Gerwa": 6478,
      "XX": 6479,
      "eli": 6480,
      "gminy": 6481,
      "iła": 6482,
      "trój": 6483,
      "ule": 6484,
      "uto": 6485,
      "linie": 6486,
      "zasy": 6487,
      "dozna": 6488,
      "kanie": 6489,
      "tygod": 6490,
      "woź": 6491,
      "rys": 6492,
      "ścig": 6493,
      "mym": 6494,
      "stair": 6495,
      "weszli": 6496,
      "prosta": 6497,
      "loną": 6498,
      "mnieć": 6499,
      "ficer": 6500,
      "Karol": 6501,
      "Mosk": 6502,
      "Rot": 6503,
      "czymś": 6504,
      "Jutro": 6505,
      "197": 6506,
      "wróciła": 6507,
      "kręcił": 6508,
      "sędzi": 6509,
      "wyłącznie": 6510,
      "niedzielę": 6511,
      "Rozumie": 6512,
      "Pompo": 6513,
      "Ca": 6514,
      "Dwa": 6515,
      "Mog": 6516,
      "hind": 6517,
      "ping": 6518,
      "shi": 6519,
      "zakry": 6520,
      "koszu": 6521,
      "wiedzi": 6522,
      "odet": 6523,
      "mawiał": 6524,
      "sat": 6525,
      "bitwa": 6526,
      "bal": 6527,
      "orsza": 6528,
      "Zaś": 6529,
      "miaste": 6530,
      "konkre": 6531,
      "skutek": 6532,
      "musisz": 6533,
      "patrzyć": 6534,
      "Czeka": 6535,
      "jeżdżał": 6536,
      "glądając": 6537,
      "czerwone": 6538,
      "grzbie": 6539,
      "głowami": 6540,
      "pochylił": 6541,
      "wątpliwości": 6542,
      "voice": 6543,
      "Gro": 6544,
      "Idź": 6545,
      "NI": 6546,
      "Twa": 6547,
      "Znowu": 6548,
      "nóż": 6549,
      "oczami": 6550,
      "sztor": 6551,
      "owro": 6552,
      "liczyć": 6553,
      "zaw": 6554,
      "cious": 6555,
      "dziecię": 6556,
      "dasz": 6557,
      "wiają": 6558,
      "heard": 6559,
      "bunt": 6560,
      "nictwo": 6561,
      "równi": 6562,
      "dowod": 6563,
      "wolność": 6564,
      "należało": 6565,
      "plea": 6566,
      "ludzkich": 6567,
      "strasznie": 6568,
      "błaga": 6569,
      "szereg": 6570,
      "paździer": 6571,
      "exclaimed": 6572,
      "Mente": 6573,
      "Nu": 6574,
      "Obec": 6575,
      "uchy": 6576,
      "want": 6577,
      "śnię": 6578,
      "poły": 6579,
      "posie": 6580,
      "gory": 6581,
      "bywało": 6582,
      "odpoczy": 6583,
      "cei": 6584,
      "patry": 6585,
      "majesta": 6586,
      "biec": 6587,
      "chodzę": 6588,
      "pannie": 6589,
      "nędz": 6590,
      "kłam": 6591,
      "swobod": 6592,
      "krok": 6593,
      "krokiem": 6594,
      "pozba": 6595,
      "blasku": 6596,
      "gotowy": 6597,
      "białą": 6598,
      "wersyte": 6599,
      "terenie": 6600,
      "córki": 6601,
      "wstyd": 6602,
      "Bohuna": 6603,
      "Niemiec": 6604,
      "Mentezu": 6605,
      "Fun": 6606,
      "Kobie": 6607,
      "WI": 6608,
      "ea": 6609,
      "even": 6610,
      "ują": 6611,
      "zbior": 6612,
      "żne": 6613,
      "naczy": 6614,
      "człe": 6615,
      "zarzą": 6616,
      "zapad": 6617,
      "doszedł": 6618,
      "przypomniał": 6619,
      "piej": 6620,
      "bene": 6621,
      "behind": 6622,
      "pusto": 6623,
      "Narod": 6624,
      "Naprzód": 6625,
      "heart": 6626,
      "ogród": 6627,
      "tis": 6628,
      "stronach": 6629,
      "Szko": 6630,
      "młodzień": 6631,
      "ofiary": 6632,
      "kowskiego": 6633,
      "They": 6634,
      "oboję": 6635,
      "kościół": 6636,
      "natury": 6637,
      "uczucia": 6638,
      "jakiejś": 6639,
      "problem": 6640,
      "białych": 6641,
      "stycznia": 6642,
      "Jad": 6643,
      "Kraj": 6644,
      "abym": 6645,
      "otrzymał": 6646,
      "ukło": 6647,
      "nator": 6648,
      "niestety": 6649,
      "post": 6650,
      "potwo": 6651,
      "pomysł": 6652,
      "rodu": 6653,
      "zaro": 6654,
      "wiemy": 6655,
      "wiedzy": 6656,
      "wiedzieli": 6657,
      "oder": 6658,
      "czeni": 6659,
      "stają": 6660,
      "jakkolwiek": 6661,
      "bienia": 6662,
      "pane": 6663,
      "działu": 6664,
      "wszystkimi": 6665,
      "Jerzy": 6666,
      "mentar": 6667,
      "idąc": 6668,
      "czuje": 6669,
      "waćpanna": 6670,
      "studi": 6671,
      "byłaby": 6672,
      "ojcu": 6673,
      "Noc": 6674,
      "bladł": 6675,
      "zdołał": 6676,
      "królowi": 6677,
      "skończył": 6678,
      "zdziwieniem": 6679,
      "sprawiedliwości": 6680,
      "Słysz": 6681,
      "count": 6682,
      "kościele": 6683,
      "Długo": 6684,
      "muszkie": 6685,
      "Wśród": 6686,
      "dowi": 6687,
      "ef": 6688,
      "used": 6689,
      "van": 6690,
      "wszak": 6691,
      "nasy": 6692,
      "chowski": 6693,
      "liwszy": 6694,
      "rzeniu": 6695,
      "zacie": 6696,
      "tyczne": 6697,
      "wodza": 6698,
      "odź": 6699,
      "odbi": 6700,
      "lauda": 6701,
      "przestał": 6702,
      "zostaną": 6703,
      "łez": 6704,
      "Marek": 6705,
      "konsu": 6706,
      "resztę": 6707,
      "Wier": 6708,
      "Krzysia": 6709,
      "zabija": 6710,
      "organizacji": 6711,
      "Człowie": 6712,
      "przyszłość": 6713,
      "kochan": 6714,
      "kwiaty": 6715,
      "spodziewał": 6716,
      "wieczor": 6717,
      "krzywdy": 6718,
      "wno": 6719,
      "znę": 6720,
      "napis": 6721,
      "niektóre": 6722,
      "lim": 6723,
      "leniem": 6724,
      "zago": 6725,
      "zazdro": 6726,
      "widzenia": 6727,
      "waszych": 6728,
      "reco": 6729,
      "wyglądał": 6730,
      "przysłu": 6731,
      "rozpro": 6732,
      "people": 6733,
      "trzeź": 6734,
      "ziar": 6735,
      "pełen": 6736,
      "Paweł": 6737,
      "scypli": 6738,
      "sprawo": 6739,
      "komple": 6740,
      "ders": 6741,
      "chwyta": 6742,
      "włosów": 6743,
      "zgrzy": 6744,
      "ostatnim": 6745,
      "służba": 6746,
      "miesiące": 6747,
      "Wielki": 6748,
      "szpitala": 6749,
      "drzwiami": 6750,
      "Sapieha": 6751,
      "dyrektor": 6752,
      "Spychowa": 6753,
      "otwiera": 6754,
      "katoli": 6755,
      "seksual": 6756,
      "?\"": 6757,
      "If": 6758,
      "Tłu": 6759,
      "bała": 6760,
      "brzę": 6761,
      "kano": 6762,
      "posed": 6763,
      "kochać": 6764,
      "dor": 6765,
      "kap": 6766,
      "wynagro": 6767,
      "przysią": 6768,
      "bacz": 6769,
      "mówiłem": 6770,
      "władzę": 6771,
      "hope": 6772,
      "ojcze": 6773,
      "okolicz": 6774,
      "niechże": 6775,
      "klęski": 6776,
      "small": 6777,
      "wyjdzie": 6778,
      "okazało": 6779,
      "Dzięki": 6780,
      "pułkownik": 6781,
      "Starski": 6782,
      "Kilka": 6783,
      "Głów": 6784,
      "Roba": 6785,
      "cmenta": 6786,
      "dły": 6787,
      "lane": 6788,
      "opar": 6789,
      "trium": 6790,
      "ub": 6791,
      "Ło": 6792,
      "rzone": 6793,
      "napełni": 6794,
      "wisi": 6795,
      "miła": 6796,
      "wysta": 6797,
      "jami": 6798,
      "oddziały": 6799,
      "pek": 6800,
      "chwil": 6801,
      "niosą": 6802,
      "stanowie": 6803,
      "dowci": 6804,
      "chłopi": 6805,
      "lepsze": 6806,
      "siadła": 6807,
      "żadne": 6808,
      "pracować": 6809,
      "dzielić": 6810,
      "nauki": 6811,
      "długim": 6812,
      "baronowa": 6813,
      "Zygfry": 6814,
      "mężczyzn": 6815,
      "sobotę": 6816,
      "How": 6817,
      "Por": 6818,
      "nnych": 6819,
      "tri": 6820,
      "usiadł": 6821,
      "wcy": 6822,
      "ief": 6823,
      "nisko": 6824,
      "lista": 6825,
      "zasię": 6826,
      "komó": 6827,
      "torium": 6828,
      "murów": 6829,
      "przywy": 6830,
      "owań": 6831,
      "tum": 6832,
      "budzi": 6833,
      "fika": 6834,
      "najczęściej": 6835,
      "czom": 6836,
      "będziem": 6837,
      "fabry": 6838,
      "idź": 6839,
      "Macie": 6840,
      "dowała": 6841,
      "Tyle": 6842,
      "Moja": 6843,
      "Szczy": 6844,
      "ojc": 6845,
      "ojcem": 6846,
      "musimy": 6847,
      "stawił": 6848,
      "godzina": 6849,
      "czarny": 6850,
      "chciałbym": 6851,
      "Dobrzy": 6852,
      "powinny": 6853,
      "świątyń": 6854,
      "nieboszczy": 6855,
      "oblicze": 6856,
      "niewiasty": 6857,
      "ojczyźnie": 6858,
      "feeling": 6859,
      "Longinus": 6860,
      "Job": 6861,
      "Wz": 6862,
      "four": 6863,
      "rowie": 6864,
      "twego": 6865,
      "czół": 6866,
      "pode": 6867,
      "anów": 6868,
      "terze": 6869,
      "wysłał": 6870,
      "momencie": 6871,
      "mara": 6872,
      "kuchni": 6873,
      "Tatar": 6874,
      "mary": 6875,
      "Komisji": 6876,
      "możny": 6877,
      "większej": 6878,
      "tkami": 6879,
      "zdawał": 6880,
      "rozumiesz": 6881,
      "zmienił": 6882,
      "uciekł": 6883,
      "uderza": 6884,
      "Michała": 6885,
      "szepnęła": 6886,
      "twierdzi": 6887,
      "stryj": 6888,
      "nazwiska": 6889,
      "talentów": 6890,
      "oficerowie": 6891,
      "otacza": 6892,
      "Bur": 6893,
      "Ile": 6894,
      "Pal": 6895,
      "Rów": 6896,
      "ated": 6897,
      "drą": 6898,
      "dowanie": 6899,
      "ilu": 6900,
      "nko": 6901,
      "uło": 6902,
      "utrzyma": 6903,
      "nieniem": 6904,
      "niedaleko": 6905,
      "porze": 6906,
      "ałów": 6907,
      "zapomniał": 6908,
      "zaufa": 6909,
      "dosię": 6910,
      "water": 6911,
      "wydało": 6912,
      "wozów": 6913,
      "podnieść": 6914,
      "chaty": 6915,
      "--‘": 6916,
      "ciągnąć": 6917,
      "książęcej": 6918,
      "złowro": 6919,
      "obiecał": 6920,
      "turn": 6921,
      "large": 6922,
      "zgody": 6923,
      "firma": 6924,
      "Soli": 6925,
      "Geb": 6926,
      "córka": 6927,
      "projektu": 6928,
      "gwiazd": 6929,
      "Łub": 6930,
      "prawdopodobnie": 6931,
      "Rzeczpospolita": 6932,
      "zastana": 6933,
      "80": 6934,
      "Kat": 6935,
      "Mało": 6936,
      "Ukrai": 6937,
      "gnę": 6938,
      "kins": 6939,
      "żeć": 6940,
      "rezu": 6941,
      "dziu": 6942,
      "czyste": 6943,
      "dywał": 6944,
      "mak": 6945,
      "kula": 6946,
      "kupu": 6947,
      "miesię": 6948,
      "rozbi": 6949,
      "dual": 6950,
      "Zamo": 6951,
      "cked": 6952,
      "okres": 6953,
      "zując": 6954,
      "płacić": 6955,
      "płaszcz": 6956,
      "uncle": 6957,
      "Kamie": 6958,
      "szkole": 6959,
      "rance": 6960,
      "Przyj": 6961,
      "Gdybym": 6962,
      "zmienia": 6963,
      "while": 6964,
      "płomień": 6965,
      "uciekać": 6966,
      "starych": 6967,
      "Czas": 6968,
      "zabił": 6969,
      "ratura": 6970,
      "dowiedział": 6971,
      "fully": 6972,
      "warunki": 6973,
      "Af": 6974,
      "Kt": 6975,
      "Towarzy": 6976,
      "oże": 6977,
      "płu": 6978,
      "sał": 6979,
      "porę": 6980,
      "pozio": 6981,
      "jeńców": 6982,
      "łaskę": 6983,
      "rekla": 6984,
      "miesza": 6985,
      "ruchem": 6986,
      "tual": 6987,
      "pieśń": 6988,
      "baj": 6989,
      "bieda": 6990,
      "rękami": 6991,
      "atmo": 6992,
      "powierz": 6993,
      "sławie": 6994,
      "dawne": 6995,
      "wargi": 6996,
      "pływa": 6997,
      "Byli": 6998,
      "dziećmi": 6999,
      "godzinie": 7000,
      "ludzkiej": 7001,
      "strzały": 7002,
      "okresie": 7003,
      "wszędy": 7004,
      "komnaty": 7005,
      "Szlangbaum": 7006,
      "Któż": 7007,
      "Flo": 7008,
      "Mel": 7009,
      "Spraw": 7010,
      "amo": 7011,
      "usi": 7012,
      "układ": 7013,
      "uniesie": 7014,
      "year": 7015,
      "śmia": 7016,
      "ier": 7017,
      "nazajutrz": 7018,
      "szkę": 7019,
      "pomi": 7020,
      "godnie": 7021,
      "cing": 7022,
      "kając": 7023,
      "kin": 7024,
      "dzikich": 7025,
      "czycy": 7026,
      "przeraź": 7027,
      "nące": 7028,
      "piel": 7029,
      "zej": 7030,
      "subie": 7031,
      "log": 7032,
      "mean": 7033,
      "wznosi": 7034,
      "sąsie": 7035,
      "zdrów": 7036,
      "dii": 7037,
      "grom": 7038,
      "reszty": 7039,
      "podobnego": 7040,
      "Krzywo": 7041,
      "wołali": 7042,
      "handl": 7043,
      "bólu": 7044,
      "ways": 7045,
      "poniedział": 7046,
      "skórę": 7047,
      "potrzebne": 7048,
      "chmury": 7049,
      "delika": 7050,
      "Rzymie": 7051,
      "Litwie": 7052,
      "Trudno": 7053,
      "general": 7054,
      "Krzysztof": 7055,
      "Charłamp": 7056,
      "Hen": 7057,
      "Młody": 7058,
      "eta": 7059,
      "następu": 7060,
      "niegdzie": 7061,
      "kade": 7062,
      "woły": 7063,
      "nogą": 7064,
      "odpowiadał": 7065,
      "odległo": 7066,
      "ryn": 7067,
      "przywiąza": 7068,
      "rozsze": 7069,
      "bierz": 7070,
      "podkre": 7071,
      "dusze": 7072,
      "stosow": 7073,
      "mówiono": 7074,
      "styczne": 7075,
      "Tauro": 7076,
      "słabo": 7077,
      "twoich": 7078,
      "góż": 7079,
      "pewną": 7080,
      "świetle": 7081,
      "ciągnie": 7082,
      "Podbi": 7083,
      "czerwca": 7084,
      "Marusze": 7085,
      "dzianie": 7086,
      "komunika": 7087,
      "wspom": 7088,
      "something": 7089,
      "pracuje": 7090,
      "sekreta": 7091,
      "błąd": 7092,
      "window": 7093,
      "gabine": 7094,
      "IV": 7095,
      "Ję": 7096,
      "ape": 7097,
      "anio": 7098,
      "dwoje": 7099,
      "ei": 7100,
      "spło": 7101,
      "ught": 7102,
      "zma": 7103,
      "naokół": 7104,
      "roman": 7105,
      "gotowa": 7106,
      "wystąpi": 7107,
      "argu": 7108,
      "machu": 7109,
      "żyłem": 7110,
      "spoglądał": 7111,
      "bied": 7112,
      "znaczenie": 7113,
      "skaza": 7114,
      "najgor": 7115,
      "formy": 7116,
      "nionym": 7117,
      "słoni": 7118,
      "zmienić": 7119,
      "święta": 7120,
      "drzewo": 7121,
      "wrócili": 7122,
      "palce": 7123,
      "Mieszka": 7124,
      "kocham": 7125,
      "kulba": 7126,
      "członków": 7127,
      "zostawił": 7128,
      "Prezy": 7129,
      "chleba": 7130,
      "Myślę": 7131,
      "oświadczył": 7132,
      "niebezpieczeństwo": 7133,
      "THE": 7134,
      "ladies": 7135,
      "Mis": 7136,
      "ctor": 7137,
      "ging": 7138,
      "ious": 7139,
      "uma": 7140,
      "źród": 7141,
      "żąc": 7142,
      "dztwo": 7143,
      "lesie": 7144,
      "ciło": 7145,
      "ceny": 7146,
      "przepa": 7147,
      "przemy": 7148,
      "szele": 7149,
      "biała": 7150,
      "rozmów": 7151,
      "owicie": 7152,
      "sieci": 7153,
      "stolicy": 7154,
      "cur": 7155,
      "nioną": 7156,
      "wielbłą": 7157,
      "konfe": 7158,
      "Były": 7159,
      "działalność": 7160,
      "gniewem": 7161,
      "ciemno": 7162,
      "grunt": 7163,
      "portu": 7164,
      "Marszał": 7165,
      "certain": 7166,
      "glądali": 7167,
      "zgoła": 7168,
      "diabeł": 7169,
      "zabić": 7170,
      "spotkania": 7171,
      "powinno": 7172,
      "królewskiej": 7173,
      "Spoj": 7174,
      "szeregi": 7175,
      "Tadeusza": 7176,
      "poważnie": 7177,
      "nazywa": 7178,
      "okrzyki": 7179,
      "obiad": 7180,
      "pomóc": 7181,
      "DZ": 7182,
      "Dow": 7183,
      "dran": 7184,
      "eleg": 7185,
      "ken": 7186,
      "szała": 7187,
      "poczci": 7188,
      "kop": 7189,
      "wyobra": 7190,
      "jazda": 7191,
      "wolu": 7192,
      "dymu": 7193,
      "defi": 7194,
      "życiem": 7195,
      "gdym": 7196,
      "niosło": 7197,
      "step": 7198,
      "królem": 7199,
      "słyszę": 7200,
      "bronił": 7201,
      "chciało": 7202,
      "Wielko": 7203,
      "małą": 7204,
      "play": 7205,
      "pismo": 7206,
      "ogromny": 7207,
      "uczuł": 7208,
      "przygotowa": 7209,
      "chrześcijan": 7210,
      "wartość": 7211,
      "zamierza": 7212,
      "dodatku": 7213,
      "istnieje": 7214,
      "potrzebuje": 7215,
      "błyskawi": 7216,
      "Podbipię": 7217,
      "27": 7218,
      "Cały": 7219,
      "Kwa": 7220,
      "Min": 7221,
      "Ojcie": 7222,
      "Skar": 7223,
      "Wsze": 7224,
      "kowo": 7225,
      "psa": 7226,
      "snym": 7227,
      "pokazy": 7228,
      "rali": 7229,
      "rang": 7230,
      "rable": 7231,
      "test": 7232,
      "boki": 7233,
      "boży": 7234,
      "szeniu": 7235,
      "żynie": 7236,
      "Nieraz": 7237,
      "buła": 7238,
      "solu": 7239,
      "czonej": 7240,
      "paru": 7241,
      "premier": 7242,
      "lubię": 7243,
      "złoty": 7244,
      "przyjaź": 7245,
      "chcecie": 7246,
      "miałam": 7247,
      "klasztor": 7248,
      "obecnych": 7249,
      "służbę": 7250,
      "zajm": 7251,
      "Mówił": 7252,
      "słuszność": 7253,
      "Ojciec": 7254,
      "Bro": 7255,
      "Rę": 7256,
      "kłu": 7257,
      "opowiadać": 7258,
      "ssed": 7259,
      "usił": 7260,
      "zorganiz": 7261,
      "św": 7262,
      "pozostały": 7263,
      "niczy": 7264,
      "radi": 7265,
      "ramieniu": 7266,
      "linii": 7267,
      "zabój": 7268,
      "teo": 7269,
      "tori": 7270,
      "wypyty": 7271,
      "wodo": 7272,
      "patro": 7273,
      "siod": 7274,
      "kując": 7275,
      "boję": 7276,
      "pust": 7277,
      "czących": 7278,
      "czuć": 7279,
      "niosł": 7280,
      "owskich": 7281,
      "trwało": 7282,
      "walked": 7283,
      "krzesła": 7284,
      "autor": 7285,
      "stanowią": 7286,
      "płó": 7287,
      "wysoki": 7288,
      "spojrzenia": 7289,
      "ktual": 7290,
      "Bogusława": 7291,
      "Europy": 7292,
      "stanęła": 7293,
      "połowy": 7294,
      "tygodnie": 7295,
      "wystarczy": 7296,
      "charakter": 7297,
      "Krakowa": 7298,
      "Zgorzeli": 7299,
      "wiarę": 7300,
      "Ursus": 7301,
      "stranger": 7302,
      "wtóre": 7303,
      "Solidar": 7304,
      "Wro": 7305,
      "Zoba": 7306,
      "aj": 7307,
      "kwo": 7308,
      "wle": 7309,
      "pobi": 7310,
      "strów": 7311,
      "legi": 7312,
      "wyciąga": 7313,
      "archi": 7314,
      "armii": 7315,
      "paper": 7316,
      "cono": 7317,
      "cond": 7318,
      "staran": 7319,
      "pragnął": 7320,
      "case": 7321,
      "rozdzie": 7322,
      "roztrop": 7323,
      "Napole": 7324,
      "tenczas": 7325,
      "hau": 7326,
      "sławy": 7327,
      "śnieg": 7328,
      "droż": 7329,
      "wojsku": 7330,
      "długą": 7331,
      "księciem": 7332,
      "pokor": 7333,
      "samochód": 7334,
      "Podczas": 7335,
      "mieszkanie": 7336,
      "lepszy": 7337,
      "dziękuję": 7338,
      "larów": 7339,
      "zdumieniem": 7340,
      "decyzji": 7341,
      "Egipcie": 7342,
      "zginąć": 7343,
      "Zygmu": 7344,
      "Jesteś": 7345,
      "zwłoki": 7346,
      "Mentezufis": 7347,
      "24": 7348,
      "Zale": 7349,
      "each": 7350,
      "rocznie": 7351,
      "lekar": 7352,
      "wiło": 7353,
      "czyków": 7354,
      "odparła": 7355,
      "przesu": 7356,
      "panną": 7357,
      "lom": 7358,
      "kłę": 7359,
      "adi": 7360,
      "przedstawia": 7361,
      "czuję": 7362,
      "samemu": 7363,
      "Dość": 7364,
      "odpowiedzieć": 7365,
      "obawy": 7366,
      "nerw": 7367,
      "194": 7368,
      "Bogiem": 7369,
      "odez": 7370,
      "pamiętał": 7371,
      "słowach": 7372,
      "dobrych": 7373,
      "dobrej": 7374,
      "wszelkich": 7375,
      "komendan": 7376,
      "wpływ": 7377,
      "dwudziestu": 7378,
      "Póź": 7379,
      "Wąsowska": 7380,
      "next": 7381,
      "Benedy": 7382,
      "cowi": 7383,
      "plą": 7384,
      "tnik": 7385,
      "upraw": 7386,
      "left": 7387,
      "gorz": 7388,
      "wyrzu": 7389,
      "typu": 7390,
      "dziłem": 7391,
      "oddy": 7392,
      "ryba": 7393,
      "master": 7394,
      "mul": 7395,
      "rozstrzy": 7396,
      "głe": 7397,
      "niejsi": 7398,
      "czące": 7399,
      "cum": 7400,
      "ciąć": 7401,
      "myślała": 7402,
      "małej": 7403,
      "własny": 7404,
      "żołnierza": 7405,
      "polska": 7406,
      "Myśli": 7407,
      "dziwnie": 7408,
      "ratunku": 7409,
      "lonu": 7410,
      "Chociaż": 7411,
      "Dzień": 7412,
      "języka": 7413,
      "wydobył": 7414,
      "centrum": 7415,
      "zrozumieć": 7416,
      "AWS": 7417,
      "Idrys": 7418,
      "Fog": 7419,
      "Nale": 7420,
      "dres": 7421,
      "kwar": 7422,
      "lskiemu": 7423,
      "prow": 7424,
      "wanych": 7425,
      "zno": 7426,
      "złem": 7427,
      "nieszczęśli": 7428,
      "dzki": 7429,
      "liny": 7430,
      "wiała": 7431,
      "kind": 7432,
      "lasach": 7433,
      "przyjąć": 7434,
      "owani": 7435,
      "bać": 7436,
      "gada": 7437,
      "podję": 7438,
      "najpierw": 7439,
      "straży": 7440,
      "nur": 7441,
      "Chodź": 7442,
      "stance": 7443,
      "dire": 7444,
      "cjami": 7445,
      "home": 7446,
      "żebyś": 7447,
      "ustaw": 7448,
      "głosowania": 7449,
      "trybu": 7450,
      "pięknie": 7451,
      "Najświęt": 7452,
      "małym": 7453,
      "wzięli": 7454,
      "krajów": 7455,
      "podejrz": 7456,
      "Augu": 7457,
      "Kozacy": 7458,
      "eye": 7459,
      "Rzym": 7460,
      "potrzą": 7461,
      "słyszeli": 7462,
      "województwa": 7463,
      "tytuł": 7464,
      "załat": 7465,
      "XIX": 7466,
      "RZ": 7467,
      "Try": 7468,
      "Zat": 7469,
      "mode": 7470,
      "opat": 7471,
      "tchu": 7472,
      "wbrew": 7473,
      "zwró": 7474,
      "chow": 7475,
      "chła": 7476,
      "rator": 7477,
      "rosną": 7478,
      "jesie": 7479,
      "ance": 7480,
      "kapli": 7481,
      "tara": 7482,
      "czyny": 7483,
      "przytu": 7484,
      "przyszli": 7485,
      "cont": 7486,
      "dered": 7487,
      "gają": 7488,
      "duszą": 7489,
      "Poz": 7490,
      "ofer": 7491,
      "Jacek": 7492,
      "nume": 7493,
      "grać": 7494,
      "ziono": 7495,
      "Wit": 7496,
      "drudzy": 7497,
      "PiS": 7498,
      "gęsto": 7499,
      "rzędzie": 7500,
      "Panu": 7501,
      "węd": 7502,
      "fotelu": 7503,
      "wydawał": 7504,
      "bywają": 7505,
      "realiz": 7506,
      "gorącz": 7507,
      "nagrody": 7508,
      "glass": 7509,
      "zostawić": 7510,
      "spółki": 7511,
      "wstrę": 7512,
      "bogini": 7513,
      "Bogdańca": 7514,
      "EN": 7515,
      "Powia": 7516,
      "Tę": 7517,
      "agen": 7518,
      "lda": 7519,
      "tno": 7520,
      "twe": 7521,
      "zow": 7522,
      "nag": 7523,
      "pokazał": 7524,
      "rośnie": 7525,
      "zabiera": 7526,
      "tematy": 7527,
      "waha": 7528,
      "wyszli": 7529,
      "ink": 7530,
      "bią": 7531,
      "senato": 7532,
      "cular": 7533,
      "braku": 7534,
      "Toteż": 7535,
      "Lepiej": 7536,
      "złożyć": 7537,
      "mniejsze": 7538,
      "rodziców": 7539,
      "patrzyła": 7540,
      "szczyt": 7541,
      "zwycięstwa": 7542,
      "Słuchaj": 7543,
      "narodu": 7544,
      "cjonari": 7545,
      "occa": 7546,
      "jeźdźców": 7547,
      "indeed": 7548,
      "Aha": 7549,
      "KO": 7550,
      "PI": 7551,
      "Zbi": 7552,
      "jnych": 7553,
      "kne": 7554,
      "sfor": 7555,
      "ulu": 7556,
      "umiesz": 7557,
      "whis": 7558,
      "chowy": 7559,
      "czku": 7560,
      "ramach": 7561,
      "owszem": 7562,
      "rola": 7563,
      "rzeczą": 7564,
      "wione": 7565,
      "tana": 7566,
      "late": 7567,
      "bot": 7568,
      "lubił": 7569,
      "prawej": 7570,
      "szabli": 7571,
      "Nastała": 7572,
      "zują": 7573,
      "pierście": 7574,
      "płacz": 7575,
      "bronią": 7576,
      "Byłem": 7577,
      "walić": 7578,
      "świętego": 7579,
      "składa": 7580,
      "Anzel": 7581,
      "obowiąza": 7582,
      "bezpieczeństwa": 7583,
      "mieczem": 7584,
      "rzucili": 7585,
      "zawiera": 7586,
      "arcykapłan": 7587,
      "niespodzianie": 7588,
      "kapitał": 7589,
      "Helena": 7590,
      "Kościo": 7591,
      "codziennie": 7592,
      "Fogg": 7593,
      "Ah": 7594,
      "Nim": 7595,
      "dant": 7596,
      "knąć": 7597,
      "rki": 7598,
      "tter": 7599,
      "wkoło": 7600,
      "Ów": 7601,
      "zasła": 7602,
      "zamor": 7603,
      "miony": 7604,
      "ładnie": 7605,
      "wyczer": 7606,
      "wyrok": 7607,
      "dyplo": 7608,
      "kub": 7609,
      "szyli": 7610,
      "obró": 7611,
      "mywał": 7612,
      "rup": 7613,
      "atten": 7614,
      "sypi": 7615,
      "synem": 7616,
      "najprędzej": 7617,
      "guje": 7618,
      "czuła": 7619,
      "Mamy": 7620,
      "ges": 7621,
      "słońcu": 7622,
      "młode": 7623,
      "umrzeć": 7624,
      "zwyk": 7625,
      "gardło": 7626,
      "pręd": 7627,
      "ludzka": 7628,
      "ludzką": 7629,
      "okazy": 7630,
      "ślady": 7631,
      "words": 7632,
      "kancle": 7633,
      "południa": 7634,
      "dziewczynę": 7635,
      "programu": 7636,
      "Kozaków": 7637,
      "westch": 7638,
      "warunkach": 7639,
      "Bel": 7640,
      "Sko": 7641,
      "Uni": 7642,
      "Związ": 7643,
      "ere": 7644,
      "tli": 7645,
      "tór": 7646,
      "zwro": 7647,
      "niechaj": 7648,
      "nigdzie": 7649,
      "near": 7650,
      "arter": 7651,
      "odby": 7652,
      "przestra": 7653,
      "siód": 7654,
      "przywie": 7655,
      "boja": 7656,
      "czasami": 7657,
      "podwó": 7658,
      "seem": 7659,
      "czoła": 7660,
      "fakt": 7661,
      "Wiśni": 7662,
      "pewność": 7663,
      "krzyczeć": 7664,
      "złość": 7665,
      "Czym": 7666,
      "Być": 7667,
      "Libij": 7668,
      "mieszkańcy": 7669,
      "Muszę": 7670,
      "rozmawiał": 7671,
      "Gospo": 7672,
      "korzysta": 7673,
      "stanęli": 7674,
      "mądry": 7675,
      "ochotę": 7676,
      "Eury": 7677,
      "Choćby": 7678,
      "Telemach": 7679,
      "folwar": 7680,
      "jny": 7681,
      "onie": 7682,
      "opowie": 7683,
      "oszu": 7684,
      "sje": 7685,
      "sprzeci": 7686,
      "wkę": 7687,
      "posił": 7688,
      "goście": 7689,
      "zamyślił": 7690,
      "kość": 7691,
      "top": 7692,
      "toge": 7693,
      "real": 7694,
      "odszedł": 7695,
      "dyscypli": 7696,
      "pacje": 7697,
      "żyją": 7698,
      "ence": 7699,
      "niejszej": 7700,
      "burzy": 7701,
      "bęb": 7702,
      "brali": 7703,
      "trakta": 7704,
      "termi": 7705,
      "dencji": 7706,
      "Tere": 7707,
      "walce": 7708,
      "gnał": 7709,
      "lepszego": 7710,
      "stanowiska": 7711,
      "key": 7712,
      "Lub": 7713,
      "zwierza": 7714,
      "dłonią": 7715,
      "spał": 7716,
      "właściciel": 7717,
      "Kukli": 7718,
      "gromady": 7719,
      "rozpaczy": 7720,
      "informacje": 7721,
      "Korde": 7722,
      "dobrodziej": 7723,
      "obyczaj": 7724,
      "poczucie": 7725,
      "obywatel": 7726,
      "biskup": 7727,
      "umarł": 7728,
      "those": 7729,
      "Gerwazy": 7730,
      "rezulta": 7731,
      "powierzchni": 7732,
      "śmiać": 7733,
      "find": 7734,
      "io": 7735,
      "nował": 7736,
      "ring": 7737,
      "smy": 7738,
      "tności": 7739,
      "twem": 7740,
      "uzasa": 7741,
      "niezbyt": 7742,
      "niezależ": 7743,
      "pokło": 7744,
      "leep": 7745,
      "jemnie": 7746,
      "zastrze": 7747,
      "wydawało": 7748,
      "jadę": 7749,
      "oddali": 7750,
      "lay": 7751,
      "lacji": 7752,
      "past": 7753,
      "pacie": 7754,
      "żydow": 7755,
      "jutrze": 7756,
      "puste": 7757,
      "ciach": 7758,
      "stanąć": 7759,
      "śmiech": 7760,
      "Widziałem": 7761,
      "świade": 7762,
      "honor": 7763,
      "ląkł": 7764,
      "świeżo": 7765,
      "młoda": 7766,
      "karcz": 7767,
      "towards": 7768,
      "zostaje": 7769,
      "Podla": 7770,
      "wejść": 7771,
      "domem": 7772,
      "godna": 7773,
      "tance": 7774,
      "powiedziałem": 7775,
      "towarzystwie": 7776,
      "Żydzi": 7777,
      "handlu": 7778,
      "berg": 7779,
      "Anto": 7780,
      "Dziew": 7781,
      "Dzieci": 7782,
      "together": 7783,
      "26": 7784,
      "PZ": 7785,
      "Powi": 7786,
      "crow": 7787,
      "uspo": 7788,
      "usługi": 7789,
      "zon": 7790,
      "napisał": 7791,
      "gościa": 7792,
      "zabrać": 7793,
      "wyle": 7794,
      "wynik": 7795,
      "rusz": 7796,
      "boska": 7797,
      "sześciu": 7798,
      "cause": 7799,
      "rozpoczął": 7800,
      "spotyka": 7801,
      "sum": 7802,
      "mecha": 7803,
      "budził": 7804,
      "skając": 7805,
      "powietrza": 7806,
      "pytam": 7807,
      "siąść": 7808,
      "ogniu": 7809,
      "cudow": 7810,
      "trwał": 7811,
      "humo": 7812,
      "pracował": 7813,
      "trudności": 7814,
      "piasku": 7815,
      "patrzą": 7816,
      "roślin": 7817,
      "ochrony": 7818,
      "Anusia": 7819,
      "Chwilami": 7820,
      "21": 7821,
      "Ich": 7822,
      "RP": 7823,
      "Zdr": 7824,
      "hard": 7825,
      "ucał": 7826,
      "umysł": 7827,
      "zgra": 7828,
      "roczy": 7829,
      "rous": 7830,
      "tered": 7831,
      "wypraw": 7832,
      "wychodzi": 7833,
      "wynosi": 7834,
      "wyprawy": 7835,
      "nozd": 7836,
      "ciep": 7837,
      "pamią": 7838,
      "kun": 7839,
      "prace": 7840,
      "rozpoczę": 7841,
      "gając": 7842,
      "zewnątrz": 7843,
      "duchy": 7844,
      "gir": 7845,
      "szanie": 7846,
      "busi": 7847,
      "czonego": 7848,
      "żonego": 7849,
      "śmiejąc": 7850,
      "Konie": 7851,
      "Komu": 7852,
      "złoci": 7853,
      "szkoda": 7854,
      "darł": 7855,
      "Więk": 7856,
      "drżą": 7857,
      "szonym": 7858,
      "głębie": 7859,
      "selves": 7860,
      "polityki": 7861,
      "chłopca": 7862,
      "ślad": 7863,
      "największym": 7864,
      "miłościwy": 7865,
      "szwedzkie": 7866,
      "Europie": 7867,
      "niezmiernie": 7868,
      "próbował": 7869,
      "ozwały": 7870,
      "lipca": 7871,
      "szablą": 7872,
      "gałęzi": 7873,
      "))": 7874,
      "28": 7875,
      "OS": 7876,
      "RA": 7877,
      "Why": 7878,
      "ada": 7879,
      "bs": 7880,
      "lka": 7881,
      "pały": 7882,
      "usie": 7883,
      "ułat": 7884,
      "usług": 7885,
      "yhm": 7886,
      "niespokoj": 7887,
      "poj": 7888,
      "popeł": 7889,
      "strą": 7890,
      "racze": 7891,
      "racja": 7892,
      "zara": 7893,
      "koali": 7894,
      "karze": 7895,
      "tell": 7896,
      "wypada": 7897,
      "wiec": 7898,
      "latar": 7899,
      "kule": 7900,
      "przykry": 7901,
      "both": 7902,
      "dentów": 7903,
      "pież": 7904,
      "gania": 7905,
      "biegło": 7906,
      "podnosząc": 7907,
      "szaty": 7908,
      "głąb": 7909,
      "always": 7910,
      "chali": 7911,
      "ogląd": 7912,
      "impe": 7913,
      "numer": 7914,
      "forth": 7915,
      "wojskiem": 7916,
      "umowy": 7917,
      "Wokulskiemu": 7918,
      "znajdują": 7919,
      "czarow": 7920,
      "Marta": 7921,
      "conside": 7922,
      "ruszyła": 7923,
      "tryum": 7924,
      "ostatniego": 7925,
      "ziemią": 7926,
      "największą": 7927,
      "pilnu": 7928,
      "ratować": 7929,
      "okrzyk": 7930,
      "przestrzeni": 7931,
      "powtarzać": 7932,
      "energi": 7933,
      "związane": 7934,
      "oddech": 7935,
      "Mikołaj": 7936,
      "ekonomi": 7937,
      "premiera": 7938,
      "sudden": 7939,
      "Lin": 7940,
      "fię": 7941,
      "trem": 7942,
      "ując": 7943,
      "włą": 7944,
      "śpią": 7945,
      "niona": 7946,
      "rot": 7947,
      "liby": 7948,
      "likwi": 7949,
      "rzeka": 7950,
      "tech": 7951,
      "waniem": 7952,
      "wyba": 7953,
      "dziwa": 7954,
      "lając": 7955,
      "czeli": 7956,
      "pieczę": 7957,
      "wiając": 7958,
      "anything": 7959,
      "najpięk": 7960,
      "nicja": 7961,
      "służył": 7962,
      "skoczy": 7963,
      "till": 7964,
      "nięta": 7965,
      "rządek": 7966,
      "byłam": 7967,
      "kazały": 7968,
      "kroku": 7969,
      "międzynarod": 7970,
      "ważnie": 7971,
      "Rada": 7972,
      "ściąg": 7973,
      "pędził": 7974,
      "święto": 7975,
      "zgła": 7976,
      "polega": 7977,
      "przyjaciela": 7978,
      "czekając": 7979,
      "pisarz": 7980,
      "prowadziła": 7981,
      "dowiedzieć": 7982,
      "rzucać": 7983,
      "ORZ": 7984,
      "westchnął": 7985,
      "modlitwy": 7986,
      "Wszakże": 7987,
      "possible": 7988,
      "Twarz": 7989,
      "Stu": 7990,
      "Wnet": 7991,
      "Zd": 7992,
      "clu": 7993,
      "sję": 7994,
      "twej": 7995,
      "upa": 7996,
      "ukazy": 7997,
      "wnu": 7998,
      "owaną": 7999,
      "lecie": 8000,
      "zacznie": 8001,
      "remar": 8002,
      "wyjeżdża": 8003,
      "wieków": 8004,
      "czyźni": 8005,
      "dzieliśmy": 8006,
      "lana": 8007,
      "ryb": 8008,
      "moty": 8009,
      "mont": 8010,
      "masze": 8011,
      "objął": 8012,
      "przyniósł": 8013,
      "szeniem": 8014,
      "piła": 8015,
      "rozmyśla": 8016,
      "orszak": 8017,
      "Zapo": 8018,
      "Zakon": 8019,
      "władze": 8020,
      "zdjął": 8021,
      "idę": 8022,
      "nowski": 8023,
      "dina": 8024,
      "pełną": 8025,
      "Stawska": 8026,
      "złoto": 8027,
      "Szlach": 8028,
      "podobnie": 8029,
      "towała": 8030,
      "walkę": 8031,
      "całych": 8032,
      "black": 8033,
      "liczba": 8034,
      "budowy": 8035,
      "sierpnia": 8036,
      "uczuć": 8037,
      "Polacy": 8038,
      "stosunku": 8039,
      "CHAP": 8040,
      "zdrajca": 8041,
      "września": 8042,
      "Prus": 8043,
      "czambu": 8044,
      "Zbyszkowi": 8045,
      "Akte": 8046,
      "policjanci": 8047,
      "zakresie": 8048,
      "whether": 8049,
      "akurat": 8050,
      "tygodniu": 8051,
      "prowin": 8052,
      "CHAPTER": 8053,
      "Gór": 8054,
      "Pró": 8055,
      "Pół": 8056,
      "cko": 8057,
      "dri": 8058,
      "flo": 8059,
      "onej": 8060,
      "opad": 8061,
      "unik": 8062,
      "wsta": 8063,
      "pos": 8064,
      "poprzez": 8065,
      "pochwy": 8066,
      "pokazać": 8067,
      "niny": 8068,
      "liści": 8069,
      "ligen": 8070,
      "cir": 8071,
      "tyj": 8072,
      "dzikie": 8073,
      "odrę": 8074,
      "ryka": 8075,
      "przewa": 8076,
      "silnie": 8077,
      "indziej": 8078,
      "muję": 8079,
      "ruchy": 8080,
      "biur": 8081,
      "żywa": 8082,
      "gali": 8083,
      "szabel": 8084,
      "Jaro": 8085,
      "bracie": 8086,
      "bramą": 8087,
      "Wojcie": 8088,
      "myśląc": 8089,
      "Rodzi": 8090,
      "wolny": 8091,
      "majątku": 8092,
      "dziana": 8093,
      "szeptał": 8094,
      "ready": 8095,
      "piątek": 8096,
      "zwycięz": 8097,
      "wcześnie": 8098,
      "rzucając": 8099,
      "biorąc": 8100,
      "przekonać": 8101,
      "Gaze": 8102,
      "against": 8103,
      "powagą": 8104,
      "wspaniały": 8105,
      "scri": 8106,
      "konkuren": 8107,
      "stairs": 8108,
      "Izra": 8109,
      "XIII": 8110,
      "ffi": 8111,
      "hod": 8112,
      "open": 8113,
      "von": 8114,
      "wchodzi": 8115,
      "zgodzi": 8116,
      "niedługo": 8117,
      "owdzie": 8118,
      "anka": 8119,
      "przepisy": 8120,
      "pań": 8121,
      "szyła": 8122,
      "sation": 8123,
      "boli": 8124,
      "ween": 8125,
      "biorą": 8126,
      "znaki": 8127,
      "senator": 8128,
      "loud": 8129,
      "five": 8130,
      "bram": 8131,
      "bramę": 8132,
      "sławę": 8133,
      "Chrepti": 8134,
      "Wiado": 8135,
      "światem": 8136,
      "siadać": 8137,
      "Tyś": 8138,
      "Rozło": 8139,
      "person": 8140,
      "persona": 8141,
      "Sami": 8142,
      "grudnia": 8143,
      "ofia": 8144,
      "!”,": 8145,
      "Biał": 8146,
      "palcami": 8147,
      "trąb": 8148,
      "kazując": 8149,
      "możliwość": 8150,
      "zapach": 8151,
      "wyjazd": 8152,
      "wniosku": 8153,
      "księżyca": 8154,
      "Obaj": 8155,
      "bnie": 8156,
      "emi": 8157,
      "kcję": 8158,
      "vant": 8159,
      "wręcz": 8160,
      "niesły": 8161,
      "lewej": 8162,
      "jeant": 8163,
      "kapita": 8164,
      "bytu": 8165,
      "cele": 8166,
      "mono": 8167,
      "malu": 8168,
      "box": 8169,
      "piąc": 8170,
      "taken": 8171,
      "znasz": 8172,
      "siedzieli": 8173,
      "proponu": 8174,
      "Nareszcie": 8175,
      "kędy": 8176,
      "bliska": 8177,
      "Chcę": 8178,
      "granicę": 8179,
      "wiązy": 8180,
      "każdemu": 8181,
      "chęci": 8182,
      "Zagłobę": 8183,
      "walka": 8184,
      "gruby": 8185,
      "Not": 8186,
      "zwierz": 8187,
      "środki": 8188,
      "Biało": 8189,
      "Inter": 8190,
      "herba": 8191,
      "obronie": 8192,
      "funda": 8193,
      "znalazła": 8194,
      "piosen": 8195,
      "kwiatów": 8196,
      "street": 8197,
      "dodatk": 8198,
      "funkcjon": 8199,
      "chleb": 8200,
      "dzierża": 8201,
      "kontroli": 8202,
      "Kazimierza": 8203,
      "Słońce": 8204,
      "Rober": 8205,
      "Cała": 8206,
      "Sąd": 8207,
      "Wkrótce": 8208,
      "ast": 8209,
      "cried": 8210,
      "klo": 8211,
      "ls": 8212,
      "ochło": 8213,
      "ozdo": 8214,
      "vat": 8215,
      "zrę": 8216,
      "zbój": 8217,
      "śnią": 8218,
      "ślą": 8219,
      "poję": 8220,
      "podzię": 8221,
      "zapał": 8222,
      "dodała": 8223,
      "wypoczy": 8224,
      "jacy": 8225,
      "dziemy": 8226,
      "przywo": 8227,
      "przyznać": 8228,
      "rósł": 8229,
      "biego": 8230,
      "póty": 8231,
      "mięsa": 8232,
      "dzeni": 8233,
      "granic": 8234,
      "Stawskiej": 8235,
      "abyś": 8236,
      "policja": 8237,
      "ustami": 8238,
      "zgry": 8239,
      "Jużci": 8240,
      "skład": 8241,
      "milionów": 8242,
      "prowadzili": 8243,
      "opiekę": 8244,
      "Labi": 8245,
      "krzyknęła": 8246,
      "Radziwiłła": 8247,
      "frag": 8248,
      "okręt": 8249,
      "wstrzymał": 8250,
      "waszmościowie": 8251,
      "uważał": 8252,
      "Małgo": 8253,
      "całkowicie": 8254,
      "klasztoru": 8255,
      "Sakowicz": 8256,
      "Skoro": 8257,
      "Słowa": 8258,
      "cre": 8259,
      "eno": 8260,
      "found": 8261,
      "pkt": 8262,
      "psów": 8263,
      "twych": 8264,
      "vie": 8265,
      "niebu": 8266,
      "powy": 8267,
      "koty": 8268,
      "resu": 8269,
      "przesa": 8270,
      "przechy": 8271,
      "przemysł": 8272,
      "mogi": 8273,
      "des": 8274,
      "piwa": 8275,
      "życ": 8276,
      "żywy": 8277,
      "czanie": 8278,
      "zezna": 8279,
      "szable": 8280,
      "seen": 8281,
      "promi": 8282,
      "puszczy": 8283,
      "high": 8284,
      "głosie": 8285,
      "Jaka": 8286,
      "czole": 8287,
      "til": 8288,
      "waćpana": 8289,
      "Widzi": 8290,
      "krajach": 8291,
      "konsek": 8292,
      "młodzieży": 8293,
      "blady": 8294,
      "gdybyś": 8295,
      "spadł": 8296,
      "conver": 8297,
      "wróciwszy": 8298,
      "widzial": 8299,
      "Soroka": 8300,
      "renty": 8301,
      "mężów": 8302,
      "bella": 8303,
      "kultury": 8304,
      "Petroniusza": 8305,
      "ogrodu": 8306,
      "obycza": 8307,
      "Szuman": 8308,
      "dyskusji": 8309,
      "ostrożnie": 8310,
      "Szczegó": 8311,
      "budżet": 8312,
      "jętności": 8313,
      "umilkł": 8314,
      "zwracając": 8315,
      "telewizji": 8316,
      "popular": 8317,
      "Dodson": 8318,
      "29": 8319,
      "Boda": 8320,
      "Mracze": 8321,
      "Znam": 8322,
      "brea": 8323,
      "cta": 8324,
      "drę": 8325,
      "eded": 8326,
      "tty": 8327,
      "vy": 8328,
      "wce": 8329,
      "zją": 8330,
      "zwia": 8331,
      "żni": 8332,
      "nadej": 8333,
      "niesio": 8334,
      "chł": 8335,
      "rzecze": 8336,
      "winien": 8337,
      "torzy": 8338,
      "łaj": 8339,
      "rezer": 8340,
      "larz": 8341,
      "ryzy": 8342,
      "przeło": 8343,
      "przebra": 8344,
      "silne": 8345,
      "obrazy": 8346,
      "starzec": 8347,
      "delega": 8348,
      "tudzież": 8349,
      "bije": 8350,
      "rozsąd": 8351,
      "podda": 8352,
      "podsta": 8353,
      "siedziała": 8354,
      "stood": 8355,
      "synów": 8356,
      "ogrod": 8357,
      "vered": 8358,
      "trakcie": 8359,
      "wiązek": 8360,
      "itp": 8361,
      "hold": 8362,
      "ciągnęła": 8363,
      "młodzież": 8364,
      "kroki": 8365,
      "płynął": 8366,
      "ciemne": 8367,
      "pleas": 8368,
      "placów": 8369,
      "gotowe": 8370,
      "głęb": 8371,
      "Polskiej": 8372,
      "towarzysz": 8373,
      "Szwedom": 8374,
      "obowiązek": 8375,
      "monstra": 8376,
      "córkę": 8377,
      "budowę": 8378,
      "litew": 8379,
      "psycho": 8380,
      "uzyska": 8381,
      "wielkości": 8382,
      "smile": 8383,
      "appeared": 8384,
      "Telimena": 8385,
      "Memfi": 8386,
      "okien": 8387,
      "rejoined": 8388,
      "Hor": 8389,
      "Obie": 8390,
      "Ozy": 8391,
      "Obok": 8392,
      "ccy": 8393,
      "hr": 8394,
      "mno": 8395,
      "odz": 8396,
      "snę": 8397,
      "niewie": 8398,
      "cznika": 8399,
      "winem": 8400,
      "żeśmy": 8401,
      "repe": 8402,
      "jar": 8403,
      "nera": 8404,
      "ówdzie": 8405,
      "ars": 8406,
      "odczu": 8407,
      "dziesz": 8408,
      "ryby": 8409,
      "mocą": 8410,
      "mun": 8411,
      "przynosi": 8412,
      "saw": 8413,
      "basa": 8414,
      "jedź": 8415,
      "Jack": 8416,
      "bezpośred": 8417,
      "równy": 8418,
      "ngth": 8419,
      "fast": 8420,
      "fakty": 8421,
      "granicą": 8422,
      "With": 8423,
      "Rosji": 8424,
      "dźcie": 8425,
      "początek": 8426,
      "Wielu": 8427,
      "zdarza": 8428,
      "grupa": 8429,
      "sent": 8430,
      "Pew": 8431,
      "still": 8432,
      "powiadam": 8433,
      "aktyw": 8434,
      "przyjaciele": 8435,
      "dziwny": 8436,
      "wzięła": 8437,
      "kolejne": 8438,
      "szkół": 8439,
      "udziału": 8440,
      "cofnął": 8441,
      "Fenicjan": 8442,
      "prywaty": 8443,
      "Serjeant": 8444,
      "choroby": 8445,
      "oglądać": 8446,
      "bohater": 8447,
      "Wojewódz": 8448,
      "Podkomorzy": 8449,
      "okoliczności": 8450,
      "poniedziałek": 8451,
      "70": 8452,
      "??": 8453,
      "LI": 8454,
      "Nowa": 8455,
      "Strze": 8456,
      "ask": 8457,
      "hał": 8458,
      "krza": 8459,
      "mle": 8460,
      "ucho": 8461,
      "zrazu": 8462,
      "chó": 8463,
      "pozo": 8464,
      "potom": 8465,
      "cisz": 8466,
      "wyniku": 8467,
      "cenę": 8468,
      "ceremo": 8469,
      "rysu": 8470,
      "papiero": 8471,
      "cyr": 8472,
      "sać": 8473,
      "rozwoju": 8474,
      "podjazd": 8475,
      "Poza": 8476,
      "lotni": 8477,
      "stojąc": 8478,
      "skami": 8479,
      "władza": 8480,
      "parcie": 8481,
      "barwy": 8482,
      "barba": 8483,
      "mentem": 8484,
      "terro": 8485,
      "stępow": 8486,
      "Widział": 8487,
      "konty": 8488,
      "wąsi": 8489,
      "lskim": 8490,
      "trwała": 8491,
      "trwały": 8492,
      "mniejsza": 8493,
      "chcemy": 8494,
      "Samu": 8495,
      "darmo": 8496,
      "keep": 8497,
      "morder": 8498,
      "kilkudziesięciu": 8499,
      "ostatnio": 8500,
      "starym": 8501,
      "dalszych": 8502,
      "palcem": 8503,
      "służb": 8504,
      "publicznych": 8505,
      "word": 8506,
      "kolejny": 8507,
      "dostojny": 8508,
      "pozycji": 8509,
      "potrafił": 8510,
      "punktu": 8511,
      "znajomy": 8512,
      "połowę": 8513,
      "Rzymu": 8514,
      "jesteście": 8515,
      "napast": 8516,
      "budynku": 8517,
      "CKM": 8518,
      "Billewiczów": 8519,
      "Dal": 8520,
      "Uważa": 8521,
      "Ws": 8522,
      "nkach": 8523,
      "wri": 8524,
      "wpada": 8525,
      "złam": 8526,
      "zbieg": 8527,
      "naby": 8528,
      "pomiesz": 8529,
      "rzekę": 8530,
      "cichu": 8531,
      "anga": 8532,
      "mily": 8533,
      "kij": 8534,
      "wos": 8535,
      "armat": 8536,
      "czytel": 8537,
      "cieniu": 8538,
      "dygni": 8539,
      "pastu": 8540,
      "objęcia": 8541,
      "któr": 8542,
      "biją": 8543,
      "podwój": 8544,
      "give": 8545,
      "lonego": 8546,
      "powiedź": 8547,
      "fine": 8548,
      "skorzy": 8549,
      "bezrobo": 8550,
      "niemało": 8551,
      "Mazu": 8552,
      "Komi": 8553,
      "chłopiec": 8554,
      "foto": 8555,
      "stion": 8556,
      "szonych": 8557,
      "godności": 8558,
      "wiono": 8559,
      "środowiska": 8560,
      "whom": 8561,
      "ctly": 8562,
      "Żyd": 8563,
      "sędzia": 8564,
      "stopniu": 8565,
      "sytuacja": 8566,
      "gwiazda": 8567,
      "Pierwsze": 8568,
      "niebawem": 8569,
      "miłosierdzie": 8570,
      "between": 8571,
      "przykładem": 8572,
      "adwokat": 8573,
      "Żołnierze": 8574,
      "kasztelan": 8575,
      "Słyszałem": 8576,
      "Wiśniowie": 8577,
      "Ed": 8578,
      "Glau": 8579,
      "Lich": 8580,
      "eve": 8581,
      "ima": 8582,
      "oty": 8583,
      "ww": 8584,
      "ÓR": 8585,
      "nać": 8586,
      "cznością": 8587,
      "szcząc": 8588,
      "zao": 8589,
      "dozor": 8590,
      "tatu": 8591,
      "wypowiedzi": 8592,
      "dziewi": 8593,
      "magał": 8594,
      "kupił": 8595,
      "bogom": 8596,
      "nących": 8597,
      "biony": 8598,
      "rozło": 8599,
      "znany": 8600,
      "siero": 8601,
      "stokra": 8602,
      "hel": 8603,
      "tic": 8604,
      "Taka": 8605,
      "formie": 8606,
      "śmiechu": 8607,
      "krótki": 8608,
      "studen": 8609,
      "pewności": 8610,
      "młodo": 8611,
      "karku": 8612,
      "towany": 8613,
      "walczyć": 8614,
      "należ": 8615,
      "kobietę": 8616,
      "szczał": 8617,
      "śpiewać": 8618,
      "ludzki": 8619,
      "wskazał": 8620,
      "janczar": 8621,
      "ogrodzie": 8622,
      "wpływem": 8623,
      "rozpoczyna": 8624,
      "muzyka": 8625,
      "particular": 8626,
      "osiąg": 8627,
      "Jednocześnie": 8628,
      "front": 8629,
      "czapkę": 8630,
      "klejno": 8631,
      "Szkoda": 8632,
      "Samuel": 8633,
      "Azji": 8634,
      "Dok": 8635,
      "Lo": 8636,
      "Rok": 8637,
      "SI": 8638,
      "Wrze": 8639,
      "Znaj": 8640,
      "gl": 8641,
      "hry": 8642,
      "kowym": 8643,
      "mowę": 8644,
      "nnej": 8645,
      "opuszcza": 8646,
      "ostry": 8647,
      "ptaki": 8648,
      "wli": 8649,
      "pochodzi": 8650,
      "pochodzą": 8651,
      "ałę": 8652,
      "owców": 8653,
      "zadr": 8654,
      "komor": 8655,
      "teor": 8656,
      "wari": 8657,
      "wyobraź": 8658,
      "dzią": 8659,
      "czynienia": 8660,
      "dziego": 8661,
      "rych": 8662,
      "cielem": 8663,
      "paty": 8664,
      "mawiać": 8665,
      "inżynie": 8666,
      "obchodzi": 8667,
      "przyda": 8668,
      "satis": 8669,
      "bite": 8670,
      "bag": 8671,
      "gadał": 8672,
      "stojący": 8673,
      "bus": 8674,
      "Jedy": 8675,
      "sługa": 8676,
      "nięto": 8677,
      "until": 8678,
      "świeży": 8679,
      "większym": 8680,
      "respe": 8681,
      "193": 8682,
      "mieszkaniu": 8683,
      "comfor": 8684,
      "obiecy": 8685,
      "trzymając": 8686,
      "rodzice": 8687,
      "pamiętać": 8688,
      "światłem": 8689,
      "królowa": 8690,
      "Ktoś": 8691,
      "szlachtę": 8692,
      "diabła": 8693,
      "dzieckiem": 8694,
      "okazać": 8695,
      "wspomni": 8696,
      "mogłaby": 8697,
      "określa": 8698,
      "ludność": 8699,
      "Mógł": 8700,
      "spiri": 8701,
      "zajęcia": 8702,
      "stosunki": 8703,
      "ATA": 8704,
      "cjum": 8705,
      "niesiono": 8706,
      "Chciałbym": 8707,
      "Don": 8708,
      "Ly": 8709,
      "fre": 8710,
      "ghed": 8711,
      "kcja": 8712,
      "oszcze": 8713,
      "oporu": 8714,
      "wsza": 8715,
      "poci": 8716,
      "poszczegó": 8717,
      "lice": 8718,
      "gone": 8719,
      "zapis": 8720,
      "zaszło": 8721,
      "zajął": 8722,
      "dołu": 8723,
      "tabli": 8724,
      "wywie": 8725,
      "nosa": 8726,
      "nogę": 8727,
      "odtąd": 8728,
      "kuch": 8729,
      "mieści": 8730,
      "obóz": 8731,
      "tuła": 8732,
      "rozle": 8733,
      "ordina": 8734,
      "zeum": 8735,
      "znane": 8736,
      "atr": 8737,
      "Jeno": 8738,
      "słowy": 8739,
      "prawem": 8740,
      "lęk": 8741,
      "będziecie": 8742,
      "pewnych": 8743,
      "dnicy": 8744,
      "wards": 8745,
      "złotem": 8746,
      "dźwięk": 8747,
      "szum": 8748,
      "kark": 8749,
      "miastem": 8750,
      "jednostki": 8751,
      "company": 8752,
      "zębami": 8753,
      "królowej": 8754,
      "służbie": 8755,
      "szczególniej": 8756,
      "ssing": 8757,
      "ously": 8758,
      "przejść": 8759,
      "times": 8760,
      "Będę": 8761,
      "białym": 8762,
      "Sejmu": 8763,
      "skłonił": 8764,
      "ścianę": 8765,
      "Męż": 8766,
      "Człowiek": 8767,
      "Robak": 8768,
      "Później": 8769,
      ">>": 8770,
      "Grek": 8771,
      "Gdań": 8772,
      "She": 8773,
      "UN": 8774,
      "Uj": 8775,
      "dge": 8776,
      "fale": 8777,
      "tany": 8778,
      "uprzej": 8779,
      "stemu": 8780,
      "niało": 8781,
      "liczył": 8782,
      "widzą": 8783,
      "dokład": 8784,
      "kiwał": 8785,
      "topo": 8786,
      "odci": 8787,
      "mother": 8788,
      "moral": 8789,
      "sim": 8790,
      "conych": 8791,
      "weszła": 8792,
      "łuje": 8793,
      "ped": 8794,
      "puta": 8795,
      "tempe": 8796,
      "haps": 8797,
      "parku": 8798,
      "czupry": 8799,
      "marca": 8800,
      "dzali": 8801,
      "mieszkał": 8802,
      "dźmy": 8803,
      "Szczęście": 8804,
      "Byle": 8805,
      "tknął": 8806,
      "ścianie": 8807,
      "cyjna": 8808,
      "dziewczę": 8809,
      "zrobiła": 8810,
      "Lubi": 8811,
      "powoła": 8812,
      "Kiem": 8813,
      "spojrzenie": 8814,
      "bierać": 8815,
      "Reje": 8816,
      "największy": 8817,
      "staremu": 8818,
      "miesiąca": 8819,
      "Siła": 8820,
      "ulicę": 8821,
      "Cieka": 8822,
      "wydoby": 8823,
      "przyczyną": 8824,
      "sukce": 8825,
      "Czuł": 8826,
      "ataku": 8827,
      "----------------": 8828,
      "szablę": 8829,
      "Arabella": 8830,
      "Jeremi": 8831,
      "października": 8832,
      "atmosfe": 8833,
      "Fau": 8834,
      "Is": 8835,
      "Nor": 8836,
      "Proku": 8837,
      "TO": 8838,
      "osobą": 8839,
      "śnił": 8840,
      "nało": 8841,
      "szary": 8842,
      "postrze": 8843,
      "postanowie": 8844,
      "stwu": 8845,
      "ału": 8846,
      "licznych": 8847,
      "kolan": 8848,
      "doktor": 8849,
      "żeb": 8850,
      "wyła": 8851,
      "wydać": 8852,
      "jaśniej": 8853,
      "dziale": 8854,
      "odwrócił": 8855,
      "mania": 8856,
      "szyły": 8857,
      "inu": 8858,
      "rozpę": 8859,
      "stolet": 8860,
      "tamtych": 8861,
      "żarem": 8862,
      "termin": 8863,
      "Widzisz": 8864,
      "fea": 8865,
      "Maciej": 8866,
      "padnie": 8867,
      "Domi": 8868,
      "starał": 8869,
      "robisz": 8870,
      "mógłbym": 8871,
      "towano": 8872,
      "cking": 8873,
      "czarno": 8874,
      "Instytu": 8875,
      "towarzystwo": 8876,
      "dziwnego": 8877,
      "kazali": 8878,
      "gospodarki": 8879,
      "Zeus": 8880,
      "potężny": 8881,
      "tajemnicy": 8882,
      "przyjęcie": 8883,
      "Herho": 8884,
      "najlepsze": 8885,
      "kwadran": 8886,
      "Francji": 8887,
      "wyboru": 8888,
      "zwierzęta": 8889,
      "Świat": 8890,
      "żądał": 8891,
      "Aleksandra": 8892,
      "enough": 8893,
      "Ate": 8894,
      "DA": 8895,
      "Sma": 8896,
      "dną": 8897,
      "hrabia": 8898,
      "nnego": 8899,
      "oparł": 8900,
      "wstę": 8901,
      "chwała": 8902,
      "poran": 8903,
      "point": 8904,
      "tet": 8905,
      "tarzy": 8906,
      "bystro": 8907,
      "wai": 8908,
      "wat": 8909,
      "jaśnie": 8910,
      "ówki": 8911,
      "przekro": 8912,
      "silny": 8913,
      "przystoj": 8914,
      "przysłał": 8915,
      "stacji": 8916,
      "bol": 8917,
      "szeń": 8918,
      "pieli": 8919,
      "pielę": 8920,
      "cając": 8921,
      "spowo": 8922,
      "owisku": 8923,
      "losy": 8924,
      "synu": 8925,
      "Natura": 8926,
      "głośniej": 8927,
      "wałę": 8928,
      "gram": 8929,
      "nionej": 8930,
      "wróż": 8931,
      "niętą": 8932,
      "konstru": 8933,
      "policzki": 8934,
      "towali": 8935,
      "rozumu": 8936,
      "stąpiła": 8937,
      "stii": 8938,
      "żadnym": 8939,
      "potęgi": 8940,
      "Anna": 8941,
      "czynności": 8942,
      "starej": 8943,
      "uczucie": 8944,
      "kultu": 8945,
      "cesar": 8946,
      "gorąco": 8947,
      "Konstan": 8948,
      "zapłacić": 8949,
      "trwogi": 8950,
      "AND": 8951,
      "close": 8952,
      "ografi": 8953,
      "zniknął": 8954,
      "XVIII": 8955,
      "odwagi": 8956,
      "Paryża": 8957,
      "Maruszewicz": 8958,
      "Wrocła": 8959,
      "ordinary": 8960,
      "90": 8961,
      "Amen": 8962,
      "Bor": 8963,
      "GORZ": 8964,
      "RE": 8965,
      "Very": 8966,
      "epo": 8967,
      "okazał": 8968,
      "snem": 8969,
      "wpadła": 8970,
      "nakry": 8971,
      "naboże": 8972,
      "czko": 8973,
      "czało": 8974,
      "rając": 8975,
      "zastał": 8976,
      "resta": 8977,
      "wyści": 8978,
      "wykła": 8979,
      "odrzu": 8980,
      "mazowie": 8981,
      "mus": 8982,
      "rumieni": 8983,
      "tując": 8984,
      "pras": 8985,
      "sporo": 8986,
      "wiami": 8987,
      "pance": 8988,
      "siedząc": 8989,
      "szach": 8990,
      "głodu": 8991,
      "niusz": 8992,
      "tamten": 8993,
      "blio": 8994,
      "num": 8995,
      "dzoną": 8996,
      "ziom": 8997,
      "ground": 8998,
      "pewnej": 8999,
      "Komisja": 9000,
      "zdarzyło": 9001,
      "perspe": 9002,
      "Bara": 9003,
      "znajdował": 9004,
      "arystokra": 9005,
      "garść": 9006,
      "miłością": 9007,
      "Wokulskim": 9008,
      "czarnych": 9009,
      "gład": 9010,
      "zbroi": 9011,
      "otwarcie": 9012,
      "Właści": 9013,
      "Odysa": 9014,
      "wybuchnął": 9015,
      "tłumaczył": 9016,
      "regimenta": 9017,
      "leżała": 9018,
      "rozmaitych": 9019,
      "dragonów": 9020,
      "czterdzieści": 9021,
      "MAŁ": 9022,
      "angiel": 9023,
      "stanowczo": 9024,
      "Dalej": 9025,
      "pleasant": 9026,
      "NIE": 9027,
      "WA": 9028,
      "Zdaje": 9029,
      "aha": 9030,
      "epi": 9031,
      "gała": 9032,
      "kową": 9033,
      "nsów": 9034,
      "opu": 9035,
      "ury": 9036,
      "ubo": 9037,
      "uwzglę": 9038,
      "utrzymać": 9039,
      "Żad": 9040,
      "czniej": 9041,
      "stkę": 9042,
      "lech": 9043,
      "leniu": 9044,
      "jenia": 9045,
      "tary": 9046,
      "byście": 9047,
      "dziki": 9048,
      "nożem": 9049,
      "palą": 9050,
      "magna": 9051,
      "jąwszy": 9052,
      "obcych": 9053,
      "tutej": 9054,
      "pirami": 9055,
      "rozry": 9056,
      "bana": 9057,
      "gaz": 9058,
      "setki": 9059,
      "second": 9060,
      "Poto": 9061,
      "tenste": 9062,
      "padło": 9063,
      "oczywi": 9064,
      "peri": 9065,
      "pokoj": 9066,
      "kowane": 9067,
      "taking": 9068,
      "turning": 9069,
      "plany": 9070,
      "piękną": 9071,
      "sławny": 9072,
      "Bedu": 9073,
      "obecności": 9074,
      "zaczęło": 9075,
      "Cicho": 9076,
      "opieki": 9077,
      "pioru": 9078,
      "ginę": 9079,
      "wencji": 9080,
      "stopnia": 9081,
      "urzędu": 9082,
      "wojennych": 9083,
      "sprawiedliwość": 9084,
      "podobie": 9085,
      "żywności": 9086,
      "leżały": 9087,
      "fałszy": 9088,
      "rzeczywistości": 9089,
      "ostatecznie": 9090,
      "dotyczące": 9091,
      "Józef": 9092,
      "Rozumiem": 9093,
      "Kwaśnie": 9094,
      "TV": 9095,
      "Urzędu": 9096,
      "dowa": 9097,
      "fied": 9098,
      "kowego": 9099,
      "utru": 9100,
      "ubezpie": 9101,
      "zgi": 9102,
      "Ża": 9103,
      "naty": 9104,
      "następuje": 9105,
      "szmer": 9106,
      "niło": 9107,
      "nish": 9108,
      "liwość": 9109,
      "zacja": 9110,
      "zakład": 9111,
      "zawiado": 9112,
      "wish": 9113,
      "dodaje": 9114,
      "dolarów": 9115,
      "miary": 9116,
      "jać": 9117,
      "papier": 9118,
      "mierze": 9119,
      "stado": 9120,
      "piekie": 9121,
      "pieniu": 9122,
      "biło": 9123,
      "rozja": 9124,
      "znają": 9125,
      "znaczne": 9126,
      "butel": 9127,
      "dzonego": 9128,
      "zior": 9129,
      "fell": 9130,
      "reszta": 9131,
      "starczy": 9132,
      "płynęła": 9133,
      "zwykły": 9134,
      "...\"": 9135,
      "zrobiło": 9136,
      "puściła": 9137,
      "spada": 9138,
      "towarzystwa": 9139,
      "dalsze": 9140,
      "czekają": 9141,
      "kamieni": 9142,
      "zbrodni": 9143,
      "prawidł": 9144,
      "decyzję": 9145,
      "bogaty": 9146,
      "leciała": 9147,
      "ulicach": 9148,
      "Zych": 9149,
      "klucz": 9150,
      "Fara": 9151,
      "lekarz": 9152,
      "niebezpieczeństwa": 9153,
      "większości": 9154,
      "wojowników": 9155,
      "uczestni": 9156,
      "poprawki": 9157,
      "budżetu": 9158,
      "postępowania": 9159,
      "happy": 9160,
      "elegan": 9161,
      "Lichtenste": 9162,
      "35": 9163,
      "<<": 9164,
      "Bli": 9165,
      "Isto": 9166,
      "Zosta": 9167,
      "brą": 9168,
      "kowania": 9169,
      "sof": 9170,
      "ukra": 9171,
      "wna": 9172,
      "wrę": 9173,
      "zin": 9174,
      "zwal": 9175,
      "zwrócić": 9176,
      "łowy": 9177,
      "iel": 9178,
      "pokar": 9179,
      "nicza": 9180,
      "widz": 9181,
      "mig": 9182,
      "miną": 9183,
      "miany": 9184,
      "występu": 9185,
      "wolą": 9186,
      "przepisów": 9187,
      "emery": 9188,
      "gate": 9189,
      "szalał": 9190,
      "Jedni": 9191,
      "nicki": 9192,
      "skoczyć": 9193,
      "żając": 9194,
      "fala": 9195,
      "stępy": 9196,
      "waćpanu": 9197,
      "trosk": 9198,
      "dzając": 9199,
      "Roch": 9200,
      "Wiele": 9201,
      "brały": 9202,
      "podobną": 9203,
      "dnienia": 9204,
      "samorząd": 9205,
      "walk": 9206,
      "dwieście": 9207,
      "cyjnym": 9208,
      "sprawą": 9209,
      "tant": 9210,
      "szlachtą": 9211,
      "potęga": 9212,
      "ńcami": 9213,
      "straszna": 9214,
      "kamienie": 9215,
      "full": 9216,
      "minutes": 9217,
      "piorun": 9218,
      "kapłana": 9219,
      "cles": 9220,
      "łódź": 9221,
      "nagrodę": 9222,
      "Zosia": 9223,
      "ogarnął": 9224,
      "normal": 9225,
      "tłumaczy": 9226,
      "CHÓR": 9227,
      "zwróciwszy": 9228,
      "Serce": 9229,
      "spadnie": 9230,
      "wzgórza": 9231,
      "sprzedaży": 9232,
      "przewodniczący": 9233,
      "Klucznik": 9234,
      "Europejskiej": 9235,
      "wziąwszy": 9236,
      "listopada": 9237,
      "years": 9238,
      "Wszelako": 9239,
      "Kościoła": 9240,
      "Kordecki": 9241,
      "barbarzy": 9242,
      "MAŁGORZ": 9243,
      "Agen": 9244,
      "Dar": 9245,
      "Mały": 9246,
      "Rz": 9247,
      "Usłyszawszy": 9248,
      "asto": 9249,
      "cler": 9250,
      "dróg": 9251,
      "ncie": 9252,
      "oną": 9253,
      "opór": 9254,
      "snej": 9255,
      "spełni": 9256,
      "ćwili": 9257,
      "Świe": 9258,
      "niepodobna": 9259,
      "czno": 9260,
      "czkami": 9261,
      "pono": 9262,
      "pojęcia": 9263,
      "niły": 9264,
      "zacze": 9265,
      "wita": 9266,
      "doby": 9267,
      "żer": 9268,
      "dziwi": 9269,
      "odnale": 9270,
      "przeczu": 9271,
      "cienie": 9272,
      "rur": 9273,
      "wewnątrz": 9274,
      "tus": 9275,
      "piór": 9276,
      "piony": 9277,
      "badań": 9278,
      "organ": 9279,
      "wiatru": 9280,
      "stolnik": 9281,
      "pul": 9282,
      "częścią": 9283,
      "Zaćwili": 9284,
      "fikacji": 9285,
      "trawy": 9286,
      "pełna": 9287,
      "pretty": 9288,
      "dników": 9289,
      "assi": 9290,
      "owolnie": 9291,
      "ciemnej": 9292,
      "placu": 9293,
      "ekspe": 9294,
      "zamknął": 9295,
      "matkę": 9296,
      "ments": 9297,
      "czekaj": 9298,
      "ujrzawszy": 9299,
      "spotkaniu": 9300,
      "budować": 9301,
      "zajmuje": 9302,
      "pojadę": 9303,
      "Włady": 9304,
      "dojrzał": 9305,
      "wzrostu": 9306,
      "klubu": 9307,
      "uczyniła": 9308,
      "opinii": 9309,
      "braknie": 9310,
      "słyszała": 9311,
      "zakończył": 9312,
      "observed": 9313,
      "marszałka": 9314,
      "leave": 9315,
      "fortuna": 9316,
      "Trybu": 9317,
      "business": 9318,
      "bliote": 9319,
      "Bir": 9320,
      "Di": 9321,
      "gmin": 9322,
      "ili": 9323,
      "osobie": 9324,
      "snych": 9325,
      "spój": 9326,
      "spuszczo": 9327,
      "tały": 9328,
      "towe": 9329,
      "uko": 9330,
      "uwiel": 9331,
      "zro": 9332,
      "szona": 9333,
      "pocho": 9334,
      "posy": 9335,
      "pośle": 9336,
      "sten": 9337,
      "strzę": 9338,
      "niczych": 9339,
      "rają": 9340,
      "karę": 9341,
      "tona": 9342,
      "toczy": 9343,
      "read": 9344,
      "jadł": 9345,
      "tyś": 9346,
      "wozie": 9347,
      "cess": 9348,
      "kieszeni": 9349,
      "pale": 9350,
      "machi": 9351,
      "czegóż": 9352,
      "book": 9353,
      "łuk": 9354,
      "czając": 9355,
      "podwyż": 9356,
      "duję": 9357,
      "Zakła": 9358,
      "powierzch": 9359,
      "sądzi": 9360,
      "wrócę": 9361,
      "krzyczał": 9362,
      "Koniec": 9363,
      "strzelać": 9364,
      "trupów": 9365,
      "panion": 9366,
      "płynęły": 9367,
      "dziewka": 9368,
      "dziewki": 9369,
      "wejścia": 9370,
      "kłopot": 9371,
      "widokiem": 9372,
      "chemi": 9373,
      "Weź": 9374,
      "szość": 9375,
      "Krzysi": 9376,
      "potęgą": 9377,
      "zgodził": 9378,
      "uczniów": 9379,
      "miastach": 9380,
      "smutku": 9381,
      "wilgot": 9382,
      "wyjścia": 9383,
      "dziedzińcu": 9384,
      "pałac": 9385,
      "komendę": 9386,
      "zdziwiony": 9387,
      "kolanach": 9388,
      "szlachcica": 9389,
      "układy": 9390,
      "wierzch": 9391,
      "powrocie": 9392,
      "zatrzymali": 9393,
      "perspekty": 9394,
      "Achi": 9395,
      "FOR": 9396,
      "dowali": 9397,
      "klub": 9398,
      "oprze": 9399,
      "uprze": 9400,
      "xed": 9401,
      "niebio": 9402,
      "chor": 9403,
      "pomoże": 9404,
      "pokaże": 9405,
      "dzała": 9406,
      "litości": 9407,
      "rzeczach": 9408,
      "gody": 9409,
      "zapan": 9410,
      "zanu": 9411,
      "zapowiada": 9412,
      "zakrę": 9413,
      "zamian": 9414,
      "zadzwo": 9415,
      "zastos": 9416,
      "miodu": 9417,
      "waszym": 9418,
      "łagod": 9419,
      "wywia": 9420,
      "wyprost": 9421,
      "czyńskiego": 9422,
      "dyspo": 9423,
      "mama": 9424,
      "inted": 9425,
      "boski": 9426,
      "bada": 9427,
      "bienie": 9428,
      "dując": 9429,
      "jedne": 9430,
      "czącego": 9431,
      "żach": 9432,
      "słać": 9433,
      "tworzy": 9434,
      "nowocze": 9435,
      "ktorem": 9436,
      "gód": 9437,
      "Mazow": 9438,
      "dową": 9439,
      "mężem": 9440,
      "Staro": 9441,
      "gdzieniegdzie": 9442,
      "działać": 9443,
      "towane": 9444,
      "ciemność": 9445,
      "plecy": 9446,
      "zdobyć": 9447,
      "takimi": 9448,
      "rodzina": 9449,
      "stanowił": 9450,
      "lekce": 9451,
      "lekcji": 9452,
      "zachować": 9453,
      "grzesz": 9454,
      "rozmowie": 9455,
      "małych": 9456,
      "szczęśliwie": 9457,
      "skończyć": 9458,
      "yourself": 9459,
      "komendy": 9460,
      "themselves": 9461,
      "szklan": 9462,
      "Chciałem": 9463,
      "laugh": 9464,
      "długiej": 9465,
      "straszliwy": 9466,
      "rodzaj": 9467,
      "energii": 9468,
      "nowiny": 9469,
      "rozmawiali": 9470,
      "kapitan": 9471,
      "łóżka": 9472,
      "reply": 9473,
      "Kościół": 9474,
      "Pięk": 9475,
      "trzeciego": 9476,
      "Kiejdan": 9477,
      "Miss": 9478,
      "continu": 9479,
      "MAŁGORZATA": 9480,
      ".),": 9481,
      "Klej": 9482,
      "Tobie": 9483,
      "emoc": 9484,
      "grzecz": 9485,
      "tność": 9486,
      "ukoń": 9487,
      "zmo": 9488,
      "zwięk": 9489,
      "zbudow": 9490,
      "rachu": 9491,
      "zarę": 9492,
      "zapal": 9493,
      "zaklę": 9494,
      "wile": 9495,
      "kare": 9496,
      "ławy": 9497,
      "returned": 9498,
      "wysił": 9499,
      "wysunął": 9500,
      "wieży": 9501,
      "armaty": 9502,
      "dzieła": 9503,
      "przecię": 9504,
      "morzu": 9505,
      "salo": 9506,
      "dep": 9507,
      "call": 9508,
      "znamieni": 9509,
      "głą": 9510,
      "systemu": 9511,
      "Nazajutrz": 9512,
      "jedwa": 9513,
      "powieki": 9514,
      "oknem": 9515,
      "rzać": 9516,
      "dzonej": 9517,
      "żoł": 9518,
      "servant": 9519,
      "kondy": 9520,
      "konferen": 9521,
      "końmi": 9522,
      "onem": 9523,
      "grube": 9524,
      "oboz": 9525,
      "obecność": 9526,
      "bitwę": 9527,
      "szwedzki": 9528,
      "kniaź": 9529,
      "Piotra": 9530,
      "widno": 9531,
      "clock": 9532,
      "sportu": 9533,
      "drobne": 9534,
      "przedsięwzię": 9535,
      "wesele": 9536,
      "łóżku": 9537,
      "protest": 9538,
      "Patrzcie": 9539,
      "Chcesz": 9540,
      "Centrum": 9541,
      "sąsiadów": 9542,
      "Widocznie": 9543,
      "dowcip": 9544,
      "evening": 9545,
      "300": 9546,
      "Cer": 9547,
      "Kan": 9548,
      "Oby": 9549,
      "Prę": 9550,
      "Rzu": 9551,
      "dżu": 9552,
      "edu": 9553,
      "iły": 9554,
      "imienia": 9555,
      "knew": 9556,
      "onym": 9557,
      "opis": 9558,
      "spła": 9559,
      "umożli": 9560,
      "usłyszawszy": 9561,
      "zbó": 9562,
      "łowo": 9563,
      "ient": 9564,
      "szliśmy": 9565,
      "dztwa": 9566,
      "lica": 9567,
      "litość": 9568,
      "zatrzymać": 9569,
      "zabrz": 9570,
      "tania": 9571,
      "wynala": 9572,
      "woman": 9573,
      "czymy": 9574,
      "odem": 9575,
[...]
