{
  "version": "1.0",
  "truncation": null,
  "padding": null,
  "added_tokens": [
    {
      "id": 0,
      "content": "[UNK]",
      "single_word": false,
      "lstrip": false,
      "rstrip": false,
      "normalized": false,
      "special": true
    },
    {
      "id": 1,
      "content": "[CLS]",
      "single_word": false,
      "lstrip": false,
      "rstrip": false,
      "normalized": false,
      "special": true
    },
    {
      "id": 2,
      "content": "[SEP]",
      "single_word": false,
      "lstrip": false,
      "rstrip": false,
      "normalized": false,
      "special": true
    },
    {
      "id": 3,
      "content": "[PAD]",
      "single_word": false,
      "lstrip": false,
      "rstrip": false,
      "normalized": false,
      "special": true
    },
    {
      "id": 4,
      "content": "[MASK]",
      "single_word": false,
      "lstrip": false,
      "rstrip": false,
      "normalized": false,
      "special": true
    }
  ],
  "normalizer": null,
  "pre_tokenizer": {
    "type": "Whitespace"
  },
  "post_processor": null,
  "decoder": null,
  "model": {
    "type": "BPE",
    "dropout": null,
    "unk_token": "[UNK]",
    "continuing_subword_prefix": null,
    "end_of_word_suffix": null,
    "fuse_unk": false,
    "byte_fallback": false,
    "ignore_merges": false,
    "vocab": {
      "[UNK]": 0,
      "[CLS]": 1,
      "[SEP]": 2,
      "[PAD]": 3,
      "[MASK]": 4,
      "!": 5,
      "&": 6,
      "(": 7,
      ")": 8,
      "*": 9,
      ",": 10,
      "-": 11,
      ".": 12,
      "0": 13,
      "1": 14,
      "2": 15,
      "3": 16,
      "4": 17,
      "5": 18,
      "6": 19,
      "7": 20,
      "8": 21,
      "9": 22,
      ":": 23,
      ";": 24,
      "?": 25,
      "A": 26,
      "B": 27,
      "C": 28,
      "D": 29,
      "E": 30,
      "F": 31,
      "G": 32,
      "H": 33,
      "I": 34,
      "J": 35,
      "K": 36,
      "L": 37,
      "M": 38,
      "N": 39,
      "O": 40,
      "P": 41,
      "Q": 42,
      "R": 43,
      "S": 44,
      "T": 45,
      "U": 46,
      "V": 47,
      "W": 48,
      "X": 49,
      "Y": 50,
      "Z": 51,
      "[": 52,
      "]": 53,
      "_": 54,
      "a": 55,
      "b": 56,
      "c": 57,
      "d": 58,
      "e": 59,
      "f": 60,
      "g": 61,
      "h": 62,
      "i": 63,
      "j": 64,
      "k": 65,
      "l": 66,
      "m": 67,
      "n": 68,
      "o": 69,
      "p": 70,
      "q": 71,
      "r": 72,
      "s": 73,
      "t": 74,
      "u": 75,
      "v": 76,
      "w": 77,
      "x": 78,
      "y": 79,
      "z": 80,
      "£": 81,
      "‘": 82,
      "’": 83,
      "“": 84,
      "”": 85,
      "th": 86,
      "in": 87,
      "er": 88,
      "an": 89,
      "the": 90,
      "ed": 91,
      "ou": 92,
      "on": 93,
      "en": 94,
      "at": 95,
      "re": 96,
      "is": 97,
      "and": 98,
      "to": 99,
      "as": 100,
      "ing": 101,
      "ic": 102,
      "le": 103,
      "of": 104,
      "ar": 105,
      "ll": 106,
      "or": 107,
      "he": 108,
      "it": 109,
      "st": 110,
      "Mr": 111,
      "id": 112,
      "ha": 113,
      "se": 114,
      "ick": 115,
      "om": 116,
      "wh": 117,
      "sa": 118,
      "ir": 119,
      "be": 120,
      "his": 121,
      "ow": 122,
      "ent": 123,
      "es": 124,
      "ly": 125,
      "wi": 126,
      "im": 127,
      "you": 128,
      ",’": 129,
      "ac": 130,
      "ion": 131,
      "ver": 132,
      "am": 133,
      "was": 134,
      "ld": 135,
      "said": 136,
      "ere": 137,
      "with": 138,
      "ve": 139,
      "ad": 140,
      "gh": 141,
      "no": 142,
      "that": 143,
      "al": 144,
      "man": 145,
      "li": 146,
      "for": 147,
      "ter": 148,
      "--": 149,
      "ce": 150,
      "up": 151,
      "un": 152,
      "ell": 153,
      "wick": 154,
      "ro": 155,
      "ri": 156,
      "Pick": 157,
      "Pickwick": 158,
      "all": 159,
      "ch": 160,
      "ut": 161,
      ".’": 162,
      "oo": 163,
      "de": 164,
      "ght": 165,
      "ay": 166,
      "ur": 167,
      "had": 168,
      "ther": 169,
      "ab": 170,
      "him": 171,
      "me": 172,
      "pe": 173,
      "po": 174,
      "ag": 175,
      "con": 176,
      "ich": 177,
      "ke": 178,
      "sh": 179,
      "ard": 180,
      "out": 181,
      "ain": 182,
      "qu": 183,
      "my": 184,
      "su": 185,
      "Sam": 186,
      "which": 187,
      "?’": 188,
      "ould": 189,
      "com": 190,
      "fe": 191,
      "ex": 192,
      "our": 193,
      "mo": 194,
      "very": 195,
      "oun": 196,
      "one": 197,
      "ct": 198,
      "ap": 199,
      "by": 200,
      "so": 201,
      "this": 202,
      "do": 203,
      "rep": 204,
      "not": 205,
      "ne": 206,
      "res": 207,
      "bo": 208,
      "et": 209,
      "ink": 210,
      "The": 211,
      "end": 212,
      "ant": 213,
      "ation": 214,
      "have": 215,
      "old": 216,
      "fr": 217,
      "Well": 218,
      "if": 219,
      "art": 220,
      "per": 221,
      "ind": 222,
      "lf": 223,
      "ul": 224,
      "co": 225,
      "who": 226,
      "lo": 227,
      "gent": 228,
      "ous": 229,
      "ate": 230,
      "ook": 231,
      "lied": 232,
      "own": 233,
      "ob": 234,
      "but": 235,
      "gentle": 236,
      "ra": 237,
      "pl": 238,
      "replied": 239,
      "us": 240,
      "they": 241,
      "her": 242,
      "ome": 243,
      "were": 244,
      "Weller": 245,
      "from": 246,
      "il": 247,
      "ast": 248,
      "ge": 249,
      "are": 250,
      "um": 251,
      "!’": 252,
      "ess": 253,
      "Sir": 254,
      "ound": 255,
      "ust": 256,
      "ot": 257,
      "we": 258,
      "look": 259,
      "gr": 260,
      "now": 261,
      "able": 262,
      "itt": 263,
      "pro": 264,
      "dis": 265,
      "here": 266,
      "self": 267,
      "af": 268,
      "aw": 269,
      "ass": 270,
      "thing": 271,
      "em": 272,
      "ight": 273,
      "been": 274,
      "ers": 275,
      "el": 276,
      "into": 277,
      "ak": 278,
      "other": 279,
      "your": 280,
      "gre": 281,
      "some": 282,
      "op": 283,
      "any": 284,
      "ong": 285,
      "when": 286,
      "ance": 287,
      "hat": 288,
      "gentleman": 289,
      "pr": 290,
      "there": 291,
      "fo": 292,
      "bl": 293,
      "ive": 294,
      "ord": 295,
      "ck": 296,
      "He": 297,
      "tim": 298,
      "ss": 299,
      "ace": 300,
      "say": 301,
      "ill": 302,
      "tr": 303,
      "ood": 304,
      "hand": 305,
      "too": 306,
      "cl": 307,
      "ittle": 308,
      "lad": 309,
      "little": 310,
      "sir": 311,
      "ence": 312,
      "ep": 313,
      "str": 314,
      "ig": 315,
      "upon": 316,
      "ack": 317,
      "ort": 318,
      "would": 319,
      "inkle": 320,
      "au": 321,
      "ough": 322,
      "ity": 323,
      "ach": 324,
      "Winkle": 325,
      "ish": 326,
      "them": 327,
      "ving": 328,
      "fri": 329,
      "their": 330,
      "urn": 331,
      "sid": 332,
      "ated": 333,
      "ress": 334,
      "wo": 335,
      "she": 336,
      "ery": 337,
      "ist": 338,
      "ment": 339,
      "int": 340,
      "ble": 341,
      "ma": 342,
      "men": 343,
      "himself": 344,
      "air": 345,
      "est": 346,
      "ice": 347,
      "friend": 348,
      "down": 349,
      "more": 350,
      "great": 351,
      "know": 352,
      "ret": 353,
      "time": 354,
      "ple": 355,
      "head": 356,
      "ious": 357,
      "der": 358,
      "Mrs": 359,
      "ear": 360,
      "ally": 361,
      "off": 362,
      "than": 363,
      "what": 364,
      "ved": 365,
      "tor": 366,
      "fore": 367,
      "son": 368,
      "part": 369,
      "ven": 370,
      "It": 371,
      "could": 372,
      "will": 373,
      "sm": 374,
      "go": 375,
      "ins": 376,
      "good": 377,
      "ired": 378,
      "You": 379,
      "ey": 380,
      "way": 381,
      "then": 382,
      "orn": 383,
      "after": 384,
      "sp": 385,
      "ame": 386,
      "sc": 387,
      "ever": 388,
      "ire": 389,
      "pos": 390,
      "again": 391,
      "ite": 392,
      "room": 393,
      "ie": 394,
      "br": 395,
      "pt": 396,
      "act": 397,
      "most": 398,
      "clo": 399,
      "ser": 400,
      "ary": 401,
      "ful": 402,
      "gl": 403,
      "ies": 404,
      "ure": 405,
      "ile": 406,
      "over": 407,
      "about": 408,
      "cha": 409,
      "ine": 410,
      "sha": 411,
      "lady": 412,
      "light": 413,
      "pp": 414,
      "ten": 415,
      "spe": 416,
      "ered": 417,
      "ought": 418,
      "ker": 419,
      "see": 420,
      "inqu": 421,
      "boy": 422,
      "can": 423,
      "med": 424,
      "door": 425,
      "ward": 426,
      "should": 427,
      "coun": 428,
      "fir": 429,
      "uch": 430,
      "dy": 431,
      "tter": 432,
      "don": 433,
      "ho": 434,
      "before": 435,
      "ang": 436,
      "ry": 437,
      "ull": 438,
      "An": 439,
      "youn": 440,
      "two": 441,
      "tain": 442,
      "rem": 443,
      "young": 444,
      "did": 445,
      "much": 446,
      "ted": 447,
      "ily": 448,
      "appe": 449,
      "long": 450,
      "think": 451,
      "ty": 452,
      "day": 453,
      "des": 454,
      "je": 455,
      "ness": 456,
      "dear": 457,
      "led": 458,
      "alk": 459,
      "red": 460,
      "ouse": 461,
      "like": 462,
      ",”": 463,
      "arm": 464,
      "mad": 465,
      "vo": 466,
      "ree": 467,
      "how": 468,
      "thr": 469,
      "ise": 470,
      "come": 471,
      "Tup": 472,
      "No": 473,
      "ction": 474,
      "bed": 475,
      "inquired": 476,
      "Tupman": 477,
      "pre": 478,
      "appear": 479,
      "fa": 480,
      "side": 481,
      "sto": 482,
      "ext": 483,
      "ake": 484,
      "turn": 485,
      "read": 486,
      "age": 487,
      "What": 488,
      "house": 489,
      "right": 490,
      "ced": 491,
      "its": 492,
      "body": 493,
      "att": 494,
      "round": 495,
      "cas": 496,
      "looked": 497,
      "ried": 498,
      "never": 499,
      "oc": 500,
      "well": 501,
      "nod": 502,
      "these": 503,
      "comp": 504,
      "back": 505,
      "ings": 506,
      "press": 507,
      "has": 508,
      "ner": 509,
      "And": 510,
      "ber": 511,
      "every": 512,
      "ud": 513,
      "fell": 514,
      "mat": 515,
      "wor": 516,
      "night": 517,
      "add": 518,
      "cont": 519,
      "eyes": 520,
      "ci": 521,
      "away": 522,
      "just": 523,
      "less": 524,
      "cour": 525,
      "gg": 526,
      "te": 527,
      "first": 528,
      "such": 529,
      "che": 530,
      "There": 531,
      "awy": 532,
      "ting": 533,
      "jo": 534,
      "comm": 535,
      "face": 536,
      "ves": 537,
      "only": 538,
      "put": 539,
      "being": 540,
      "made": 541,
      "half": 542,
      "having": 543,
      "Bob": 544,
      "get": 545,
      "ER": 546,
      "awyer": 547,
      "ath": 548,
      "min": 549,
      "ark": 550,
      "ans": 551,
      "Ward": 552,
      "wa": 553,
      "Wardle": 554,
      "ru": 555,
      "ign": 556,
      "gentlemen": 557,
      "ff": 558,
      "looking": 559,
      "Wh": 560,
      "where": 561,
      "got": 562,
      "must": 563,
      "once": 564,
      "last": 565,
      "‘“": 566,
      "Sawyer": 567,
      "ible": 568,
      "vi": 569,
      "pleas": 570,
      "cle": 571,
      "word": 572,
      "ue": 573,
      "ts": 574,
      "ps": 575,
      "Per": 576,
      "wery": 577,
      "under": 578,
      "might": 579,
      "walk": 580,
      "tak": 581,
      "thought": 582,
      "took": 583,
      "another": 584,
      "ened": 585,
      "ave": 586,
      "All": 587,
      "mind": 588,
      "eng": 589,
      "grass": 590,
      "may": 591,
      "par": 592,
      "without": 593,
      "cr": 594,
      "low": 595,
      "iss": 596,
      "shall": 597,
      "sup": 598,
      "mer": 599,
      "ied": 600,
      "sat": 601,
      "table": 602,
      "wat": 603,
      "inter": 604,
      "ertain": 605,
      "wards": 606,
      "pres": 607,
      "went": 608,
      "place": 609,
      "full": 610,
      "les": 611,
      "od": 612,
      "In": 613,
      "Snod": 614,
      "dr": 615,
      "Snodgrass": 616,
      "Oh": 617,
      "three": 618,
      "unt": 619,
      "cted": 620,
      "bre": 621,
      "igh": 622,
      "take": 623,
      "ses": 624,
      "morn": 625,
      "port": 626,
      "ingle": 627,
      "ition": 628,
      "ef": 629,
      "vent": 630,
      "chair": 631,
      "ined": 632,
      "heart": 633,
      "beg": 634,
      "feel": 635,
      "even": 636,
      "many": 637,
      "augh": 638,
      "Perker": 639,
      "IN": 640,
      "gen": 641,
      "won": 642,
      "let": 643,
      "ently": 644,
      "coat": 645,
      "den": 646,
      "inst": 647,
      "rather": 648,
      "St": 649,
      "call": 650,
      "du": 651,
      "same": 652,
      "car": 653,
      "fl": 654,
      "ceed": 655,
      "und": 656,
      "ations": 657,
      "Tom": 658,
      "friends": 659,
      "TH": 660,
      "mon": 661,
      "pass": 662,
      "obser": 663,
      "tt": 664,
      "anc": 665,
      "pose": 666,
      "ular": 667,
      "coach": 668,
      "ip": 669,
      "wind": 670,
      "new": 671,
      "through": 672,
      "matter": 673,
      "morning": 674,
      "reet": 675,
      "ide": 676,
      "ions": 677,
      "lar": 678,
      "stand": 679,
      "happ": 680,
      "llow": 681,
      "hear": 682,
      "oment": 683,
      "moment": 684,
      "AN": 685,
      "arr": 686,
      "This": 687,
      "fat": 688,
      "aster": 689,
      "better": 690,
      "nothing": 691,
      "posed": 692,
      "But": 693,
      "av": 694,
      "done": 695,
      "ket": 696,
      "cess": 697,
      "came": 698,
      "fer": 699,
      "ped": 700,
      "step": 701,
      "ears": 702,
      "Yes": 703,
      "hor": 704,
      "Here": 705,
      "leg": 706,
      "Sammy": 707,
      "person": 708,
      "bell": 709,
      "ott": 710,
      "sur": 711,
      "says": 712,
      "ene": 713,
      "ject": 714,
      "father": 715,
      "king": 716,
      "whe": 717,
      "want": 718,
      "fect": 719,
      "Pott": 720,
      "ix": 721,
      "point": 722,
      "express": 723,
      "used": 724,
      "aim": 725,
      "ange": 726,
      "quite": 727,
      "course": 728,
      "Bard": 729,
      "sed": 730,
      "Bardell": 731,
      "Ben": 732,
      "beh": 733,
      "whole": 734,
      "CH": 735,
      "manner": 736,
      "mean": 737,
      "ged": 738,
      "oud": 739,
      "short": 740,
      "hands": 741,
      "pa": 742,
      "quest": 743,
      "fellow": 744,
      ".”": 745,
      "Now": 746,
      "nat": 747,
      "ited": 748,
      "claim": 749,
      "hour": 750,
      "name": 751,
      "iness": 752,
      "few": 753,
      "make": 754,
      "Th": 755,
      "form": 756,
      "follow": 757,
      "ens": 758,
      "ause": 759,
      "ished": 760,
      "anger": 761,
      "Allen": 762,
      "lt": 763,
      "wr": 764,
      "life": 765,
      "sel": 766,
      "col": 767,
      "proceed": 768,
      "We": 769,
      "inde": 770,
      "poc": 771,
      "consid": 772,
      "rew": 773,
      "As": 774,
      "cap": 775,
      "iet": 776,
      "laugh": 777,
      "iled": 778,
      "return": 779,
      "TER": 780,
      "poss": 781,
      "going": 782,
      "counten": 783,
      "How": 784,
      "ft": 785,
      "kins": 786,
      "That": 787,
      "ately": 788,
      "dist": 789,
      "care": 790,
      "though": 791,
      "Jingle": 792,
      "fort": 793,
      "claimed": 794,
      "ched": 795,
      "ople": 796,
      "stair": 797,
      "My": 798,
      "gu": 799,
      "ol": 800,
      "ank": 801,
      "ating": 802,
      "voice": 803,
      "az": 804,
      "heard": 805,
      "exclaimed": 806,
      "raw": 807,
      "appeared": 808,
      "countenance": 809,
      "cur": 810,
      "small": 811,
      "ith": 812,
      "ither": 813,
      "uz": 814,
      "whis": 815,
      "sub": 816,
      "They": 817,
      "behind": 818,
      "char": 819,
      "people": 820,
      "sure": 821,
      "ush": 822,
      "plac": 823,
      "ded": 824,
      "ler": 825,
      "wait": 826,
      "mar": 827,
      "If": 828,
      "thin": 829,
      "arter": 830,
      "aint": 831,
      "fact": 832,
      "reg": 833,
      "lie": 834,
      "four": 835,
      "fire": 836,
      "ose": 837,
      "vant": 838,
      "ared": 839,
      "pped": 840,
      "large": 841,
      "Job": 842,
      "--‘": 843,
      "ney": 844,
      "bro": 845,
      "certain": 846,
      "sil": 847,
      "while": 848,
      "uncle": 849,
      "present": 850,
      "uck": 851,
      "rel": 852,
      "state": 853,
      "rave": 854,
      "aking": 855,
      "turned": 856,
      "At": 857,
      "water": 858,
      "bus": 859,
      "open": 860,
      "window": 861,
      "found": 862,
      "vid": 863,
      "wom": 864,
      "something": 865,
      "ladies": 866,
      "ways": 867,
      "THE": 868,
      "tell": 869,
      "vis": 870,
      "Fo": 871,
      "cu": 872,
      "spo": 873,
      "ub": 874,
      "set": 875,
      "sit": 876,
      "ash": 877,
      "aid": 878,
      "twe": 879,
      "leep": 880,
      "stranger": 881,
      "walked": 882,
      "ling": 883,
      "reat": 884,
      "case": 885,
      "consider": 886,
      "cri": 887,
      "each": 888,
      "fac": 889,
      "next": 890,
      "minut": 891,
      "fully": 892,
      "ek": 893,
      "pri": 894,
      "pur": 895,
      "reas": 896,
      "left": 897,
      "vers": 898,
      "near": 899,
      "empt": 900,
      "smile": 901,
      "spir": 902,
      "glass": 903,
      "master": 904,
      "pat": 905,
      "sol": 906,
      "eye": 907,
      "words": 908,
      "kn": 909,
      "seem": 910,
      "dire": 911,
      "ster": 912,
      "start": 913,
      "mem": 914,
      "cond": 915,
      "hope": 916,
      "occas": 917,
      "indeed": 918,
      "pocket": 919,
      "AP": 920,
      "tion": 921,
      "play": 922,
      "whisper": 923,
      "Fogg": 924,
      "prof": 925,
      "Ser": 926,
      "find": 927,
      "ning": 928,
      "ents": 929,
      "joined": 930,
      "pen": 931,
      "those": 932,
      "iz": 933,
      "pap": 934,
      "onour": 935,
      "ised": 936,
      "toge": 937,
      "towards": 938,
      "conf": 939,
      "ended": 940,
      "together": 941,
      "So": 942,
      "ably": 943,
      "key": 944,
      "spect": 945,
      "cause": 946,
      "draw": 947,
      "fast": 948,
      "ild": 949,
      "ton": 950,
      "inary": 951,
      "ering": 952,
      "keep": 953,
      "selves": 954,
      "Ah": 955,
      "dou": 956,
      "dden": 957,
      "always": 958,
      "forth": 959,
      "sudden": 960,
      "both": 961,
      "compan": 962,
      "Why": 963,
      "ug": 964,
      "uff": 965,
      "nock": 966,
      "cept": 967,
      "anything": 968,
      "num": 969,
      "pret": 970,
      "black": 971,
      "remark": 972,
      "whether": 973,
      "CHAP": 974,
      "possible": 975,
      "occasion": 976,
      "CHAPTER": 977,
      "Sm": 978,
      "far": 979,
      "pon": 980,
      "against": 981,
      "ready": 982,
      "stairs": 983,
      "still": 984,
      "oot": 985,
      "soon": 986,
      "ult": 987,
      "ures": 988,
      "street": 989,
      "cover": 990,
      "party": 991,
      "jeant": 992,
      "cried": 993,
      "five": 994,
      "ken": 995,
      "kind": 996,
      "sent": 997,
      "stoo": 998,
      "ref": 999,
      "ison": 1000,
      "ising": 1001,
      "tered": 1002,
      "Dod": 1003,
      "With": 1004,
      "cir": 1005,
      "knock": 1006,
      "run": 1007,
      "till": 1008,
      "ask": 1009,
      "icular": 1010,
      "seen": 1011,
      "ached": 1012,
      "taken": 1013,
      "bella": 1014,
      "Dodson": 1015,
      "cut": 1016,
      "high": 1017,
      "rejoined": 1018,
      "pect": 1019,
      "iff": 1020,
      "hard": 1021,
      "pow": 1022,
      "box": 1023,
      "ength": 1024,
      "Serjeant": 1025,
      "Not": 1026,
      "lay": 1027,
      "saw": 1028,
      "remain": 1029,
      "pleasant": 1030,
      "Sl": 1031,
      "bow": 1032,
      "cum": 1033,
      "corn": 1034,
      "mag": 1035,
      "pi": 1036,
      "pie": 1037,
      "rum": 1038,
      "sen": 1039,
      "ical": 1040,
      "whom": 1041,
      "betwe": 1042,
      "mother": 1043,
      "between": 1044,
      "ib": 1045,
      "use": 1046,
      "particular": 1047,
      "?”": 1048,
      "kin": 1049,
      "mur": 1050,
      "ual": 1051,
      "satis": 1052,
      "until": 1053,
      "!”": 1054,
      "dro": 1055,
      "land": 1056,
      "letter": 1057,
      "wos": 1058,
      "company": 1059,
      "Ara": 1060,
      "IC": 1061,
      "aut": 1062,
      "bs": 1063,
      "bene": 1064,
      "haps": 1065,
      "Arabella": 1066,
      "give": 1067,
      "uel": 1068,
      "Ch": 1069,
      "gone": 1070,
      "ph": 1071,
      "ste": 1072,
      "Samuel": 1073,
      "ordinary": 1074,
      "close": 1075,
      "hum": 1076,
      "ping": 1077,
      "tri": 1078,
      "enough": 1079,
      "cei": 1080,
      "tory": 1081,
      "Very": 1082,
      "home": 1083,
      "ned": 1084,
      "val": 1085,
      "wall": 1086,
      "best": 1087,
      "try": 1088,
      "OF": 1089,
      "wish": 1090,
      "top": 1091,
      "lection": 1092,
      "second": 1093,
      "irl": 1094,
      "ground": 1095,
      "taking": 1096,
      "ances": 1097,
      "din": 1098,
      "eas": 1099,
      "mis": 1100,
      "wid": 1101,
      "years": 1102,
      "aged": 1103,
      "minutes": 1104,
      "ON": 1105,
      "cal": 1106,
      "drew": 1107,
      "rup": 1108,
      "resu": 1109,
      "tom": 1110,
      "leave": 1111,
      "convers": 1112,
      "observed": 1113,
      "pretty": 1114,
      "Jo": 1115,
      "Mary": 1116,
      "She": 1117,
      "book": 1118,
      "ial": 1119,
      "ream": 1120,
      "forward": 1121,
      "cho": 1122,
      "work": 1123,
      "contin": 1124,
      "instant": 1125,
      "happy": 1126,
      "question": 1127,
      "business": 1128,
      "sort": 1129,
      "reply": 1130,
      "yourself": 1131,
      "themselves": 1132,
      "iew": 1133,
      "appearance": 1134,
      "Cl": 1135,
      "His": 1136,
      "nor": 1137,
      "rap": 1138,
      "sing": 1139,
      "view": 1140,
      "rest": 1141,
      "sever": 1142,
      "ief": 1143,
      "servant": 1144,
      "returned": 1145,
      "stood": 1146,
      "cent": 1147,
      "knew": 1148,
      "aring": 1149,
      "dev": 1150,
      "uring": 1151,
      "suff": 1152,
      "emp": 1153,
      "iously": 1154,
      "clock": 1155,
      "vol": 1156,
      "woman": 1157,
      "Do": 1158,
      "bt": 1159,
      "cold": 1160,
      "girl": 1161,
      "loud": 1162,
      "sound": 1163,
      "aston": 1164,
      "evening": 1165,
      "conversation": 1166,
      "hur": 1167,
      "pair": 1168,
      "immed": 1169,
      "ury": 1170,
      "whose": 1171,
      "prison": 1172,
      "cler": 1173,
      "igg": 1174,
      "Pell": 1175,
      "var": 1176,
      "repe": 1177,
      "arri": 1178,
      "lly": 1179,
      "ters": 1180,
      "--’": 1181,
      "chief": 1182,
      "deep": 1183,
      "felt": 1184,
      "bled": 1185,
      "Miss": 1186,
      "aving": 1187,
      "ces": 1188,
      "jud": 1189,
      "pull": 1190,
      "tow": 1191,
      "belie": 1192,
      "adm": 1193,
      "child": 1194,
      "delight": 1195,
      "itting": 1196,
      "address": 1197,
      "rub": 1198,
      "Don": 1199,
      "fi": 1200,
      "gi": 1201,
      "gave": 1202,
      "length": 1203,
      "squ": 1204,
      "slight": 1205,
      "lder": 1206,
      "object": 1207,
      "continu": 1208,
      "Tro": 1209,
      "cord": 1210,
      "fall": 1211,
      "gle": 1212,
      "hast": 1213,
      "acqu": 1214,
      "perfect": 1215,
      "usion": 1216,
      "speak": 1217,
      "feelings": 1218,
      "called": 1219,
      "Trotter": 1220,
      "honour": 1221,
      "ore": 1222,
      "sy": 1223,
      "position": 1224,
      "stopped": 1225,
      "seemed": 1226,
      "Mag": 1227,
      "Ro": 1228,
      "ta": 1229,
      "ually": 1230,
      "yard": 1231,
      "heav": 1232,
      "concl": 1233,
      "shout": 1234,
      "reason": 1235,
      "dress": 1236,
      "fam": 1237,
      "fine": 1238,
      "ray": 1239,
      "sn": 1240,
      "ugg": 1241,
      "yet": 1242,
      "thir": 1243,
      "hel": 1244,
      "entered": 1245,
      "began": 1246,
      "proceeded": 1247,
      "magis": 1248,
      "town": 1249,
      "ather": 1250,
      "bar": 1251,
      "hold": 1252,
      "tone": 1253,
      "talk": 1254,
      "ane": 1255,
      "quiet": 1256,
      "sole": 1257,
      "indign": 1258,
      "ttle": 1259,
      "AT": 1260,
      "bit": 1261,
      "foot": 1262,
      "mn": 1263,
      "row": 1264,
      "sl": 1265,
      "sum": 1266,
      "affe": 1267,
      "opened": 1268,
      "count": 1269,
      "beneath": 1270,
      "Jack": 1271,
      "cou": 1272,
      "ient": 1273,
      "law": 1274,
      "sage": 1275,
      "erest": 1276,
      "compl": 1277,
      "crow": 1278,
      "Stigg": 1279,
      "passed": 1280,
      "suddenly": 1281,
      "magistr": 1282,
      "Stiggins": 1283,
      "EL": 1284,
      "EN": 1285,
      "ubl": 1286,
      "ond": 1287,
      "ative": 1288,
      "termin": 1289,
      "ool": 1290,
      "deli": 1291,
      "poor": 1292,
      "oured": 1293,
      "appro": 1294,
      "ishment": 1295,
      "arms": 1296,
      "turning": 1297,
      "legs": 1298,
      "immedi": 1299,
      "ES": 1300,
      "dark": 1301,
      "ention": 1302,
      "upkins": 1303,
      "green": 1304,
      "vith": 1305,
      "standing": 1306,
      "known": 1307,
      "circum": 1308,
      "Magn": 1309,
      "ublic": 1310,
      "Nupkins": 1311,
      "aunt": 1312,
      "di": 1313,
      "lin": 1314,
      "slow": 1315,
      "six": 1316,
      "show": 1317,
      "exc": 1318,
      "fron": 1319,
      "interest": 1320,
      "didn": 1321,
      "pleasure": 1322,
      "doubt": 1323,
      "ICK": 1324,
      "magistrate": 1325,
      "To": 1326,
      "dri": 1327,
      "mor": 1328,
      "public": 1329,
      "sleep": 1330,
      "ching": 1331,
      "post": 1332,
      "oney": 1333,
      "app": 1334,
      "ously": 1335,
      "offic": 1336,
      "world": 1337,
      "added": 1338,
      "suppose": 1339,
      "AND": 1340,
      "fortun": 1341,
      "priv": 1342,
      "corner": 1343,
      "continued": 1344,
      "Magnus": 1345,
      "Come": 1346,
      "cid": 1347,
      "ee": 1348,
      "sk": 1349,
      "sor": 1350,
      "anim": 1351,
      "quarter": 1352,
      "inks": 1353,
      "iling": 1354,
      "prom": 1355,
      "strong": 1356,
      "ments": 1357,
      "days": 1358,
      "viol": 1359,
      "wonder": 1360,
      "steps": 1361,
      "horse": 1362,
      "followed": 1363,
      "Dow": 1364,
      "Is": 1365,
      "ctor": 1366,
      "fin": 1367,
      "grave": 1368,
      "prep": 1369,
      "warm": 1370,
      "anx": 1371,
      "lead": 1372,
      "among": 1373,
      "means": 1374,
      "subject": 1375,
      "circumst": 1376,
      "Wery": 1377,
      "bur": 1378,
      "dam": 1379,
      "fair": 1380,
      "itor": 1381,
      "lect": 1382,
      "afore": 1383,
      "things": 1384,
      "ement": 1385,
      "blue": 1386,
      "times": 1387,
      "brought": 1388,
      "closed": 1389,
      "extra": 1390,
      "rush": 1391,
      "ING": 1392,
      "On": 1393,
      "along": 1394,
      "ages": 1395,
      "ctly": 1396,
      "perhaps": 1397,
      "afterwards": 1398,
      "silence": 1399,
      "clerk": 1400,
      "IS": 1401,
      "either": 1402,
      "money": 1403,
      "twent": 1404,
      "wine": 1405,
      "ingly": 1406,
      "road": 1407,
      "ross": 1408,
      "feet": 1409,
      "does": 1410,
      "else": 1411,
      "opin": 1412,
      "firm": 1413,
      "interposed": 1414,
      "ixed": 1415,
      "Who": 1416,
      "during": 1417,
      "elder": 1418,
      "ove": 1419,
      "ince": 1420,
      "recol": 1421,
      "beaut": 1422,
      "pet": 1423,
      "host": 1424,
      "however": 1425,
      "effect": 1426,
      "gener": 1427,
      "iety": 1428,
      "charac": 1429,
      "whispered": 1430,
      "paper": 1431,
      "solemn": 1432,
      "couple": 1433,
      "Dowler": 1434,
      "cast": 1435,
      "eh": 1436,
      "lic": 1437,
      "mist": 1438,
      "ically": 1439,
      "idd": 1440,
      "imp": 1441,
      "iment": 1442,
      "within": 1443,
      "adv": 1444,
      "doz": 1445,
      "necess": 1446,
      "assist": 1447,
      "expression": 1448,
      "twenty": 1449,
      "bad": 1450,
      "fre": 1451,
      "sof": 1452,
      "usu": 1453,
      "ict": 1454,
      "ital": 1455,
      "alone": 1456,
      "ung": 1457,
      "soci": 1458,
      "common": 1459,
      "drink": 1460,
      "break": 1461,
      "believe": 1462,
      "II": 1463,
      "Low": 1464,
      "Mar": 1465,
      "gate": 1466,
      "ran": 1467,
      "smo": 1468,
      "sitting": 1469,
      "held": 1470,
      "amin": 1471,
      "unk": 1472,
      "oots": 1473,
      "grat": 1474,
      "wouldn": 1475,
      "prev": 1476,
      "Lord": 1477,
      "cor": 1478,
      "hu": 1479,
      "war": 1480,
      "seat": 1481,
      "myself": 1482,
      "obli": 1483,
      "produ": 1484,
      "maid": 1485,
      "answ": 1486,
      "front": 1487,
      "Lowten": 1488,
      "Be": 1489,
      "Good": 1490,
      "Le": 1491,
      "OU": 1492,
      "cer": 1493,
      "cus": 1494,
      "gard": 1495,
      "trem": 1496,
      "wit": 1497,
      "thus": 1498,
      "formed": 1499,
      "unch": 1500,
      "respect": 1501,
      "love": 1502,
      "ility": 1503,
      "trou": 1504,
      "scream": 1505,
      "anged": 1506,
      "descri": 1507,
      "addle": 1508,
      "cheer": 1509,
      "natur": 1510,
      "Then": 1511,
      "guard": 1512,
      "spectac": 1513,
      "number": 1514,
      "covered": 1515,
      "dinner": 1516,
      "widow": 1517,
      "opinion": 1518,
      "LE": 1519,
      "Lob": 1520,
      "Never": 1521,
      "Raddle": 1522,
      "making": 1523,
      "pend": 1524,
      "test": 1525,
      "recei": 1526,
      "import": 1527,
      "acy": 1528,
      "unter": 1529,
      "urch": 1530,
      "comfor": 1531,
      "respon": 1532,
      "smiled": 1533,
      "When": 1534,
      "laughed": 1535,
      "several": 1536,
      "repeated": 1537,
      "heavy": 1538,
      "immediately": 1539,
      "Lobbs": 1540,
      "MR": 1541,
      "bright": 1542,
      "iel": 1543,
      "os": 1544,
      "som": 1545,
      "really": 1546,
      "ory": 1547,
      "--“": 1548,
      "shook": 1549,
      "motion": 1550,
      "antly": 1551,
      "gest": 1552,
      "resumed": 1553,
      "Jackson": 1554,
      "dozen": 1555,
      "Lon": 1556,
      "TO": 1557,
      "ior": 1558,
      "late": 1559,
      "swe": 1560,
      "wot": 1561,
      "ann": 1562,
      "ates": 1563,
      "reached": 1564,
      "roll": 1565,
      "meet": 1566,
      "que": 1567,
      "couldn": 1568,
      "ield": 1569,
      "court": 1570,
      "London": 1571,
      "Wot": 1572,
      "boots": 1573,
      "ev": 1574,
      "tw": 1575,
      "ister": 1576,
      "least": 1577,
      "itation": 1578,
      "white": 1579,
      "upp": 1580,
      "rious": 1581,
      "allow": 1582,
      "profess": 1583,
      "slowly": 1584,
      "extraordinary": 1585,
      "ED": 1586,
      "Jinks": 1587,
      "bri": 1588,
      "cand": 1589,
      "cup": 1590,
      "fur": 1591,
      "flo": 1592,
      "pound": 1593,
      "tears": 1594,
      "vour": 1595,
      "arp": 1596,
      "stout": 1597,
      "wife": 1598,
      "deal": 1599,
      "ship": 1600,
      "feat": 1601,
      "strange": 1602,
      "chaise": 1603,
      "waist": 1604,
      "undred": 1605,
      "waiter": 1606,
      "garden": 1607,
      "Certain": 1608,
      "bag": 1609,
      "hot": 1610,
      "hundred": 1611,
      "jamin": 1612,
      "attor": 1613,
      "hes": 1614,
      "sem": 1615,
      "sequ": 1616,
      "owing": 1617,
      "almost": 1618,
      "const": 1619,
      "suc": 1620,
      "apart": 1621,
      "ific": 1622,
      "proper": 1623,
      "ption": 1624,
      "inster": 1625,
      "Benjamin": 1626,
      "Clupp": 1627,
      "judge": 1628,
      "attorney": 1629,
      "Em": 1630,
      "XX": 1631,
      "card": 1632,
      "ele": 1633,
      "ms": 1634,
      "pas": 1635,
      "sight": 1636,
      "ude": 1637,
      "vill": 1638,
      "anced": 1639,
      "reme": 1640,
      "sal": 1641,
      "because": 1642,
      "unic": 1643,
      "pected": 1644,
      "shop": 1645,
      "coming": 1646,
      "iful": 1647,
      "ified": 1648,
      "office": 1649,
      "spinster": 1650,
      "interrup": 1651,
      "nature": 1652,
      "placed": 1653,
      "spoke": 1654,
      "rummer": 1655,
      "stead": 1656,
      "private": 1657,
      "Certainly": 1658,
      "Cluppins": 1659,
      "Having": 1660,
      "Where": 1661,
      "thor": 1662,
      "remem": 1663,
      "alth": 1664,
      "decl": 1665,
      "met": 1666,
      "ained": 1667,
      "fema": 1668,
      "doctor": 1669,
      "bottle": 1670,
      "week": 1671,
      "tea": 1672,
      "horses": 1673,
      "pipe": 1674,
      "Eat": 1675,
      "Grummer": 1676,
      "Na": 1677,
      "band": 1678,
      "gaz": 1679,
      "jury": 1680,
      "kiss": 1681,
      "laid": 1682,
      "riage": 1683,
      "determin": 1684,
      "above": 1685,
      "fee": 1686,
      "ety": 1687,
      "cost": 1688,
      "ump": 1689,
      "grad": 1690,
      "anybody": 1691,
      "order": 1692,
      "thaniel": 1693,
      "ttled": 1694,
      "wheel": 1695,
      "piece": 1696,
      "perfectly": 1697,
      "crowd": 1698,
      "Eatans": 1699,
      "Nathaniel": 1700,
      "ca": 1701,
      "fixed": 1702,
      "lour": 1703,
      "past": 1704,
      "’,": 1705,
      "stone": 1706,
      "sec": 1707,
      "impress": 1708,
      "account": 1709,
      "nobody": 1710,
      "prob": 1711,
      "pping": 1712,
      "Nothing": 1713,
      "communic": 1714,
      "parlour": 1715,
      "breath": 1716,
      "month": 1717,
      "surpr": 1718,
      "married": 1719,
      "power": 1720,
      "affection": 1721,
      "spectacles": 1722,
      "Eatanswill": 1723,
      "bers": 1724,
      "lan": 1725,
      "por": 1726,
      "pay": 1727,
      "ring": 1728,
      "trave": 1729,
      "andy": 1730,
      "itch": 1731,
      "hair": 1732,
      "noise": 1733,
      "live": 1734,
      "fear": 1735,
      "indi": 1736,
      "lod": 1737,
      "cked": 1738,
      "retired": 1739,
      "faction": 1740,
      "spirits": 1741,
      "hastily": 1742,
      "comfortable": 1743,
      "Let": 1744,
      "evid": 1745,
      "gall": 1746,
      "game": 1747,
      "ience": 1748,
      "pard": 1749,
      "inci": 1750,
      "ities": 1751,
      "vey": 1752,
      "sharp": 1753,
      "ainted": 1754,
      "button": 1755,
      "kerchief": 1756,
      "favour": 1757,
      "worth": 1758,
      "watch": 1759,
      "feeling": 1760,
      "observ": 1761,
      "uzz": 1762,
      "situ": 1763,
      "satisfaction": 1764,
      "character": 1765,
      "AR": 1766,
      "OR": 1767,
      "Pe": 1768,
      "cat": 1769,
      "atter": 1770,
      "asleep": 1771,
      "irt": 1772,
      "dead": 1773,
      "agin": 1774,
      "sho": 1775,
      "sug": 1776,
      "Samive": 1777,
      "expected": 1778,
      "endant": 1779,
      "fraid": 1780,
      "ulated": 1781,
      "handkerchief": 1782,
      "sides": 1783,
      "country": 1784,
      "extreme": 1785,
      "uded": 1786,
      "carried": 1787,
      "paused": 1788,
      "certainly": 1789,
      "astonishment": 1790,
      "admir": 1791,
      "help": 1792,
      "breakfast": 1793,
      "Samivel": 1794,
      "Ho": 1795,
      "Sn": 1796,
      "Tr": 1797,
      "barr": 1798,
      "cing": 1799,
      "eight": 1800,
      "ging": 1801,
      "gob": 1802,
      "ian": 1803,
      "mal": 1804,
      "outh": 1805,
      "remo": 1806,
      "request": 1807,
      "lear": 1808,
      "nose": 1809,
      "lips": 1810,
      "church": 1811,
      "ute": 1812,
      "abri": 1813,
      "expl": 1814,
      "neck": 1815,
      "ending": 1816,
      "herself": 1817,
      "tract": 1818,
      "headed": 1819,
      "everybody": 1820,
      "ches": 1821,
      "engaged": 1822,
      "companion": 1823,
      "sooner": 1824,
      "family": 1825,
      "human": 1826,
      "profession": 1827,
      "further": 1828,
      "individ": 1829,
      "pardon": 1830,
      "afraid": 1831,
      "bin": 1832,
      "glo": 1833,
      "glad": 1834,
      "list": 1835,
      "tou": 1836,
      "tap": 1837,
      "resol": 1838,
      "mangle": 1839,
      "cell": 1840,
      "cely": 1841,
      "consc": 1842,
      "condu": 1843,
      "suit": 1844,
      "affor": 1845,
      "struck": 1846,
      "nodded": 1847,
      "Street": 1848,
      "presented": 1849,
      "Smart": 1850,
      "Roker": 1851,
      "sorry": 1852,
      "announ": 1853,
      "travell": 1854,
      "individual": 1855,
      "OW": 1856,
      "daugh": 1857,
      "diff": 1858,
      "ked": 1859,
      "sun": 1860,
      "sign": 1861,
      "tall": 1862,
      "wed": 1863,
      "ices": 1864,
      "itself": 1865,
      "degre": 1866,
      "agree": 1867,
      "quick": 1868,
      "exe": 1869,
      "board": 1870,
      "iffer": 1871,
      "princi": 1872,
      "earth": 1873,
      "scene": 1874,
      "bring": 1875,
      "brandy": 1876,
      "thrust": 1877,
      "prec": 1878,
      "stop": 1879,
      "hours": 1880,
      "regard": 1881,
      "faced": 1882,
      "purpose": 1883,
      "confid": 1884,
      "sense": 1885,
      "Joe": 1886,
      "iddle": 1887,
      "Hunter": 1888,
      "Smangle": 1889,
      "bu": 1890,
      "fro": 1891,
      "gy": 1892,
      "jac": 1893,
      "kne": 1894,
      "pin": 1895,
      "rist": 1896,
      "infl": 1897,
      "ony": 1898,
      "ones": 1899,
      "stick": 1900,
      "change": 1901,
      "process": 1902,
      "bling": 1903,
      "shaking": 1904,
      "inquir": 1905,
      "attention": 1906,
      "joy": 1907,
      "spot": 1908,
      "floor": 1909,
      "Emily": 1910,
      "Br": 1911,
      "Dear": 1912,
      "equ": 1913,
      "jest": 1914,
      "lord": 1915,
      "mile": 1916,
      "miss": 1917,
      "rend": 1918,
      "rous": 1919,
      "ening": 1920,
      "requ": 1921,
      "told": 1922,
      "stri": 1923,
      "seiz": 1924,
      "bear": 1925,
      "ented": 1926,
      "nothin": 1927,
      "als": 1928,
      "pot": 1929,
      "outside": 1930,
      "action": 1931,
      "walking": 1932,
      "drawing": 1933,
      "Christ": 1934,
      "burst": 1935,
      "beautiful": 1936,
      "necessary": 1937,
      "passage": 1938,
      "),": 1939,
      "Buz": 1940,
      "Doc": 1941,
      "Esqu": 1942,
      "bor": 1943,
      "fold": 1944,
      "fuz": 1945,
      "mere": 1946,
      "wink": 1947,
      "inn": 1948,
      "real": 1949,
      "iting": 1950,
      "seated": 1951,
      "also": 1952,
      "liar": 1953,
      "rose": 1954,
      "rodu": 1955,
      "ured": 1956,
      "comple": 1957,
      "fright": 1958,
      "scar": 1959,
      "boys": 1960,
      "occur": 1961,
      "ancing": 1962,
      "ipkin": 1963,
      "ibly": 1964,
      "murmur": 1965,
      "third": 1966,
      "obliged": 1967,
      "waistcoat": 1968,
      "Buzfuz": 1969,
      "Doctor": 1970,
      "Esquire": 1971,
      "AS": 1972,
      "Bl": 1973,
      "Gabri": 1974,
      "ding": 1975,
      "field": 1976,
      "ls": 1977,
      "middle": 1978,
      "pal": 1979,
      "inform": 1980,
      "ener": 1981,
      "already": 1982,
      "pol": 1983,
      "consequ": 1984,
      "shut": 1985,
      "oppos": 1986,
      "brother": 1987,
      "nearly": 1988,
      "directly": 1989,
      "Slum": 1990,
      "devot": 1991,
      "snuff": 1992,
      "gradually": 1993,
      "diffic": 1994,
      "Gabriel": 1995,
      "IV": 1996,
      "bly": 1997,
      "ks": 1998,
      "moun": 1999,
      "mouth": 2000,
      "pher": 2001,
      "ren": 2002,
      "vay": 2003,
      "yes": 2004,
      "orge": 2005,
      "dest": 2006,
      "ager": 2007,
      "kets": 2008,
      "raised": 2009,
      "itted": 2010,
      "introdu": 2011,
      "desc": 2012,
      "distance": 2013,
      "direction": 2014,
      "papers": 2015,
      "arrived": 2016,
      "acquaint": 2017,
      "deliver": 2018,
      "female": 2019,
      "secret": 2020,
      "uzzle": 2021,
      "situation": 2022,
      "Muzzle": 2023,
      "Pipkin": 2024,
      "bour": 2025,
      "dread": 2026,
      "mas": 2027,
      "mine": 2028,
      "punch": 2029,
      "song": 2030,
      "tum": 2031,
      "threw": 2032,
      "inc": 2033,
      "intim": 2034,
      "health": 2035,
      "def": 2036,
      "kept": 2037,
      "note": 2038,
      "grand": 2039,
      "gras": 2040,
      "somebody": 2041,
      "prevent": 2042,
      "attempt": 2043,
      "getting": 2044,
      "suffic": 2045,
      "general": 2046,
      "fresh": 2047,
      "Leo": 2048,
      "execut": 2049,
      "opposite": 2050,
      "Af": 2051,
      "Bless": 2052,
      "Ge": 2053,
      "Of": 2054,
      "WH": 2055,
      "ba": 2056,
      "bing": 2057,
      "bound": 2058,
      "differ": 2059,
      "iv": 2060,
      "iently": 2061,
      "lim": 2062,
      "mp": 2063,
      "sigh": 2064,
      "wen": 2065,
      "ert": 2066,
      "irty": 2067,
      "wild": 2068,
      "aded": 2069,
      "forgot": 2070,
      "doing": 2071,
      "atever": 2072,
      "empl": 2073,
      "bler": 2074,
      "clothe": 2075,
      "cannot": 2076,
      "personal": 2077,
      "pointed": 2078,
      "pale": 2079,
      "morrow": 2080,
      "usual": 2081,
      "trouble": 2082,
      "received": 2083,
      "apartment": 2084,
      "After": 2085,
      "dirty": 2086,
      "hy": 2087,
      "rich": 2088,
      "wich": 2089,
      "worn": 2090,
      "arch": 2091,
      "ham": 2092,
      "acious": 2093,
      "agg": 2094,
      "comes": 2095,
      "nest": 2096,
      "wholly": 2097,
      "looks": 2098,
      "ordered": 2099,
      "trust": 2100,
      "bless": 2101,
      "knows": 2102,
      "occup": 2103,
      "contempl": 2104,
      "understand": 2105,
      "begin": 2106,
      "wrong": 2107,
      "waiting": 2108,
      "women": 2109,
      "pulled": 2110,
      "soft": 2111,
      "cheerful": 2112,
      "features": 2113,
      "daughter": 2114,
      "Com": 2115,
      "Just": 2116,
      "LL": 2117,
      "ST": 2118,
      "Vell": 2119,
      "bill": 2120,
      "fill": 2121,
      "nice": 2122,
      "since": 2123,
      "inv": 2124,
      "ased": 2125,
      "sess": 2126,
      "ows": 2127,
      "upstairs": 2128,
      "depend": 2129,
      "sued": 2130,
      "exper": 2131,
      "dog": 2132,
      "artic": 2133,
      "lost": 2134,
      "gently": 2135,
      "disposed": 2136,
      "ively": 2137,
      "aught": 2138,
      "cially": 2139,
      "putting": 2140,
      "coachman": 2141,
      "places": 2142,
      "various": 2143,
      "circumstances": 2144,
      "answer": 2145,
      "natural": 2146,
      "responded": 2147,
      "queer": 2148,
      "candle": 2149,
      "suggest": 2150,
      "Slumkey": 2151,
      "fig": 2152,
      "gro": 2153,
      "mut": 2154,
      "mak": 2155,
      "ror": 2156,
      "tre": 2157,
      "year": 2158,
      "hall": 2159,
      "safe": 2160,
      "amp": 2161,
      "myster": 2162,
      "commen": 2163,
      "comfort": 2164,
      "notice": 2165,
      "disappeared": 2166,
      "pray": 2167,
      "possess": 2168,
      "brown": 2169,
      "cham": 2170,
      "please": 2171,
      "ancy": 2172,
      "distin": 2173,
      "profound": 2174,
      "reflection": 2175,
      "shouted": 2176,
      "excit": 2177,
      "fortunate": 2178,
      "important": 2179,
      "agreeable": 2180,
      "roused": 2181,
      "acquaintance": 2182,
      "HOW": 2183,
      "RE": 2184,
      "Will": 2185,
      "cy": 2186,
      "eat": 2187,
      "gar": 2188,
      "kitch": 2189,
      "ming": 2190,
      "mus": 2191,
      "sou": 2192,
      "uous": 2193,
      "vun": 2194,
      "wret": 2195,
      "inside": 2196,
      "ences": 2197,
      "refer": 2198,
      "asses": 2199,
      "often": 2200,
      "llo": 2201,
      "besto": 2202,
      "although": 2203,
      "excell": 2204,
      "neither": 2205,
      "display": 2206,
      "downstairs": 2207,
      "early": 2208,
      "earnest": 2209,
      "speed": 2210,
      "speaking": 2211,
      "clear": 2212,
      "crown": 2213,
      "wanted": 2214,
      "following": 2215,
      "capital": 2216,
      "spirit": 2217,
      "hurried": 2218,
      "deeply": 2219,
      "conclusion": 2220,
      "assistance": 2221,
      "remember": 2222,
      "learned": 2223,
      "conscious": 2224,
      "scarcely": 2225,
      "George": 2226,
      "By": 2227,
      "For": 2228,
      "Your": 2229,
      "ait": 2230,
      "dare": 2231,
      "fif": 2232,
      "ife": 2233,
      "jour": 2234,
      "pain": 2235,
      "anders": 2236,
      "itude": 2237,
      "station": 2238,
      "why": 2239,
      "whatever": 2240,
      "accord": 2241,
      "eremon": 2242,
      "conv": 2243,
      "except": 2244,
      "need": 2245,
      "grace": 2246,
      "opport": 2247,
      "pract": 2248,
      "aud": 2249,
      "spic": 2250,
      "preh": 2251,
      "undle": 2252,
      "passion": 2253,
      "arrange": 2254,
      "charge": 2255,
      "considerable": 2256,
      "senior": 2257,
      "fier": 2258,
      "rushed": 2259,
      "osity": 2260,
      "brief": 2261,
      "Snub": 2262,
      "dreadful": 2263,
      "opportun": 2264,
      "Con": 2265,
      "PICK": 2266,
      "WICK": 2267,
      "cry": 2268,
      "eper": 2269,
      "eager": 2270,
      "furn": 2271,
      "fied": 2272,
      "las": 2273,
      "mand": 2274,
      "erable": 2275,
      "ase": 2276,
      "bey": 2277,
      "wig": 2278,
      "ade": 2279,
      "exist": 2280,
      "bot": 2281,
      "awak": 2282,
      "true": 2283,
      "contempt": 2284,
      "drag": 2285,
      "carry": 2286,
      "idea": 2287,
      "fellows": 2288,
      "visitor": 2289,
      "started": 2290,
      "asked": 2291,
      "Slam": 2292,
      "landlord": 2293,
      "given": 2294,
      "indignation": 2295,
      "officer": 2296,
      "produced": 2297,
      "lodg": 2298,
      "kitchen": 2299,
      "Snubbin": 2300,
      "PICKWICK": 2301,
      "Sanders": 2302,
      "ale": 2303,
      "event": 2304,
      "hn": 2305,
      "nam": 2306,
      "pick": 2307,
      "ics": 2308,
      "offee": 2309,
      "ars": 2310,
      "sex": 2311,
      "youth": 2312,
      "wash": 2313,
      "advant": 2314,
      "alarm": 2315,
      "tern": 2316,
      "death": 2317,
      "delic": 2318,
      "peace": 2319,
      "intell": 2320,
      "serv": 2321,
      "stock": 2322,
      "everything": 2323,
      "faces": 2324,
      "drawn": 2325,
      "bowed": 2326,
      "John": 2327,
      "rayther": 2328,
      "witness": 2329,
      "excellent": 2330,
      "Slammer": 2331,
      "AC": 2332,
      "En": 2333,
      "IT": 2334,
      "Wil": 2335,
      "cough": 2336,
      "fing": 2337,
      "faint": 2338,
      "fond": 2339,
      "ges": 2340,
      "hood": 2341,
      "ially": 2342,
      "ost": 2343,
      "wis": 2344,
      "erous": 2345,
      "toast": 2346,
      "stra": 2347,
      "imes": 2348,
      "force": 2349,
      "consu": 2350,
      "shri": 2351,
      "neigh": 2352,
      "antic": 2353,
      "coll": 2354,
      "plaint": 2355,
      "mention": 2356,
      "smart": 2357,
      "glance": 2358,
      "glasses": 2359,
      "carefully": 2360,
      "starting": 2361,
      "running": 2362,
      "remained": 2363,
      "easy": 2364,
      "rapid": 2365,
      "concluded": 2366,
      "firmly": 2367,
      "clothes": 2368,
      "commenced": 2369,
      "excitement": 2370,
      "opportunity": 2371,
      "!--": 2372,
      "Honour": 2373,
      "Take": 2374,
      "Upon": 2375,
      "cab": 2376,
      "dut": 2377,
      "fancy": 2378,
      "ians": 2379,
      "lve": 2380,
      "rom": 2381,
      "sister": 2382,
      "wise": 2383,
      "onstr": 2384,
      "rever": 2385,
      "assem": 2386,
      "stage": 2387,
      "espe": 2388,
      "alle": 2389,
      "changed": 2390,
      "abl": 2391,
      "ount": 2392,
      "appar": 2393,
      "emer": 2394,
      "tru": 2395,
      "tran": 2396,
      "presence": 2397,
      "portion": 2398,
      "leton": 2399,
      "happiness": 2400,
      "paid": 2401,
      "regular": 2402,
      "remarkable": 2403,
      "society": 2404,
      "months": 2405,
      "Christmas": 2406,
      "complete": 2407,
      "bottom": 2408,
      "neighbour": 2409,
      ".,": 2410,
      "Ex": 2411,
      "Master": 2412,
      "Qu": 2413,
      "Re": 2414,
      "WI": 2415,
      "ball": 2416,
      "dign": 2417,
      "ejac": 2418,
      "gold": 2419,
      "pan": 2420,
      "sim": 2421,
      "story": 2422,
      "tin": 2423,
      "uce": 2424,
      "ying": 2425,
      "erd": 2426,
      "reco": 2427,
      "noble": 2428,
      "unpleasant": 2429,
      "demand": 2430,
      "ago": 2431,
      "conce": 2432,
      "exh": 2433,
      "ouring": 2434,
      "appl": 2435,
      "repair": 2436,
      "resist": 2437,
      "lock": 2438,
      "heads": 2439,
      "goin": 2440,
      "sport": 2441,
      "cloth": 2442,
      "spec": 2443,
      "spee": 2444,
      "remonstr": 2445,
      "deser": 2446,
      "voices": 2447,
      "companions": 2448,
      "seconds": 2449,
      "talking": 2450,
      "ELL": 2451,
      "recollection": 2452,
      "interrupted": 2453,
      "surprise": 2454,
      "admiration": 2455,
      "soul": 2456,
      "Wilkins": 2457,
      "straight": 2458,
      "Honourable": 2459,
      ".)": 2460,
      "Are": 2461,
      "Can": 2462,
      "Cap": 2463,
      "Did": 2464,
      "Grub": 2465,
      "Have": 2466,
      "Mugg": 2467,
      "bust": 2468,
      "burn": 2469,
      "cart": 2470,
      "creat": 2471,
      "cross": 2472,
      "ceremon": 2473,
      "coffee": 2474,
      "gn": 2475,
      "kes": 2476,
      "ny": 2477,
      "narr": 2478,
      "rising": 2479,
      "single": 2480,
      "win": 2481,
      "wood": 2482,
      "threat": 2483,
      "impossible": 2484,
      "accompan": 2485,
      "noon": 2486,
      "keeper": 2487,
      "exact": 2488,
      "bye": 2489,
      "rav": 2490,
      "saying": 2491,
      "auker": 2492,
      "wore": 2493,
      "establ": 2494,
      "chap": 2495,
      "likely": 2496,
      "bedroom": 2497,
      "carriage": 2498,
      "happened": 2499,
      "proceedings": 2500,
      "laughter": 2501,
      "uckle": 2502,
      "Smauker": 2503,
      "calm": 2504,
      "giving": 2505,
      "dressed": 2506,
      "indignant": 2507,
      "anxious": 2508,
      "shoes": 2509,
      "professional": 2510,
      "influ": 2511,
      "intellig": 2512,
      "plaintiff": 2513,
      "Muggleton": 2514,
      "Mart": 2515,
      "RI": 2516,
      "cook": 2517,
      "echo": 2518,
      "hus": 2519,
      "rid": 2520,
      "spr": 2521,
      "uced": 2522,
      "thro": 2523,
      "instr": 2524,
      "iron": 2525,
      "terms": 2526,
      "utmost": 2527,
      "depart": 2528,
      "depos": 2529,
      "hadn": 2530,
      "peep": 2531,
      "concer": 2532,
      "cop": 2533,
      "raising": 2534,
      "smiling": 2535,
      "seeing": 2536,
      "stopping": 2537,
      "cial": 2538,
      "odd": 2539,
      "drunk": 2540,
      "broken": 2541,
      "letters": 2542,
      "Club": 2543,
      "servants": 2544,
      "prepared": 2545,
      "circumstance": 2546,
      "recollect": 2547,
      "previous": 2548,
      "thusi": 2549,
      "observation": 2550,
      "Peter": 2551,
      "Hollo": 2552,
      "degree": 2553,
      "occurred": 2554,
      "increas": 2555,
      "mysterious": 2556,
      "journey": 2557,
      "speech": 2558,
      "Martin": 2559,
      "AM": 2560,
      "Pr": 2561,
      "city": 2562,
      "creet": 2563,
      "fle": 2564,
      "fal": 2565,
      "iable": 2566,
      "lab": 2567,
      "lted": 2568,
      "latter": 2569,
      "mort": 2570,
      "pause": 2571,
      "sle": 2572,
      "shad": 2573,
      "tit": 2574,
      "ende": 2575,
      "isto": 2576,
      "icted": 2577,
      "lean": 2578,
      "lected": 2579,
      "around": 2580,
      "aced": 2581,
      "across": 2582,
      "ament": 2583,
      "unfortunate": 2584,
      "deb": 2585,
      "melan": 2586,
      "pop": 2587,
      "suspic": 2588,
      "exer": 2589,
      "exam": 2590,
      "expect": 2591,
      "moved": 2592,
      "ulation": 2593,
      "gry": 2594,
      "dismal": 2595,
      "others": 2596,
      "houses": 2597,
      "housemaid": 2598,
      "worse": 2599,
      "justice": 2600,
      "gged": 2601,
      "gets": 2602,
      "super": 2603,
      "stepped": 2604,
      "expressed": 2605,
      "considered": 2606,
      "curi": 2607,
      "ashed": 2608,
      "minute": 2609,
      "trial": 2610,
      "emphat": 2611,
      "tail": 2612,
      "prepar": 2613,
      "anxiety": 2614,
      "rolled": 2615,
      "success": 2616,
      "conduct": 2617,
      "precise": 2618,
      "knees": 2619,
      "merely": 2620,
      "murmured": 2621,
      "mounted": 2622,
      "pherd": 2623,
      "delivered": 2624,
      "advantage": 2625,
      "especially": 2626,
      "ejaculated": 2627,
      "husband": 2628,
      "endeav": 2629,
      ".--": 2630,
      "Fiz": 2631,
      "ION": 2632,
      "dim": 2633,
      "fun": 2634,
      "ia": 2635,
      "mark": 2636,
      "none": 2637,
      "send": 2638,
      "sund": 2639,
      "siz": 2640,
      "tight": 2641,
      "inno": 2642,
      "ense": 2643,
      "eness": 2644,
      "habit": 2645,
      "settled": 2646,
      "whist": 2647,
      "entr": 2648,
      "entertain": 2649,
      "terri": 2650,
      "ries": 2651,
      "chim": 2652,
      "uttered": 2653,
      "conven": 2654,
      "shill": 2655,
      "exp": 2656,
      "bore": 2657,
      "bosom": 2658,
      "etimes": 2659,
      "ants": 2660,
      "cob": 2661,
      "plain": 2662,
      "astic": 2663,
      "author": 2664,
      "shepherd": 2665,
      "intention": 2666,
      "shoulder": 2667,
      "desper": 2668,
      "cases": 2669,
      "command": 2670,
      "clean": 2671,
      "Perhaps": 2672,
      "supper": 2673,
      "Thank": 2674,
      "pockets": 2675,
      "windows": 2676,
      "curious": 2677,
      "confusion": 2678,
      "double": 2679,
      "numerous": 2680,
      "remarked": 2681,
      "streets": 2682,
      "trium": 2683,
      "symp": 2684,
      "cided": 2685,
      "violent": 2686,
      "advanced": 2687,
      "sweet": 2688,
      "determination": 2689,
      "worthy": 2690,
      "Trundle": 2691,
      "goblin": 2692,
      "afford": 2693,
      "seized": 2694,
      "different": 2695,
      "figure": 2696,
      "chamber": 2697,
      "influence": 2698,
      "deposited": 2699,
      "creetur": 2700,
      ").": 2701,
      "Dell": 2702,
      "Flas": 2703,
      "Go": 2704,
      "Gent": 2705,
      "Hor": 2706,
      "OT": 2707,
      "Po": 2708,
      "Un": 2709,
      "ail": 2710,
      "cli": 2711,
      "caught": 2712,
      "dust": 2713,
      "fit": 2714,
      "hic": 2715,
      "spl": 2716,
      "ught": 2717,
      "invol": 2718,
      "enthusi": 2719,
      "oman": 2720,
      "beside": 2721,
      "besides": 2722,
      "imper": 2723,
      "ution": 2724,
      "poet": 2725,
      "mod": 2726,
      "ette": 2727,
      "frown": 2728,
      "obje": 2729,
      "ilar": 2730,
      "grin": 2731,
      "affair": 2732,
      "somewhat": 2733,
      "blind": 2734,
      "blood": 2735,
      "greater": 2736,
      "counter": 2737,
      "desire": 2738,
      "attached": 2739,
      "addition": 2740,
      "teen": 2741,
      "ission": 2742,
      "merry": 2743,
      "possibly": 2744,
      "culiar": 2745,
      "stern": 2746,
      "knocked": 2747,
      "particularly": 2748,
      "drop": 2749,
      "choly": 2750,
      "arrival": 2751,
      "children": 2752,
      "fallen": 2753,
      "holding": 2754,
      "compliment": 2755,
      "approach": 2756,
      "applied": 2757,
      "cident": 2758,
      "smoking": 2759,
      "warn": 2760,
      "description": 2761,
      "sometimes": 2762,
      "succeed": 2763,
      "costs": 2764,
      "extremely": 2765,
      "quickly": 2766,
      "rendered": 2767,
      "devoted": 2768,
      "difficult": 2769,
      "defendant": 2770,
      "service": 2771,
      "Engl": 2772,
      "exactly": 2773,
      "melancholy": 2774,
      "curiosity": 2775,
      "Fizkin": 2776,
      "sundry": 2777,
      "Flasher": 2778,
      "Gentle": 2779,
      ";’": 2780,
      "Dingle": 2781,
      "ICH": 2782,
      "Lad": 2783,
      "Some": 2784,
      "boot": 2785,
      "flow": 2786,
      "kick": 2787,
      "line": 2788,
      "mit": 2789,
      "push": 2790,
      "ratt": 2791,
      "sli": 2792,
      "sch": 2793,
      "tast": 2794,
      "wide": 2795,
      "yell": 2796,
      "thick": 2797,
      "incl": 2798,
      "recovered": 2799,
      "heel": 2800,
      "stared": 2801,
      "seven": 2802,
      "belong": 2803,
      "below": 2804,
      "lying": 2805,
      "iments": 2806,
      "unless": 2807,
      "roof": 2808,
      "utter": 2809,
      "peculiar": 2810,
      "convey": 2811,
      "apple": 2812,
      "These": 2813,
      "loy": 2814,
      "weak": 2815,
      "blow": 2816,
      "mail": 2817,
      "posing": 2818,
      "gling": 2819,
      "shaw": 2820,
      "anging": 2821,
      "thinking": 2822,
      "throwing": 2823,
      "preced": 2824,
      "mater": 2825,
      "thoughts": 2826,
      "drank": 2827,
      "matters": 2828,
      "proceeding": 2829,
      "distur": 2830,
      "powder": 2831,
      "devil": 2832,
      "variety": 2833,
      "delightful": 2834,
      "addressed": 2835,
      "excited": 2836,
      "driver": 2837,
      "screamed": 2838,
      "meeting": 2839,
      "pounds": 2840,
      "explan": 2841,
      "information": 2842,
      "WHICH": 2843,
      "dependent": 2844,
      "apparently": 2845,
      "accompanied": 2846,
      "entrance": 2847,
      "triumph": 2848,
      "Dingley": 2849,
      ".--“": 2850,
      "Al": 2851,
      "Every": 2852,
      "God": 2853,
      "Gaz": 2854,
      "_Gaz": 2855,
      "bir": 2856,
      "gain": 2857,
      "gig": 2858,
      "iver": 2859,
      "kill": 2860,
      "ooman": 2861,
      "rise": 2862,
      "ons": 2863,
      "icated": 2864,
      "iction": 2865,
      "itated": 2866,
      "ime": 2867,
      "amuse": 2868,
      "vell": 2869,
      "vehe": 2870,
      "vehic": 2871,
      "Pickwickians": 2872,
      "decided": 2873,
      "abstr": 2874,
      "commod": 2875,
      "ours": 2876,
      "notion": 2877,
      "persu": 2878,
      "loqu": 2879,
      "ousand": 2880,
      "ument": 2881,
      "aff": 2882,
      "achment": 2883,
      "offer": 2884,
      "offered": 2885,
      "eyed": 2886,
      "White": 2887,
      "takes": 2888,
      "heartily": 2889,
      "passing": 2890,
      "hearing": 2891,
      "arranged": 2892,
      "behold": 2893,
      "coloured": 2894,
      "careful": 2895,
      "broad": 2896,
      "consideration": 2897,
      "finding": 2898,
      "phi": 2899,
      "easily": 2900,
      "instantly": 2901,
      "girls": 2902,
      "addressing": 2903,
      "ENT": 2904,
      "violence": 2905,
      "drinking": 2906,
      "Maria": 2907,
      "thorough": 2908,
      "forgotten": 2909,
      "makes": 2910,
      "fifty": 2911,
      "collar": 2912,
      "cobbler": 2913,
      "ette_": 2914,
      "school": 2915,
      "_Gazette_": 2916,
      "CE": 2917,
      "Cour": 2918,
      "Ha": 2919,
      "Hush": 2920,
      "One": 2921,
      "Ph": 2922,
      "ben": 2923,
      "caut": 2924,
      "died": 2925,
      "danger": 2926,
      "hung": 2927,
      "nine": 2928,
      "oy": 2929,
      "ras": 2930,
      "sens": 2931,
      "tem": 2932,
      "wing": 2933,
      "thousand": 2934,
      "ater": 2935,
      "iter": 2936,
      "sty": 2937,
      "beheld": 2938,
      "acha": 2939,
      "accept": 2940,
      "vere": 2941,
      "advent": 2942,
      "nosed": 2943,
      "uncommon": 2944,
      "anted": 2945,
      "proposed": 2946,
      "yours": 2947,
      "proud": 2948,
      "blaz": 2949,
      "cloud": 2950,
      "intense": 2951,
      "lighted": 2952,
      "ctions": 2953,
      "cheek": 2954,
      "join": 2955,
      "carpet": 2956,
      "visible": 2957,
      "hardly": 2958,
      "landlady": 2959,
      "quietly": 2960,
      "affected": 2961,
      "deliber": 2962,
      "promise": 2963,
      "leading": 2964,
      "usually": 2965,
      "impression": 2966,
      "miles": 2967,
      "descended": 2968,
      "fierce": 2969,
      "names": 2970,
      "recogn": 2971,
      "exhib": 2972,
      "ceremony": 2973,
      "Gentlemen": 2974,
      "OL": 2975,
      "OM": 2976,
      "Pray": 2977,
      "Racha": 2978,
      "ax": 2979,
      "bas": 2980,
      "bal": 2981,
      "gun": 2982,
      "lace": 2983,
      "main": 2984,
      "ners": 2985,
      "rate": 2986,
      "onsense": 2987,
      "enjoy": 2988,
      "ator": 2989,
      "aside": 2990,
      "asped": 2991,
      "leaving": 2992,
      "orary": 2993,
      "stir": 2994,
      "beha": 2995,
      "became": 2996,
      "accident": 2997,
      "amount": 2998,
      "altogether": 2999,
      "upper": 3000,
      "roared": 3001,
      "appointed": 3002,
      "pled": 3003,
      "wear": 3004,
      "goes": 3005,
      "shake": 3006,
      "doors": 3007,
      "tained": 3008,
      "appeal": 3009,
      "ledge": 3010,
      "throw": 3011,
      "faith": 3012,
      "turnkey": 3013,
      "pressed": 3014,
      "mighty": 3015,
      "parce": 3016,
      "support": 3017,
      "moments": 3018,
      "horror": 3019,
      "legal": 3020,
      "survey": 3021,
      "marriage": 3022,
      "silk": 3023,
      "silent": 3024,
      "statement": 3025,
      "knife": 3026,
      "condition": 3027,
      "occasioned": 3028,
      "highly": 3029,
      "laying": 3030,
      "satisfied": 3031,
      "dropped": 3032,
      "miserable": 3033,
      "astonished": 3034,
      "slightest": 3035,
      "prompt": 3036,
      "unky": 3037,
      "determined": 3038,
      "evidently": 3039,
      "gloom": 3040,
      "inquiry": 3041,
      "folded": 3042,
      "polit": 3043,
      "wretched": 3044,
      "prehens": 3045,
      "intelligence": 3046,
      "explanation": 3047,
      "Phunky": 3048,
      "Rachael": 3049,
      "Buff": 3050,
      "Old": 3051,
      "Such": 3052,
      "ew": 3053,
      "flight": 3054,
      "gam": 3055,
      "ives": 3056,
      "jum": 3057,
      "lou": 3058,
      "pict": 3059,
      "rain": 3060,
      "rust": 3061,
      "wand": 3062,
      "wro": 3063,
      "ination": 3064,
      "arg": 3065,
      "arse": 3066,
      "idst": 3067,
      "iring": 3068,
      "beer": 3069,
      "become": 3070,
      "owed": 3071,
      "imag": 3072,
      "alter": 3073,
      "elled": 3074,
      "conne": 3075,
      "sumed": 3076,
      "repres": 3077,
      "ets": 3078,
      "ender": 3079,
      "antam": 3080,
      "perpet": 3081,
      "ulate": 3082,
      "loso": 3083,
      "loss": 3084,
      "wel": 3085,
      "disting": 3086,
      "club": 3087,
      "goodness": 3088,
      "shoulders": 3089,
      "angu": 3090,
      "despat": 3091,
      "Independent": 3092,
      "pointing": 3093,
      "expressive": 3094,
      "writing": 3095,
      "twelve": 3096,
      "played": 3097,
      "knocking": 3098,
      "humour": 3099,
      "raps": 3100,
      "employ": 3101,
      "rubbing": 3102,
      "crowded": 3103,
      "aforesaid": 3104,
      "described": 3105,
      "importance": 3106,
      "porter": 3107,
      "barrow": 3108,
      "tracted": 3109,
      "principle": 3110,
      "pinch": 3111,
      "consequence": 3112,
      "beyond": 3113,
      "Quite": 3114,
      "chimney": 3115,
      "objection": 3116,
      "yellow": 3117,
      "Court": 3118,
      "distingu": 3119,
      "?--": 3120,
      "AD": 3121,
      "BE": 3122,
      "Bantam": 3123,
      "Fle": 3124,
      "Say": 3125,
      "Stop": 3126,
      "TA": 3127,
      "Wy": 3128,
      "_Independent": 3129,
      "ailed": 3130,
      "bered": 3131,
      "dry": 3132,
      "ead": 3133,
      "fant": 3134,
      "fash": 3135,
      "fool": 3136,
      "gust": 3137,
      "har": 3138,
      "lins": 3139,
      "lane": 3140,
      "mes": 3141,
      "sank": 3142,
      "tried": 3143,
      "vy": 3144,
      "atory": 3145,
      "isn": 3146,
      "hesit": 3147,
      "separ": 3148,
      "imagin": 3149,
      "aces": 3150,
      "amiable": 3151,
      "withstanding": 3152,
      "aloud": 3153,
      "liber": 3154,
      "forget": 3155,
      "ability": 3156,
      "comb": 3157,
      "notes": 3158,
      "bold": 3159,
      "using": 3160,
      "umm": 3161,
      "grow": 3162,
      "gray": 3163,
      "anythin": 3164,
      "pride": 3165,
      "strug": 3166,
      "ishing": 3167,
      "majest": 3168,
      "tors": 3169,
      "gover": 3170,
      "inscri": 3171,
      "rooms": 3172,
      "gled": 3173,
      "longer": 3174,
      "attend": 3175,
      "attendant": 3176,
      "berry": 3177,
      "lessly": 3178,
      "igned": 3179,
      "Which": 3180,
      "crim": 3181,
      "supposed": 3182,
      "effort": 3183,
      "hearty": 3184,
      "calling": 3185,
      "flat": 3186,
      "surround": 3187,
      "staircase": 3188,
      "setting": 3189,
      "factory": 3190,
      "members": 3191,
      "occasionally": 3192,
      "closely": 3193,
      "ease": 3194,
      "misery": 3195,
      "rupt": 3196,
      "singular": 3197,
      "centre": 3198,
      "emporary": 3199,
      "acquainted": 3200,
      "hostler": 3201,
      "smoke": 3202,
      "custom": 3203,
      "trembling": 3204,
      "twice": 3205,
      "property": 3206,
      "caused": 3207,
      "churchyard": 3208,
      "announced": 3209,
      "principal": 3210,
      "confidence": 3211,
      "frightened": 3212,
      "Blue": 3213,
      "execution": 3214,
      "occupied": 3215,
      "suggested": 3216,
      "distinctly": 3217,
      "painful": 3218,
      "accordingly": 3219,
      "sexton": 3220,
      "assembled": 3221,
      "dignity": 3222,
      "conceal": 3223,
      "Captain": 3224,
      "echoed": 3225,
      "mortal": 3226,
      "philoso": 3227,
      "Fleet": 3228,
      "_Independent_": 3229,
      "Bell": 3230,
      "CON": 3231,
      "Great": 3232,
      "Ips": 3233,
      "Shall": 3234,
      "VII": 3235,
      "aven": 3236,
      "bis": 3237,
      "cool": 3238,
      "due": 3239,
      "gri": 3240,
      "harm": 3241,
      "lone": 3242,
      "mir": 3243,
      "pack": 3244,
      "pint": 3245,
      "rs": 3246,
      "rand": 3247,
      "rough": 3248,
      "rang": 3249,
      "swall": 3250,
      "tur": 3251,
      "tempt": 3252,
      "wished": 3253,
      "angry": 3254,
      "resh": 3255,
      "isure": 3256,
      "leisure": 3257,
      "orig": 3258,
      "stay": 3259,
      "icks": 3260,
      "whip": 3261,
      "save": 3262,
      "impro": 3263,
      "wasn": 3264,
      "lived": 3265,
      "former": 3266,
      "ceive": 3267,
      "dec": 3268,
      "dep": 3269,
      "demon": 3270,
      "delay": 3271,
      "urk": 3272,
      "meas": 3273,
      "contr": 3274,
      "consent": 3275,
      "fever": 3276,
      "endous": 3277,
      "lose": 3278,
      "proof": 3279,
      "prospect": 3280,
      "strength": 3281,
      "thank": 3282,
      "special": 3283,
      "taining": 3284,
      "madman": 3285,
      "attachment": 3286,
      "nightcap": 3287,
      "cheers": 3288,
      "commission": 3289,
      "whereupon": 3290,
      "interview": 3291,
      "Inn": 3292,
      "chairs": 3293,
      "chairman": 3294,
      "persons": 3295,
      "write": 3296,
      "busy": 3297,
      "directed": 3298,
      "keeping": 3299,
      "Slurk": 3300,
      "hurry": 3301,
      "delighted": 3302,
      "finally": 3303,
      "finished": 3304,
      "gazed": 3305,
      "kissed": 3306,
      "buttons": 3307,
      "goblins": 3308,
      "removed": 3309,
      "listened": 3310,
      "announce": 3311,
      "sufficiently": 3312,
      "filled": 3313,
      "articles": 3314,
      "eagerly": 3315,
      "duty": 3316,
      "completely": 3317,
      "WITH": 3318,
      "remonstrated": 3319,
      "ELLER": 3320,
      "creature": 3321,
      "narrow": 3322,
      "throat": 3323,
      "client": 3324,
      "Lady": 3325,
      "Ipswich": 3326,
      "origin": 3327,
      "Bath": 3328,
      "LY": 3329,
      "Mess": 3330,
      "MAN": 3331,
      "Tuckle": 3332,
      "UN": 3333,
      "WELLER": 3334,
      "afe": 3335,
      "aves": 3336,
      "dome": 3337,
      "die": 3338,
      "een": 3339,
      "gress": 3340,
      "hop": 3341,
      "la": 3342,
      "lting": 3343,
      "luck": 3344,
      "pit": 3345,
      "pace": 3346,
      "pens": 3347,
      "ron": 3348,
      "rage": 3349,
      "vic": 3350,
      "insu": 3351,
      "ature": 3352,
      "reach": 3353,
      "relie": 3354,
      "itable": 3355,
      "stic": 3356,
      "staring": 3357,
      "ident": 3358,
      "search": 3359,
      "sad": 3360,
      "sake": 3361,
      "accommod": 3362,
      "roar": 3363,
      "rily": 3364,
      "shirt": 3365,
      "qual": 3366,
      "resses": 3367,
      "performed": 3368,
      "locked": 3369,
      "ousers": 3370,
      "ounded": 3371,
      "grim": 3372,
      "grown": 3373,
      "discus": 3374,
      "aken": 3375,
      "somethin": 3376,
      "print": 3377,
      "trousers": 3378,
      "knowledge": 3379,
      "parties": 3380,
      "afternoon": 3381,
      "scr": 3382,
      "chain": 3383,
      "fault": 3384,
      "nerv": 3385,
      "feller": 3386,
      "content": 3387,
      "viour": 3388,
      "parent": 3389,
      "wants": 3390,
      "opening": 3391,
      "visit": 3392,
      "pursu": 3393,
      "ception": 3394,
      "satisfactory": 3395,
      "squee": 3396,
      "thirty": 3397,
      "footman": 3398,
      "officers": 3399,
      "sky": 3400,
      "animal": 3401,
      "damages": 3402,
      "OUN": 3403,
      "ification": 3404,
      "wheels": 3405,
      "probable": 3406,
      "Tracy": 3407,
      "gloves": 3408,
      "conducted": 3409,
      "required": 3410,
      "energy": 3411,
      "sufficient": 3412,
      "practice": 3413,
      "existence": 3414,
      "awakened": 3415,
      "events": 3416,
      "emerged": 3417,
      "truth": 3418,
      "false": 3419,
      "istol": 3420,
      "vehicle": 3421,
      "parcel": 3422,
      "wrote": 3423,
      "fashion": 3424,
      "Messrs": 3425,
      "squeez": 3426,
      ":--": 3427,
      "Down": 3428,
      "Show": 3429,
      "born": 3430,
      "bank": 3431,
      "cre": 3432,
      "coo": 3433,
      "da": 3434,
      "dra": 3435,
      "fu": 3436,
      "fist": 3437,
      "groom": 3438,
      "gait": 3439,
      "hid": 3440,
      "io": 3441,
      "ike": 3442,
      "iod": 3443,
      "jer": 3444,
      "nal": 3445,
      "og": 3446,
      "oper": 3447,
      "rank": 3448,
      "sly": 3449,
      "tick": 3450,
      "ues": 3451,
      "uously": 3452,
      "vag": 3453,
      "vich": 3454,
      "vain": 3455,
      "‘’": 3456,
      "anci": 3457,
      "editor": 3458,
      "assa": 3459,
      "ingen": 3460,
      "armed": 3461,
      "orous": 3462,
      "itary": 3463,
      "beef": 3464,
      "imm": 3465,
      "acity": 3466,
      "lief": 3467,
      "ceased": 3468,
      "unhappy": 3469,
      "del": 3470,
      "abs": 3471,
      "mottled": 3472,
      "period": 3473,
      "weather": 3474,
      "protest": 3475,
      "discovered": 3476,
      "therefore": 3477,
      "friendly": 3478,
      "spark": 3479,
      "counsel": 3480,
      "hole": 3481,
      "thrown": 3482,
      "bedstead": 3483,
      "extent": 3484,
      "mayor": 3485,
      "observe": 3486,
      "fatig": 3487,
      "meaning": 3488,
      ".”’": 3489,
      "native": 3490,
      "returning": 3491,
      "subst": 3492,
      "cuse": 3493,
      "patient": 3494,
      "remainder": 3495,
      "drove": 3496,
      "prisoner": 3497,
      "slightly": 3498,
      "heavily": 3499,
      "fami": 3500,
      "interesting": 3501,
      "fortunately": 3502,
      "elderly": 3503,
      "generally": 3504,
      "tremendous": 3505,
      "XXX": 3506,
      "gaze": 3507,
      "communication": 3508,
      "lantern": 3509,
      "lively": 3510,
      "requested": 3511,
      "borne": 3512,
      "trees": 3513,
      "consciousness": 3514,
      "stationed": 3515,
      "dragged": 3516,
      "lodgings": 3517,
      "mentioned": 3518,
      "emphatically": 3519,
      "symptom": 3520,
      "taste": 3521,
      "shawl": 3522,
      "bird": 3523,
      "amusement": 3524,
      "temper": 3525,
      "behaviour": 3526,
      "louder": 3527,
      "governor": 3528,
      "AL": 3529,
      "Bor": 3530,
      "Hop": 3531,
      "IR": 3532,
      "Or": 3533,
      "PR": 3534,
      "Sol": 3535,
      "TR": 3536,
      "Vult": 3537,
      "blo": 3538,
      "big": 3539,
      "bbed": 3540,
      "cun": 3541,
      "cig": 3542,
      "cred": 3543,
      "fare": 3544,
      "grav": 3545,
      "hill": 3546,
      "hint": 3547,
      "pink": 3548,
      "pill": 3549,
      "rim": 3550,
      "sick": 3551,
      "tear": 3552,
      "ume": 3553,
      "wet": 3554,
      "xter": 3555,
      "’;": 3556,
      "inced": 3557,
      "theat": 3558,
      "encour": 3559,
      "enched": 3560,
      "attered": 3561,
      "recomm": 3562,
      "record": 3563,
      "isk": 3564,
      "issued": 3565,
      "asha": 3566,
      "ication": 3567,
      "lebr": 3568,
      "leather": 3569,
      "arily": 3570,
      "itz": 3571,
      "bearing": 3572,
      "entreat": 3573,
      "esses": 3574,
      "accoun": 3575,
      "amaz": 3576,
      "vest": 3577,
      "term": 3578,
      "celebr": 3579,
      "unexpected": 3580,
      "rot": 3581,
      "chin": 3582,
      "dexter": 3583,
      "sume": 3584,
      "comin": 3585,
      "exha": 3586,
      "exped": 3587,
      "dock": 3588,
      "notwithstanding": 3589,
      "obst": 3590,
      "ilt": 3591,
      "ables": 3592,
      "itten": 3593,
      "progress": 3594,
      "Hear": 3595,
      "illust": 3596,
      "strugg": 3597,
      "acknow": 3598,
      "greatcoat": 3599,
      "knowing": 3600,
      "plex": 3601,
      "brush": 3602,
      "closet": 3603,
      "firmat": 3604,
      "hosp": 3605,
      "reduced": 3606,
      "appearing": 3607,
      "contest": 3608,
      "cheering": 3609,
      "brea": 3610,
      "hearts": 3611,
      "instance": 3612,
      "unds": 3613,
      "unders": 3614,
      "avay": 3615,
      "However": 3616,
      "curtain": 3617,
      "smiles": 3618,
      "forthwith": 3619,
      "remarks": 3620,
      "kindness": 3621,
      "stool": 3622,
      "circle": 3623,
      "humoured": 3624,
      "ceived": 3625,
      "walls": 3626,
      "quarters": 3627,
      "Only": 3628,
      "solemnly": 3629,
      "previously": 3630,
      "answered": 3631,
      "communicated": 3632,
      "catch": 3633,
      "degrees": 3634,
      "thrusting": 3635,
      "striking": 3636,
      "intimate": 3637,
      "sighed": 3638,
      "invitation": 3639,
      "earnestly": 3640,
      "speedily": 3641,
      "furnished": 3642,
      "coughed": 3643,
      "finger": 3644,
      "shriek": 3645,
      "demanded": 3646,
      "wooden": 3647,
      "increased": 3648,
      "precisely": 3649,
      "powdered": 3650,
      "faithful": 3651,
      "message": 3652,
      "Vulture": 3653,
      "ashamed": 3654,
      "Bo": 3655,
      "Ed": 3656,
      "LI": 3657,
      "Me": 3658,
      "Nor": 3659,
      "Two": 3660,
      "VER": 3661,
      "bac": 3662,
      "bones": 3663,
      "dom": 3664,
      "dart": 3665,
      "emotion": 3666,
      "fain": 3667,
      "fainted": 3668,
      "gers": 3669,
      "hed": 3670,
      "lers": 3671,
      "mul": 3672,
      "munds": 3673,
      "pence": 3674,
      "rent": 3675,
      "swi": 3676,
      "sink": 3677,
      "tree": 3678,
      "tip": 3679,
      "treat": 3680,
      "vig": 3681,
      "inj": 3682,
      "informed": 3683,
      "erday": 3684,
      "ision": 3685,
      "isters": 3686,
      "assure": 3687,
      "assumed": 3688,
      "hest": 3689,
      "stem": 3690,
      "stagg": 3691,
      "settle": 3692,
      "beat": 3693,
      "escap": 3694,
      "aches": 3695,
      "alight": 3696,
      "lies": 3697,
      "uncertain": 3698,
      "roy": 3699,
      "ooh": 3700,
      "demean": 3701,
      "abrupt": 3702,
      "agitated": 3703,
      "quis": 3704,
      "excess": 3705,
      "mode": 3706,
      "onel": 3707,
      "rept": 3708,
      "bod": 3709,
      "ify": 3710,
      "indul": 3711,
      "ulty": 3712,
      "hers": 3713,
      "ittee": 3714,
      "awful": 3715,
      "embarr": 3716,
      "grew": 3717,
      "whence": 3718,
      "cking": 3719,
      "handed": 3720,
      "handsome": 3721,
      "esterday": 3722,
      "torted": 3723,
      "scient": 3724,
      "brid": 3725,
      "brass": 3726,
      "brisk": 3727,
      "serious": 3728,
      "shouldn": 3729,
      "dying": 3730,
      "Any": 3731,
      "Ange": 3732,
      "reading": 3733,
      "pressing": 3734,
      "contents": 3735,
      "jolly": 3736,
      "waited": 3737,
      "preser": 3738,
      "presently": 3739,
      "mornin": 3740,
      "instead": 3741,
      "passeng": 3742,
      "surly": 3743,
      "captain": 3744,
      "cured": 3745,
      "fourth": 3746,
      "founded": 3747,
      "ibility": 3748,
      "benevol": 3749,
      "books": 3750,
      "rested": 3751,
      "suffered": 3752,
      "believed": 3753,
      "falling": 3754,
      "honourable": 3755,
      "strongly": 3756,
      "gravely": 3757,
      "clerks": 3758,
      "beauty": 3759,
      "advancing": 3760,
      "custo": 3761,
      "elev": 3762,
      "villain": 3763,
      "probably": 3764,
      "evident": 3765,
      "gallery": 3766,
      "observations": 3767,
      "resolved": 3768,
      "afforded": 3769,
      "travellers": 3770,
      "equal": 3771,
      "mission": 3772,
      "difficulty": 3773,
      "IVE": 3774,
      "beginning": 3775,
      "groan": 3776,
      "comfortably": 3777,
      "bestowed": 3778,
      "graceful": 3779,
      "establishment": 3780,
      "chapter": 3781,
      "departed": 3782,
      "size": 3783,
      "English": 3784,
      "despatched": 3785,
      "gaiters": 3786,
      "symptoms": 3787,
      "Borough": 3788,
      "gravity": 3789,
      "Edmunds": 3790,
      "embarrass": 3791,
      "scientific": 3792,
      "Ar": 3793,
      "Bold": 3794,
      "Col": 3795,
      "Fitz": 3796,
      "King": 3797,
      "Ma": 3798,
      "QU": 3799,
      "Roc": 3800,
      "VI": 3801,
      "Wor": 3802,
      "bare": 3803,
      "cous": 3804,
      "eth": 3805,
      "gather": 3806,
      "hone": 3807,
      "ier": 3808,
      "lawyer": 3809,
      "oath": 3810,
      "pun": 3811,
      "path": 3812,
      "rence": 3813,
      "sword": 3814,
      "tong": 3815,
      "vin": 3816,
      "virt": 3817,
      "yesterday": 3818,
      "ency": 3819,
      "rec": 3820,
      "toss": 3821,
      "lest": 3822,
      "hester": 3823,
      "heerd": 3824,
      "ided": 3825,
      "hack": 3826,
      "omon": 3827,
      "enter": 3828,
      "withdrew": 3829,
      "vel": 3830,
      "velo": 3831,
      "adjust": 3832,
      "alive": 3833,
      "alarmed": 3834,
      "living": 3835,
      "forty": 3836,
      "urged": 3837,
      "abled": 3838,
      "meant": 3839,
      "pel": 3840,
      "agre": 3841,
      "congrat": 3842,
      "shot": 3843,
      "nel": 3844,
      "restor": 3845,
      "cott": 3846,
      "coaches": 3847,
      "umbre": 3848,
      "oted": 3849,
      "grou": 3850,
      "discharge": 3851,
      "affect": 3852,
      "affirmat": 3853,
      "aware": 3854,
      "assent": 3855,
      "greet": 3856,
      "ops": 3857,
      "blush": 3858,
      "tood": 3859,
      "clenched": 3860,
      "smell": 3861,
      "closure": 3862,
      "tens": 3863,
      "angers": 3864,
      "design": 3865,
      "contri": 3866,
      "teeth": 3867,
      "commence": 3868,
      "committee": 3869,
      "ruff": 3870,
      "While": 3871,
      "vial": 3872,
      "breast": 3873,
      "breaking": 3874,
      "venture": 3875,
      "observing": 3876,
      "ANT": 3877,
      "ference": 3878,
      "sedan": 3879,
      "meanwhile": 3880,
      "Thus": 3881,
      "written": 3882,
      "distant": 3883,
      "distress": 3884,
      "guess": 3885,
      "placing": 3886,
      "marry": 3887,
      "spoken": 3888,
      "ashing": 3889,
      "memory": 3890,
      "ugs": 3891,
      "refresh": 3892,
      "pieces": 3893,
      "humble": 3894,
      "restless": 3895,
      "suffering": 3896,
      "sounds": 3897,
      "repeat": 3898,
      "objects": 3899,
      "snug": 3900,
      "footsteps": 3901,
      "leader": 3902,
      "characters": 3903,
      "mistake": 3904,
      "mistaken": 3905,
      "frequ": 3906,
      "Marshall": 3907,
      "OUR": 3908,
      "troubled": 3909,
      "constant": 3910,
      "remembered": 3911,
      "touching": 3912,
      "regarded": 3913,
      "Bristol": 3914,
      "grasping": 3915,
      "softly": 3916,
      "Common": 3917,
      "possession": 3918,
      "music": 3919,
      "reference": 3920,
      "bestowing": 3921,
      "alarming": 3922,
      "delicate": 3923,
      "fingers": 3924,
      "consult": 3925,
      "similar": 3926,
      "repaired": 3927,
      "slee": 3928,
      "example": 3929,
      "preparations": 3930,
      "innocent": 3931,
      "slip": 3932,
      "rascal": 3933,
      "connected": 3934,
      "distinguished": 3935,
      "surrounded": 3936,
      "Bella": 3937,
      "demonstr": 3938,
      "domestic": 3939,
      "relieved": 3940,
      "draught": 3941,
      "ingenious": 3942,
      "absence": 3943,
      "Hopkins": 3944,
      "Solomon": 3945,
      "celebrated": 3946,
      "exhaust": 3947,
      "understood": 3948,
      "mulberry": 3949,
      "Rochester": 3950,
      "cousin": 3951,
      "hackney": 3952,
      "umbrell": 3953,
      "affirmative": 3954,
      "AG": 3955,
      "Ac": 3956,
      "De": 3957,
      "Dum": 3958,
      "From": 3959,
      "Give": 3960,
      "HE": 3961,
      "Has": 3962,
      "HIS": 3963,
      "Humm": 3964,
      "Lor": 3965,
      "Man": 3966,
      "SAM": 3967,
      "Whe": 3968,
      "bon": 3969,
      "bent": 3970,
      "dream": 3971,
      "eloqu": 3972,
      "fut": 3973,
      "iqu": 3974,
      "lugg": 3975,
      "mence": 3976,
      "mach": 3977,
      "nesses": 3978,
      "pent": 3979,
      "sne": 3980,
      "vil": 3981,
      "wer": 3982,
      "yling": 3983,
      "’--": 3984,
      "inas": 3985,
      "enant": 3986,
      "enced": 3987,
      "rele": 3988,
      "ises": 3989,
      "issu": 3990,
      "asping": 3991,
      "leaves": 3992,
      "iture": 3993,
      "seas": 3994,
      "history": 3995,
      "impart": 3996,
      "impat": 3997,
      "nother": 3998,
      "alous": 3999,
      "alker": 4000,
      "livery": 4001,
      "pets": 4002,
      "agon": 4003,
      "excl": 4004,
      "expen": 4005,
      "exchanged": 4006,
      "aps": 4007,
      "apped": 4008,
      "neat": 4009,
      "indic": 4010,
      "coin": 4011,
      "raise": 4012,
      "plan": 4013,
      "arest": 4014,
      "prolong": 4015,
      "proposition": 4016,
      "discourse": 4017,
      "discover": 4018,
      "disclosed": 4019,
      "disgust": 4020,
      "elbow": 4021,
      "otherwise": 4022,
      "somewhere": 4023,
      "prud": 4024,
      "Heyling": 4025,
      "trans": 4026,
      "mental": 4027,
      "greatly": 4028,
      "forehead": 4029,
      "willing": 4030,
      "gov": 4031,
      "spend": 4032,
      "glancing": 4033,
      "desir": 4034,
      "appears": 4035,
      "extended": 4036,
      "attent": 4037,
      "gging": 4038,
      "chemist": 4039,
      "Tommy": 4040,
      "feroc": 4041,
      "personage": 4042,
      "forms": 4043,
      "wrist": 4044,
      "laughing": 4045,
      "whisk": 4046,
      "broke": 4047,
      "relations": 4048,
      "vided": 4049,
      "purch": 4050,
      "solic": 4051,
      "seems": 4052,
      "whispering": 4053,
      "sentiment": 4054,
      "powers": 4055,
      "magn": 4056,
      "calc": 4057,
      "result": 4058,
      "hurt": 4059,
      "pulling": 4060,
      "system": 4061,
      "shouts": 4062,
      "reasonable": 4063,
      "slum": 4064,
      "moral": 4065,
      "damp": 4066,
      "Goodwin": 4067,
      "eleven": 4068,
      "costume": 4069,
      "affectionate": 4070,
      "catching": 4071,
      "touched": 4072,
      "travelling": 4073,
      "gyman": 4074,
      "tumbler": 4075,
      "experi": 4076,
      "displayed": 4077,
      "audible": 4078,
      "visitors": 4079,
      "stockings": 4080,
      "burning": 4081,
      "instru": 4082,
      "authority": 4083,
      "Poor": 4084,
      "splend": 4085,
      "enthusiastic": 4086,
      "additional": 4087,
      "approaching": 4088,
      "succeeded": 4089,
      "style": 4090,
      "represent": 4091,
      "struggling": 4092,
      "inscription": 4093,
      "lonely": 4094,
      "announcement": 4095,
      "nervous": 4096,
      "ancient": 4097,
      "acknowled": 4098,
      "escaped": 4099,
      "demeanour": 4100,
      "passengers": 4101,
      "Boldwig": 4102,
      "Colonel": 4103,
      "inasmuch": 4104,
      "Another": 4105,
      "Ba": 4106,
      "DE": 4107,
      "Eh": 4108,
      "Gos": 4109,
      "Hold": 4110,
      "Im": 4111,
      "Look": 4112,
      "May": 4113,
      "Many": 4114,
      "MAT": 4115,
      "NE": 4116,
      "Se": 4117,
      "Sh": 4118,
      "US": 4119,
      "UEL": 4120,
      "ah": 4121,
      "apo": 4122,
      "cdo": 4123,
      "cru": 4124,
      "ddy": 4125,
      "fish": 4126,
      "free": 4127,
      "faster": 4128,
      "ger": 4129,
      "gown": 4130,
      "gment": 4131,
      "kward": 4132,
      "lk": 4133,
      "mour": 4134,
      "mixed": 4135,
      "ock": 4136,
      "phe": 4137,
      "pity": 4138,
      "sought": 4139,
      "tra": 4140,
      "temporary": 4141,
      "xen": 4142,
      "yo": 4143,
      "infer": 4144,
      "errand": 4145,
      "encoun": 4146,
      "atic": 4147,
      "regre": 4148,
      "receive": 4149,
      "toe": 4150,
      "asc": 4151,
      "itive": 4152,
      "stro": 4153,
      "stud": 4154,
      "sey": 4155,
      "sevent": 4156,
      "omin": 4157,
      "irr": 4158,
      "beam": 4159,
      "lif": 4160,
      "liqu": 4161,
      "upright": 4162,
      "unable": 4163,
      "uncomfortable": 4164,
      "roo": 4165,
      "Pickwickian": 4166,
      "cher": 4167,
      "utenant": 4168,
      "deed": 4169,
      "decent": 4170,
      "defi": 4171,
      "absur": 4172,
      "meat": 4173,
      "pest": 4174,
      "poker": 4175,
      "conver": 4176,
      "consol": 4177,
      "fet": 4178,
      "feather": 4179,
      "mob": 4180,
      "moon": 4181,
      "moder": 4182,
      "ounced": 4183,
      "resid": 4184,
      "ends": 4185,
      "perspir": 4186,
      "ulous": 4187,
      "cocked": 4188,
      "atest": 4189,
      "rath": 4190,
      "plent": 4191,
      "uments": 4192,
      "disput": 4193,
      "awkward": 4194,
      "assur": 4195,
      "hats": 4196,
      "tray": 4197,
      "handle": 4198,
      "stru": 4199,
      "strangers": 4200,
      "bley": 4201,
      "retire": 4202,
      "partly": 4203,
      "venge": 4204,
      "smalle": 4205,
      "scorn": 4206,
      "cloak": 4207,
      "closing": 4208,
      "glow": 4209,
      "thinks": 4210,
      "desk": 4211,
      "beds": 4212,
      "presume": 4213,
      "attack": 4214,
      "vixen": 4215,
      "pleased": 4216,
      "hearted": 4217,
      "begun": 4218,
      "Stay": 4219,
      "dub": 4220,
      "flatter": 4221,
      "follows": 4222,
      "writ": 4223,
      "colour": 4224,
      "placid": 4225,
      "relap": 4226,
      "relative": 4227,
      "telling": 4228,
      "member": 4229,
      "playing": 4230,
      "spectator": 4231,
      "corners": 4232,
      "pike": 4233,
      "works": 4234,
      "rubbed": 4235,
      "haste": 4236,
      "dressing": 4237,
      "anecdo": 4238,
      "summer": 4239,
      "immediate": 4240,
      "violently": 4241,
      "warmly": 4242,
      "licence": 4243,
      "impud": 4244,
      "assisted": 4245,
      "prevailed": 4246,
      "corp": 4247,
      "Beg": 4248,
      "Because": 4249,
      "evinced": 4250,
      "allowed": 4251,
      "constit": 4252,
      "constantly": 4253,
      "village": 4254,
      "declared": 4255,
      "gazing": 4256,
      "powerful": 4257,
      "winked": 4258,
      "fields": 4259,
      "vays": 4260,
      "grasped": 4261,
      "limbs": 4262,
      "cheerfulness": 4263,
      "experience": 4264,
      "arrangements": 4265,
      "rapidly": 4266,
      "alley": 4267,
      "flew": 4268,
      "leaning": 4269,
      "endeavouring": 4270,
      "desperate": 4271,
      "material": 4272,
      "disturbed": 4273,
      "vehemence": 4274,
      "abstract": 4275,
      "cheeks": 4276,
      "basket": 4277,
      "crimson": 4278,
      "mirth": 4279,
      "coolly": 4280,
      "familiar": 4281,
      "honest": 4282,
      "agreed": 4283,
      "SAMUEL": 4284,
      "Whether": 4285,
      "future": 4286,
      "Goswell": 4287,
      "absurd": 4288,
      "smallest": 4289,
      "vixenish": 4290,
      ",--": 4291,
      "CL": 4292,
      "Cr": 4293,
      "CRI": 4294,
      "Es": 4295,
      "Get": 4296,
      "High": 4297,
      "Miv": 4298,
      "Ple": 4299,
      "Pay": 4300,
      "PAR": 4301,
      "SE": 4302,
      "Sk": 4303,
      "Won": 4304,
      "Walker": 4305,
      "XL": 4306,
      "bread": 4307,
      "dull": 4308,
      "fly": 4309,
      "fight": 4310,
      "gained": 4311,
      "hig": 4312,
      "iated": 4313,
      "mil": 4314,
      "mild": 4315,
      "poured": 4316,
      "ram": 4317,
      "sion": 4318,
      "sip": 4319,
      "skin": 4320,
      "tic": 4321,
      "tired": 4322,
      "va": 4323,
      "wrath": 4324,
      "ze": 4325,
      "thum": 4326,
      "inner": 4327,
      "infirm": 4328,
      "inconven": 4329,
      "infant": 4330,
      "anity": 4331,
      "ench": 4332,
      "ensued": 4333,
      "enabled": 4334,
      "atio": 4335,
      "retorted": 4336,
      "ism": 4337,
      "tops": 4338,
      "llen": 4339,
      "star": 4340,
      "stable": 4341,
      "sters": 4342,
      "sea": 4343,
      "becoming": 4344,
      "begged": 4345,
      "entering": 4346,
      "accompany": 4347,
      "amented": 4348,
      "amidst": 4349,
      "ghost": 4350,
      "fork": 4351,
      "forced": 4352,
      "uph": 4353,
      "unusual": 4354,
      "uted": 4355,
      "dee": 4356,
      "pett": 4357,
      "aging": 4358,
      "myst": 4359,
      "excuse": 4360,
      "apprehens": 4361,
      "doin": 4362,
      "docum": 4363,
      "repro": 4364,
      "perplex": 4365,
      "induce": 4366,
      "rail": 4367,
      "geon": 4368,
      "grate": 4369,
      "prote": 4370,
      "greatest": 4371,
      "prince": 4372,
      "therein": 4373,
      "thereof": 4374,
      "iller": 4375,
      "train": 4376,
      "intended": 4377,
      "scor": 4378,
      "scattered": 4379,
      "bran": 4380,
      "brain": 4381,
      "actually": 4382,
      "glor": 4383,
      "glowing": 4384,
      "glanced": 4385,
      "inquire": 4386,
      "medical": 4387,
      "hoarse": 4388,
      "desired": 4389,
      "despair": 4390,
      "compass": 4391,
      "hasn": 4392,
      "chest": 4393,
      "crum": 4394,
      "crack": 4395,
      "shortly": 4396,
      "Thom": 4397,
      "possibility": 4398,
      "guine": 4399,
      "market": 4400,
      "rels": 4401,
      "relation": 4402,
      "pursuit": 4403,
      "nearer": 4404,
      "ceptible": 4405,
      "reflect": 4406,
      "bowl": 4407,
      "worked": 4408,
      "clergyman": 4409,
      "sym": 4410,
      "Rogers": 4411,
      "tale": 4412,
      "yards": 4413,
      "lines": 4414,
      "interested": 4415,
      "wonderful": 4416,
      "solemnity": 4417,
      "impin": 4418,
      "necessity": 4419,
      "gratification": 4420,
      "huge": 4421,
      "producing": 4422,
      "trembled": 4423,
      "respectable": 4424,
      "interruption": 4425,
      "steadily": 4426,
      "probability": 4427,
      "resolution": 4428,
      "confident": 4429,
      "procession": 4430,
      "equally": 4431,
      "jesty": 4432,
      "render": 4433,
      "prevented": 4434,
      "hyster": 4435,
      "STR": 4436,
      "Veller": 4437,
      "furniture": 4438,
      "neighbourhood": 4439,
      "labour": 4440,
      "suspicious": 4441,
      "exerc": 4442,
      "Horatio": 4443,
      "involunt": 4444,
      "heels": 4445,
      "thoroughly": 4446,
      "blazing": 4447,
      "supported": 4448,
      "gloomy": 4449,
      "politeness": 4450,
      "perpetual": 4451,
      "welcome": 4452,
      "imagination": 4453,
      "philosoph": 4454,
      "ogue": 4455,
      "cunning": 4456,
      "recorded": 4457,
      "expedition": 4458,
      "Majesty": 4459,
      "tongue": 4460,
      "restored": 4461,
      "affecting": 4462,
      "bonne": 4463,
      "season": 4464,
      "prolonged": 4465,
      "whiskers": 4466,
      "Esq": 4467,
      "Mivins": 4468,
      "Skimpin": 4469,
      "highest": 4470,
      "Bro": 4471,
      "Could": 4472,
      "COUN": 4473,
      "Dam": 4474,
      "Dub": 4475,
      "Gunter": 4476,
      "IM": 4477,
      "Lu": 4478,
      "Lane": 4479,
      "Miller": 4480,
      "New": 4481,
      "OD": 4482,
      "Put": 4483,
      "POR": 4484,
      "RY": 4485,
      "Str": 4486,
      "See": 4487,
      "UR": 4488,
      "Would": 4489,
      "_is": 4490,
      "_you": 4491,
      "bull": 4492,
      "dine": 4493,
      "dial": 4494,
      "fix": 4495,
      "gs": 4496,
      "gin": 4497,
      "gies": 4498,
      "hide": 4499,
      "ips": 4500,
      "jun": 4501,
      "mare": 4502,
      "nonsense": 4503,
      "pave": 4504,
      "pump": 4505,
      "rene": 4506,
      "soo": 4507,
      "sist": 4508,
      "ture": 4509,
      "vit": 4510,
      "ining": 4511,
      "erchief": 4512,
      "outer": 4513,
      "repose": 4514,
      "recover": 4515,
      "token": 4516,
      "asm": 4517,
      "icine": 4518,
      "aries": 4519,
      "arose": 4520,
      "lling": 4521,
      "iding": 4522,
      "haven": 4523,
      "sauce": 4524,
      "esca": 4525,
      "impl": 4526,
      "accompl": 4527,
      "acock": 4528,
      "vern": 4529,
      "ads": 4530,
      "ghast": 4531,
      "alike": 4532,
      "manners": 4533,
      "forci": 4534,
      "forts": 4535,
      "terror": 4536,
      "ceiling": 4537,
      "une": 4538,
      "unanim": 4539,
      "unnecessary": 4540,
      "oose": 4541,
      "ooting": 4542,
      "deaf": 4543,
      "depri": 4544,
      "debt": 4545,
      "absor": 4546,
      "meal": 4547,
      "agement": 4548,
      "agitation": 4549,
      "composed": 4550,
      "exquis": 4551,
      "appoint": 4552,
      "notic": 4553,
      "boister": 4554,
      "persever": 4555,
      "cock": 4556,
      "obsc": 4557,
      "prove": 4558,
      "propose": 4559,
      "dismounted": 4560,
      "somehow": 4561,
      "oping": 4562,
      "thereby": 4563,
      "orders": 4564,
      "Heaven": 4565,
      "clasped": 4566,
      "eping": 4567,
      "mense": 4568,
      "foreign": 4569,
      "partner": 4570,
      "partially": 4571,
      "ornamented": 4572,
      "spap": 4573,
      "serve": 4574,
      "chapel": 4575,
      "shame": 4576,
      "lights": 4577,
      "desp": 4578,
      "voc": 4579,
      "Noddy": 4580,
      "attended": 4581,
      "attitude": 4582,
      "worst": 4583,
      "civil": 4584,
      "joke": 4585,
      "understanding": 4586,
      "watched": 4587,
      "interval": 4588,
      "portman": 4589,
      "efforts": 4590,
      "THER": 4591,
      "newspap": 4592,
      "ANCE": 4593,
      "stepping": 4594,
      "expressions": 4595,
      "Think": 4596,
      "collected": 4597,
      "cript": 4598,
      "priety": 4599,
      "eyeing": 4600,
      "memor": 4601,
      "farther": 4602,
      "ceiving": 4603,
      "suffer": 4604,
      "shouting": 4605,
      "aneously": 4606,
      "indignantly": 4607,
      "summon": 4608,
      "complaint": 4609,
      "approached": 4610,
      "divers": 4611,
      "sleeping": 4612,
      "advice": 4613,
      "soften": 4614,
      "witnesses": 4615,
      "screaming": 4616,
      "swear": 4617,
      "evil": 4618,
      "cards": 4619,
      "steady": 4620,
      "females": 4621,
      "weeks": 4622,
      "impressive": 4623,
      "surprised": 4624,
      "gallant": 4625,
      "gamekeeper": 4626,
      "favourable": 4627,
      "Peacock": 4628,
      "neckerchief": 4629,
      "traveller": 4630,
      "signed": 4631,
      "bringing": 4632,
      "knee": 4633,
      "inquiries": 4634,
      "frightful": 4635,
      "introduce": 4636,
      "introduced": 4637,
      "grasp": 4638,
      "bounded": 4639,
      "trusted": 4640,
      "mutual": 4641,
      "reflections": 4642,
      "conviction": 4643,
      "arrangement": 4644,
      "awaken": 4645,
      "anticip": 4646,
      "sports": 4647,
      "peeped": 4648,
      "title": 4649,
      "popular": 4650,
      "shillings": 4651,
      "affairs": 4652,
      "preceding": 4653,
      "benef": 4654,
      "caution": 4655,
      "oysters": 4656,
      "exhibited": 4657,
      "OLD": 4658,
      "gammon": 4659,
      "jumped": 4660,
      "rusty": 4661,
      "argument": 4662,
      "foolish": 4663,
      "separated": 4664,
      "coolness": 4665,
      "afeerd": 4666,
      "insult": 4667,
      "sadd": 4668,
      "recommend": 4669,
      "swift": 4670,
      "abruptly": 4671,
      "benevolent": 4672,
      "blushing": 4673,
      "exhausted": 4674,
      "Dumkins": 4675,
      "luggage": 4676,
      "mourn": 4677,
      "encountered": 4678,
      "regret": 4679,
      "defiance": 4680,
      "perspiration": 4681,
      "mystery": 4682,
      "Thomas": 4683,
      "Brother": 4684,
      "Dubbley": 4685,
      "_is_": 4686,
      "escape": 4687,
      "AB": 4688,
      "AY": 4689,
      "Am": 4690,
      "ALL": 4691,
      "Bu": 4692,
      "CT": 4693,
      "Co": 4694,
      "Call": 4695,
      "COM": 4696,
      "Dis": 4697,
      "DES": 4698,
      "DIS": 4699,
      "EF": 4700,
      "Fine": 4701,
      "Her": 4702,
      "Nam": 4703,
      "Nonsense": 4704,
      "Off": 4705,
      "PT": 4706,
      "Pro": 4707,
      "Squ": 4708,
      "SHOW": 4709,
      "Up": 4710,
      "Wicks": 4711,
      "avo": 4712,
      "bout": 4713,
      "bug": 4714,
      "cure": 4715,
      "ec": 4716,
      "eating": 4717,
      "gasped": 4718,
      "ius": 4719,
      "kens": 4720,
      "lu": 4721,
      "lid": 4722,
      "later": 4723,
      "langu": 4724,
      "mass": 4725,
      "muff": 4726,
      "oke": 4727,
      "pig": 4728,
      "ric": 4729,
      "ral": 4730,
      "riment": 4731,
      "sand": 4732,
      "snat": 4733,
      "tal": 4734,
      "tied": 4735,
      "vor": 4736,
      "vile": 4737,
      "xom": 4738,
      "ye": 4739,
      "ys": 4740,
      "zard": 4741,
      "ines": 4742,
      "inch": 4743,
      "invest": 4744,
      "angled": 4745,
      "annel": 4746,
      "thed": 4747,
      "ouch": 4748,
      "resem": 4749,
      "tore": 4750,
      "ascertain": 4751,
      "lli": 4752,
      "height": 4753,
      "stu": 4754,
      "stam": 4755,
      "stream": 4756,
      "stained": 4757,
      "stones": 4758,
      "staff": 4759,
      "hazard": 4760,
      "seld": 4761,
      "sett": 4762,
      "seating": 4763,
      "select": 4764,
      "entire": 4765,
      "acket": 4766,
      "ading": 4767,
      "adop": 4768,
      "admon": 4769,
      "advis": 4770,
      "alvays": 4771,
      "uni": 4772,
      "unconscious": 4773,
      "roaring": 4774,
      "rocer": 4775,
      "chor": 4776,
      "utation": 4777,
      "utions": 4778,
      "deput": 4779,
      "posal": 4780,
      "conspir": 4781,
      "shone": 4782,
      "complac": 4783,
      "ource": 4784,
      "ourselves": 4785,
      "move": 4786,
      "sobbed": 4787,
      "repl": 4788,
      "negle": 4789,
      "reser": 4790,
      "bott": 4791,
      "anting": 4792,
      "frag": 4793,
      "frame": 4794,
      "ifying": 4795,
      "ulations": 4796,
      "covery": 4797,
      "weight": 4798,
      "discer": 4799,
      "disappointed": 4800,
      "disclosure": 4801,
      "awoke": 4802,
      "yourn": 4803,
      "greeng": 4804,
      "pred": 4805,
      "prim": 4806,
      "ckon": 4807,
      "clim": 4808,
      "strict": 4809,
      "intently": 4810,
      "glist": 4811,
      "medit": 4812,
      "meditation": 4813,
      "medicine": 4814,
      "jealous": 4815,
      "preci": 4816,
      "stories": 4817,
      "turns": 4818,
      "readiness": 4819,
      "complied": 4820,
      "match": 4821,
      "contented": 4822,
      "courage": 4823,
      "chee": 4824,
      "minded": 4825,
      "merriment": 4826,
      "waters": 4827,
      "drown": 4828,
      "ventured": 4829,
      "wont": 4830,
      "flung": 4831,
      "happen": 4832,
      "ferred": 4833,
      "independ": 4834,
      "capacious": 4835,
      "TERS": 4836,
      "guest": 4837,
      "ushered": 4838,
      "waiters": 4839,
      "arterwards": 4840,
      "fourteen": 4841,
      "facet": 4842,
      "emptied": 4843,
      "patron": 4844,
      "confined": 4845,
      "runs": 4846,
      "pier": 4847,
      "rumin": 4848,
      "useful": 4849,
      "trying": 4850,
      "grounds": 4851,
      "sorts": 4852,
      "loudly": 4853,
      "admit": 4854,
      "gleam": 4855,
      "compliments": 4856,
      "ESS": 4857,
      "drive": 4858,
      "postboy": 4859,
      "wondering": 4860,
      "ctors": 4861,
      "damn": 4862,
      "casting": 4863,
      "III": 4864,
      "Lordship": 4865,
      "naturally": 4866,
      "receiving": 4867,
      "bags": 4868,
      "attorneys": 4869,
      "kissing": 4870,
      "wheeled": 4871,
      "affectionately": 4872,
      "favourite": 4873,
      "sugar": 4874,
      "utely": 4875,
      "explain": 4876,
      "explained": 4877,
      "precious": 4878,
      "regarding": 4879,
      "buxom": 4880,
      "require": 4881,
      "seizing": 4882,
      "borough": 4883,
      "winking": 4884,
      "bald": 4885,
      "dogs": 4886,
      "article": 4887,
      "mutton": 4888,
      "safety": 4889,
      "possessed": 4890,
      "distinct": 4891,
      "displaying": 4892,
      "lodger": 4893,
      "shrill": 4894,
      "applause": 4895,
      "Clubber": 4896,
      "debtors": 4897,
      "suspicion": 4898,
      "innoc": 4899,
      "rattled": 4900,
      "inclined": 4901,
      "belonged": 4902,
      "vehement": 4903,
      "dangerous": 4904,
      "accepted": 4905,
      "adventures": 4906,
      "deliberation": 4907,
      "pictures": 4908,
      "liberty": 4909,
      "grief": 4910,
      "measure": 4911,
      "lucky": 4912,
      "operation": 4913,
      "vagab": 4914,
      "theatre": 4915,
      "dexterity": 4916,
      "obstin": 4917,
      "excessive": 4918,
      "contrived": 4919,
      "umbrella": 4920,
      "cruel": 4921,
      "residence": 4922,
      "plenty": 4923,
      "spectators": 4924,
      "abstracted": 4925,
      "Payne": 4926,
      "exquisite": 4927,
      "DESCRI": 4928,
      "Namby": 4929,
      "Square": 4930,
      "seldom": 4931,
      "deputy": 4932,
      "bottles": 4933,
      "greengrocer": 4934,
      "AIN": 4935,
      "BL": 4936,
      "Che": 4937,
      "EX": 4938,
      "FU": 4939,
      "FOR": 4940,
      "GR": 4941,
      "Gray": 4942,
      "Hall": 4943,
      "Isa": 4944,
      "Most": 4945,
      "None": 4946,
      "Par": 4947,
      "Por": 4948,
      "PLE": 4949,
      "Que": 4950,
      "Rob": 4951,
      "Simm": 4952,
      "TS": 4953,
      "Town": 4954,
      "bi": 4955,
      "bby": 4956,
      "bak": 4957,
      "cro": 4958,
      "cular": 4959,
      "camp": 4960,
      "dick": 4961,
      "eel": 4962,
      "fic": 4963,
      "ffe": 4964,
      "fil": 4965,
      "gout": 4966,
      "hun": 4967,
      "hang": 4968,
      "hanging": 4969,
      "mix": 4970,
      "mult": 4971,
      "mute": 4972,
      "nly": 4973,
      "painted": 4974,
      "sw": 4975,
      "sar": 4976,
      "sworn": 4977,
      "tender": 4978,
      "von": 4979,
      "vac": 4980,
      "vast": 4981,
      "wound": 4982,
      "warr": 4983,
      "yield": 4984,
      "’.": 4985,
      "theless": 4986,
      "rey": 4987,
      "reins": 4988,
      "recent": 4989,
      "revenge": 4990,
      "toes": 4991,
      "tobac": 4992,
      "ley": 4993,
      "orm": 4994,
      "heed": 4995,
      "itively": 4996,
      "sted": 4997,
      "stup": 4998,
      "stated": 4999,
      "stiff": 5000,
      "idle": 5001,
      "hab": 5002,
      "whither": 5003,
      "iration": 5004,
      "bet": 5005,
      "behalf": 5006,
      "beckon": 5007,
      "immense": 5008,
      "verty": 5009,
      "ades": 5010,
      "aling": 5011,
      "mant": 5012,
      "liance": 5013,
      "liest": 5014,
      "liken": 5015,
      "liament": 5016,
      "tering": 5017,
      "unspeak": 5018,
      "chance": 5019,
      "poverty": 5020,
      "containing": 5021,
      "shed": 5022,
      "shru": 5023,
      "ards": 5024,
      "quant": 5025,
      "comer": 5026,
      "comprehens": 5027,
      "exceed": 5028,
      "exert": 5029,
      "extens": 5030,
      "mot": 5031,
      "cting": 5032,
      "aped": 5033,
      "replace": 5034,
      "neg": 5035,
      "resort": 5036,
      "reside": 5037,
      "eties": 5038,
      "antiqu": 5039,
      "pers": 5040,
      "perform": 5041,
      "permission": 5042,
      "indis": 5043,
      "owner": 5044,
      "raz": 5045,
      "planted": 5046,
      "arel": 5047,
      "wept": 5048,
      "dischar": 5049,
      "disposition": 5050,
      "dissip": 5051,
      "awa": 5052,
      "istic": 5053,
      "estim": 5054,
      "friendship": 5055,
      "parts": 5056,
      "partick": 5057,
      "bride": 5058,
      "tenant": 5059,
      "madness": 5060,
      "Nobody": 5061,
      "prelim": 5062,
      "appearances": 5063,
      "failed": 5064,
      "readers": 5065,
      "nevertheless": 5066,
      "hasis": 5067,
      "teau": 5068,
      "cheap": 5069,
      "commit": 5070,
      "committed": 5071,
      "vessel": 5072,
      "waving": 5073,
      "walks": 5074,
      "crash": 5075,
      "Indeed": 5076,
      "drab": 5077,
      "breach": 5078,
      "vented": 5079,
      "INTER": 5080,
      "wonted": 5081,
      "coats": 5082,
      "carving": 5083,
      "flour": 5084,
      "undress": 5085,
      "Tomkins": 5086,
      "ancery": 5087,
      "coachmen": 5088,
      "stands": 5089,
      "shorts": 5090,
      "followers": 5091,
      "colours": 5092,
      "Associ": 5093,
      "carelessly": 5094,
      "silver": 5095,
      "busily": 5096,
      "cuff": 5097,
      "cries": 5098,
      "empty": 5099,
      "penny": 5100,
      "keeps": 5101,
      "numbers": 5102,
      "remarkably": 5103,
      "drops": 5104,
      "widder": 5105,
      "tomb": 5106,
      "choice": 5107,
      "questionably": 5108,
      "resting": 5109,
      "emphasis": 5110,
      "prisoners": 5111,
      "tailed": 5112,
      "sumption": 5113,
      "complicated": 5114,
      "appropri": 5115,
      "linen": 5116,
      "doubtful": 5117,
      "apparel": 5118,
      "skir": 5119,
      "warming": 5120,
      "anxiously": 5121,
      "burden": 5122,
      "rushing": 5123,
      "mistress": 5124,
      "societies": 5125,
      "testim": 5126,
      "motionless": 5127,
      "twink": 5128,
      "candles": 5129,
      "bagman": 5130,
      "electors": 5131,
      "feebly": 5132,
      "communicate": 5133,
      "ringing": 5134,
      "fearful": 5135,
      "evidence": 5136,
      "touch": 5137,
      "wedding": 5138,
      "earthly": 5139,
      "inns": 5140,
      "ASS": 5141,
      "brothers": 5142,
      "directions": 5143,
      "secretary": 5144,
      "difference": 5145,
      "blessed": 5146,
      "occupation": 5147,
      "contemplated": 5148,
      "garments": 5149,
      "wretch": 5150,
      "referred": 5151,
      "exception": 5152,
      "fiercely": 5153,
      "briefly": 5154,
      "named": 5155,
      "picked": 5156,
      "washed": 5157,
      "faintly": 5158,
      "transa": 5159,
      "dignified": 5160,
      "deserted": 5161,
      "bustle": 5162,
      "creatures": 5163,
      "established": 5164,
      "concerning": 5165,
      "copy": 5166,
      "exertion": 5167,
      "emphatic": 5168,
      "dimin": 5169,
      "whistling": 5170,
      "entertained": 5171,
      "shilling": 5172,
      "enthusiasm": 5173,
      "grinned": 5174,
      "England": 5175,
      "weakness": 5176,
      "disturb": 5177,
      "Everybody": 5178,
      "sensible": 5179,
      "wandered": 5180,
      "imagine": 5181,
      "TAIN": 5182,
      "majestic": 5183,
      "swallowed": 5184,
      "temptation": 5185,
      "depicted": 5186,
      "identical": 5187,
      "printed": 5188,
      "squeezed": 5189,
      "hidden": 5190,
      "cigar": 5191,
      "pillow": 5192,
      "amazement": 5193,
      "illustrious": 5194,
      "struggle": 5195,
      "curtains": 5196,
      "Mean": 5197,
      "bodily": 5198,
      "briskly": 5199,
      "group": 5200,
      "consultation": 5201,
      "expense": 5202,
      "purchased": 5203,
      "experienced": 5204,
      "seventeen": 5205,
      "dispute": 5206,
      "deepest": 5207,
      "reproach": 5208,
      "grateful": 5209,
      "glorious": 5210,
      "involuntarily": 5211,
      "dialogue": 5212,
      "forcibly": 5213,
      "deprived": 5214,
      "portmanteau": 5215,
      "SHOWING": 5216,
      "study": 5217,
      "uniform": 5218,
      "discern": 5219,
      "guests": 5220,
      "facetious": 5221,
      "vagabond": 5222,
      "Simmery": 5223,
      "dickey": 5224,
      "tobacco": 5225,
      "unspeakable": 5226,
      "extensive": 5227,
      "Association": 5228,
      "7th": 5229,
      "97th": 5230,
      "Aug": 5231,
      "About": 5232,
      "BY": 5233,
      "Bet": 5234,
      "Blad": 5235,
      "Cha": 5236,
      "Cert": 5237,
      "ECT": 5238,
      "Farm": 5239,
      "Hart": 5240,
      "House": 5241,
      "IX": 5242,
      "Mis": 5243,
      "More": 5244,
      "OTHER": 5245,
      "PO": 5246,
      "Pod": 5247,
      "Pooh": 5248,
      "Ram": 5249,
      "REL": 5250,
      "Spe": 5251,
      "Tell": 5252,
      "TANCE": 5253,
      "UM": 5254,
      "_are": 5255,
      "aly": 5256,
      "ban": 5257,
      "bid": 5258,
      "bted": 5259,
      "bidd": 5260,
      "cush": 5261,
      "crept": 5262,
      "dashed": 5263,
      "election": 5264,
      "fow": 5265,
      "fled": 5266,
      "faded": 5267,
      "ga": 5268,
      "gay": 5269,
      "hit": 5270,
      "ium": 5271,
      "iest": 5272,
      "ived": 5273,
      "ilie": 5274,
      "jug": 5275,
      "lam": 5276,
      "lust": 5277,
      "lame": 5278,
      "lunch": 5279,
      "lamp": 5280,
      "mould": 5281,
      "mess": 5282,
      "mud": 5283,
      "nin": 5284,
      "nie": 5285,
      "obey": 5286,
      "pere": 5287,
      "pitch": 5288,
      "rag": 5289,
      "ride": 5290,
      "snow": 5291,
      "tout": 5292,
      "tend": 5293,
      "ule": 5294,
      "usal": 5295,
      "van": 5296,
      "vish": 5297,
      "vious": 5298,
      "wic": 5299,
      "wal": 5300,
      "wake": 5301,
      "’,’": 5302,
      "’?’": 5303,
      "inity": 5304,
      "inward": 5305,
      "invar": 5306,
      "envy": 5307,
      "enorm": 5308,
      "atro": 5309,
      "attract": 5310,
      "reated": 5311,
      "reception": 5312,
      "relief": 5313,
      "asy": 5314,
      "orange": 5315,
      "heum": 5316,
      "straw": 5317,
      "sear": 5318,
      "secut": 5319,
      "icken": 5320,
      "saved": 5321,
      "irresist": 5322,
      "bel": 5323,
      "entry": 5324,
      "imprison": 5325,
      "impet": 5326,
      "immortal": 5327,
      "acing": 5328,
      "acher": 5329,
      "verge": 5330,
      "managed": 5331,
      "manife": 5332,
      "unaccoun": 5333,
      "wicked": 5334,
      "rob": 5335,
      "ribut": 5336,
      "chment": 5337,
      "posure": 5338,
      "agility": 5339,
      "convi": 5340,
      "consist": 5341,
      "shan": 5342,
      "shooting": 5343,
      "quar": 5344,
      "suspe": 5345,
      "fest": 5346,
      "nearest": 5347,
      "boast": 5348,
      "bolt": 5349,
      "antial": 5350,
      "older": 5351,
      "fred": 5352,
      "ifull": 5353,
      "inding": 5354,
      "induced": 5355,
      "ulent": 5356,
      "ulgar": 5357,
      "cod": 5358,
      "cos": 5359,
      "coax": 5360,
      "loved": 5361,
      "raving": 5362,
      "plump": 5363,
      "umn": 5364,
      "grap": 5365,
      "prophe": 5366,
      "disper": 5367,
      "discovery": 5368,
      "affl": 5369,
      "yourselves": 5370,
      "pron": 5371,
      "proffered": 5372,
      "blown": 5373,
      "blers": 5374,
      "blank": 5375,
      "blows": 5376,
      "class": 5377,
      "clasping": 5378,
      "stricken": 5379,
      "sided": 5380,
      "woke": 5381,
      "bles": 5382,
      "moreover": 5383,
      "offin": 5384,
      "thanks": 5385,
      "spare": 5386,
      "space": 5387,
      "scen": 5388,
      "positively": 5389,
      "served": 5390,
      "glimp": 5391,
      "share": 5392,
      "shade": 5393,
      "specially": 5394,
      "seek": 5395,
      "angle": 5396,
      "younger": 5397,
      "desol": 5398,
      "jected": 5399,
      "throng": 5400,
      "fail": 5401,
      "stomach": 5402,
      "nods": 5403,
      "uding": 5404,
      "matrim": 5405,
      "contro": 5406,
      "cheque": 5407,
      "awyers": 5408,
      "ERS": 5409,
      "ruin": 5410,
      "thoughtful": 5411,
      "minds": 5412,
      "parchment": 5413,
      "portra": 5414,
      "itions": 5415,
      "INK": 5416,
      "genius": 5417,
      "letting": 5418,
      "deny": 5419,
      "Stand": 5420,
      "calls": 5421,
      "flag": 5422,
      "fervent": 5423,
      "horri": 5424,
      "personally": 5425,
      "points": 5426,
      "pausing": 5427,
      "Three": 5428,
      "ensions": 5429,
      "capt": 5430,
      "fortnight": 5431,
      "subsided": 5432,
      "presenting": 5433,
      "relate": 5434,
      "vision": 5435,
      "solvent": 5436,
      "solitary": 5437,
      "occasions": 5438,
      "penet": 5439,
      "boxes": 5440,
      "sawbones": 5441,
      "remains": 5442,
      "remaining": 5443,
      "landsc": 5444,
      "Char": 5445,
      "Chancery": 5446,
      "steam": 5447,
      "valu": 5448,
      "ONG": 5449,
      "singing": 5450,
      "admitted": 5451,
      "fireplace": 5452,
      "hasty": 5453,
      "summ": 5454,
      "showed": 5455,
      "fortune": 5456,
      "skates": 5457,
      "animated": 5458,
      "finite": 5459,
      "damned": 5460,
      "fairly": 5461,
      "elsewhere": 5462,
      "effects": 5463,
      "sofa": 5464,
      "gratified": 5465,
      "correspon": 5466,
      "warning": 5467,
      "Leave": 5468,
      "lovely": 5469,
      "cheerfully": 5470,
      "spectacle": 5471,
      "rolling": 5472,
      "brilli": 5473,
      "Emma": 5474,
      "declar": 5475,
      "breathless": 5476,
      "buttoned": 5477,
      "handkerchiefs": 5478,
      "tapped": 5479,
      "sunken": 5480,
      "boarding": 5481,
      "buried": 5482,
      "build": 5483,
      "Christian": 5484,
      "bursting": 5485,
      "borrow": 5486,
      "folding": 5487,
      "consequences": 5488,
      "introduction": 5489,
      "tumult": 5490,
      "intimated": 5491,
      "attempting": 5492,
      "limited": 5493,
      "contemplation": 5494,
      "invited": 5495,
      "suggestion": 5496,
      "chambers": 5497,
      "mingled": 5498,
      "washing": 5499,
      "delicacy": 5500,
      "wisdom": 5501,
      "cabman": 5502,
      "romantic": 5503,
      "reverend": 5504,
      "truly": 5505,
      "transport": 5506,
      "regularly": 5507,
      "Really": 5508,
      "instrument": 5509,
      "peeping": 5510,
      "Price": 5511,
      "shadows": 5512,
      "population": 5513,
      "examined": 5514,
      "tails": 5515,
      "preparatory": 5516,
      "dimensions": 5517,
      "terrible": 5518,
      "terrified": 5519,
      "sympath": 5520,
      "Horse": 5521,
      "poetry": 5522,
      "sternly": 5523,
      "succeeding": 5524,
      "materially": 5525,
      "Although": 5526,
      "Alfred": 5527,
      "abstraction": 5528,
      "persuas": 5529,
      "persuaded": 5530,
      "iterated": 5531,
      "clouds": 5532,
      "recognised": 5533,
      "stirred": 5534,
      "pledged": 5535,
      "employed": 5536,
      "combined": 5537,
      "VIII": 5538,
      "original": 5539,
      "hopes": 5540,
      "qualities": 5541,
      "furious": 5542,
      "hospital": 5543,
      "sinking": 5544,
      "staggered": 5545,
      "Angelo": 5546,
      "elevated": 5547,
      "Worship": 5548,
      "veloped": 5549,
      "adjusted": 5550,
      "sleeves": 5551,
      "Manor": 5552,
      "coincid": 5553,
      "MATTERS": 5554,
      "apolo": 5555,
      "lifted": 5556,
      "assurance": 5557,
      "Pleas": 5558,
      "PART": 5559,
      "apprehension": 5560,
      "compassion": 5561,
      "sympa": 5562,
      "exercise": 5563,
      "bonnet": 5564,
      "pavement": 5565,
      "soothing": 5566,
      "absorbed": 5567,
      "conspiracy": 5568,
      "PLEAS": 5569,
      "likeness": 5570,
      "partickler": 5571,
      "testimony": 5572,
      "Bladud": 5573,
      "Podder": 5574,
      "Ramsey": 5575,
      "peremp": 5576,
      "unaccountable": 5577,
      "convivial": 5578,
      "suspected": 5579,
      "ifully": 5580,
      "Again": 5581,
      "Bury": 5582,
      "Count": 5583,
      "Dut": 5584,
      "During": 5585,
      "Fri": 5586,
      "Gran": 5587,
      "Hot": 5588,
      "Ju": 5589,
      "Jem": 5590,
      "Ke": 5591,
      "Kent": 5592,
      "Lod": 5593,
      "Make": 5594,
      "Mark": 5595,
      "Pret": 5596,
      "STO": 5597,
      "TON": 5598,
      "TED": 5599,
      "Tapple": 5600,
      "West": 5601,
      "Wait": 5602,
      "Wugs": 5603,
      "Youn": 5604,
      "_not": 5605,
      "aver": 5606,
      "ape": 5607,
      "bundle": 5608,
      "base": 5609,
      "cke": 5610,
      "cil": 5611,
      "ders": 5612,
      "dive": 5613,
      "dict": 5614,
      "danced": 5615,
      "dirt": 5616,
      "dancing": 5617,
      "dresses": 5618,
      "dashing": 5619,
      "eld": 5620,
      "egg": 5621,
      "eleg": 5622,
      "fate": 5623,
      "ffo": 5624,
      "farm": 5625,
      "fury": 5626,
      "gilt": 5627,
      "hue": 5628,
      "hither": 5629,
      "hush": 5630,
      "ipped": 5631,
      "iably": 5632,
      "jor": 5633,
      "jist": 5634,
      "knot": 5635,
      "loun": 5636,
      "loose": 5637,
      "lawyers": 5638,
      "mood": 5639,
      "mitted": 5640,
      "nic": 5641,
      "pic": 5642,
      "pes": 5643,
      "pine": 5644,
      "puff": 5645,
      "piring": 5646,
      "paces": 5647,
      "rus": 5648,
      "rated": 5649,
      "rheum": 5650,
      "sco": 5651,
      "sang": 5652,
      "swell": 5653,
      "tes": 5654,
      "trot": 5655,
      "uc": 5656,
      "uit": 5657,
      "vould": 5658,
      "vable": 5659,
      "xed": 5660,
      "thri": 5661,
      "inct": 5662,
      "intrusted": 5663,
      "eration": 5664,
      "eddy": 5665,
      "atch": 5666,
      "attracted": 5667,
      "restr": 5668,
      "asking": 5669,
      "associ": 5670,
      "inging": 5671,
      "icit": 5672,
      "leaf": 5673,
      "leigh": 5674,
      "lled": 5675,
      "org": 5676,
      "ors": 5677,
      "heat": 5678,
      "stations": 5679,
      "stamp": 5680,
      "ides": 5681,
      "haired": 5682,
      "bes": 5683,
      "bewild": 5684,
      "belief": 5685,
      "escri": 5686,
      "accur": 5687,
      "accusto": 5688,
      "amation": 5689,
      "veal": 5690,
      "velve": 5691,
      "lives": 5692,
      "forks": 5693,
      "united": 5694,
      "unwonted": 5695,
      "unquestionably": 5696,
      "riot": 5697,
      "chand": 5698,
      "charm": 5699,
      "changing": 5700,
      "decor": 5701,
      "abroad": 5702,
      "agent": 5703,
      "agony": 5704,
      "condesc": 5705,
      "condescended": 5706,
      "confounded": 5707,
      "quad": 5708,
      "compromise": 5709,
      "moving": 5710,
      "modest": 5711,
      "sold": 5712,
      "thising": 5713,
      "report": 5714,
      "reputation": 5715,
      "inkstand": 5716,
      "permit": 5717,
      "coal": 5718,
      "coarse": 5719,
      "obtain": 5720,
      "plant": 5721,
      "plate": 5722,
      "uscript": 5723,
      "area": 5724,
      "umes": 5725,
      "growing": 5726,
      "gracious": 5727,
      "proportion": 5728,
      "procured": 5729,
      "proposal": 5730,
      "disgu": 5731,
      "disgraceful": 5732,
      "awake": 5733,
      "assid": 5734,
      "price": 5735,
      "timid": 5736,
      "trick": 5737,
      "clay": 5738,
      "audi": 5739,
      "male": 5740,
      "insens": 5741,
      "spent": 5742,
      "sphere": 5743,
      "spade": 5744,
      "scow": 5745,
      "screw": 5746,
      "science": 5747,
      "brim": 5748,
      "closer": 5749,
      "shabby": 5750,
      "lightened": 5751,
      "hollow": 5752,
      "remind": 5753,
      "Nocke": 5754,
      "bedside": 5755,
      "readily": 5756,
      "rightly": 5757,
      "nodding": 5758,
      "compound": 5759,
      "checked": 5760,
      "joyou": 5761,
      "puts": 5762,
      "gettin": 5763,
      "rue": 5764,
      "clever": 5765,
      "engthen": 5766,
      "paraly": 5767,
      "lower": 5768,
      "supposing": 5769,
      "suppressed": 5770,
      "tables": 5771,
      "feels": 5772,
      "Stump": 5773,
      "duly": 5774,
      "flannel": 5775,
      "observer": 5776,
      "ANS": 5777,
      "surtout": 5778,
      "wanting": 5779,
      "expressing": 5780,
      "questions": 5781,
      ".”--“": 5782,
      "formal": 5783,
      "ensive": 5784,
      "indefatig": 5785,
      "facts": 5786,
      "considerably": 5787,
      "knives": 5788,
      "startled": 5789,
      "hopeless": 5790,
      "confused": 5791,
      "Smith": 5792,
      "Smouch": 5793,
      "sentence": 5794,
      "circular": 5795,
      "senses": 5796,
      "steak": 5797,
      "humorous": 5798,
      "severe": 5799,
      "cesses": 5800,
      "rubber": 5801,
      "glee": 5802,
      "towns": 5803,
      "ATIVE": 5804,
      "slam": 5805,
      "approval": 5806,
      "divided": 5807,
      "sixpence": 5808,
      "driving": 5809,
      "driven": 5810,
      "morf": 5811,
      "apply": 5812,
      "applying": 5813,
      "sorrow": 5814,
      "animation": 5815,
      "leads": 5816,
      "bade": 5817,
      "gratitude": 5818,
      "corre": 5819,
      "screams": 5820,
      "receipt": 5821,
      "motioned": 5822,
      "gestures": 5823,
      "swept": 5824,
      "twist": 5825,
      "shops": 5826,
      "secure": 5827,
      "lodge": 5828,
      "shocking": 5829,
      "admirable": 5830,
      "resolutely": 5831,
      "Brick": 5832,
      "strike": 5833,
      "Blaz": 5834,
      "energet": 5835,
      "energies": 5836,
      "polite": 5837,
      "devote": 5838,
      "attempts": 5839,
      "execute": 5840,
      "bail": 5841,
      "bailie": 5842,
      "ivity": 5843,
      "Justice": 5844,
      "candlestick": 5845,
      "treated": 5846,
      "fifteen": 5847,
      "convul": 5848,
      "prehend": 5849,
      "carrying": 5850,
      "rapidity": 5851,
      "WILL": 5852,
      "application": 5853,
      "species": 5854,
      "remonstrance": 5855,
      "deserve": 5856,
      "Capital": 5857,
      "bustling": 5858,
      "burned": 5859,
      "threatened": 5860,
      "threatening": 5861,
      "concerned": 5862,
      "Prince": 5863,
      "faltered": 5864,
      "successful": 5865,
      "endeavoured": 5866,
      "expiration": 5867,
      "desperation": 5868,
      "chambermaid": 5869,
      "imperative": 5870,
      "difficulties": 5871,
      "pushed": 5872,
      "pushing": 5873,
      "rattling": 5874,
      "inclination": 5875,
      "utterance": 5876,
      "conveyed": 5877,
      "triumphantly": 5878,
      "gigantic": 5879,
      "killed": 5880,
      "decidedly": 5881,
      "oyster": 5882,
      "deliberately": 5883,
      "stirring": 5884,
      "surveying": 5885,
      "picture": 5886,
      "wandering": 5887,
      "perpetually": 5888,
      "Saying": 5889,
      "hesitating": 5890,
      "combat": 5891,
      "concealed": 5892,
      "philosopher": 5893,
      "CONTAIN": 5894,
      "packed": 5895,
      "leisurely": 5896,
      "victim": 5897,
      "vicinity": 5898,
      "discussing": 5899,
      "furi": 5900,
      "substantial": 5901,
      "birds": 5902,
      "blot": 5903,
      "hospitable": 5904,
      "darting": 5905,
      "alighted": 5906,
      "embarrassment": 5907,
      "tossed": 5908,
      "frequently": 5909,
      "Commons": 5910,
      "demonstration": 5911,
      "eloquence": 5912,
      "impatience": 5913,
      "ferocity": 5914,
      "solicitor": 5915,
      "slumber": 5916,
      "splendid": 5917,
      "beaming": 5918,
      "consolation": 5919,
      "fetch": 5920,
      "dubiously": 5921,
      "anecdote": 5922,
      "absurdity": 5923,
      "military": 5924,
      "thumb": 5925,
      "Luffe": 5926,
      "accomplished": 5927,
      "unanimously": 5928,
      "appointment": 5929,
      "boisterous": 5930,
      "intervals": 5931,
      "benefit": 5932,
      "Bulder": 5933,
      "avoid": 5934,
      "entirely": 5935,
      "cheese": 5936,
      "Porken": 5937,
      "filth": 5938,
      "hungry": 5939,
      "Meanwhile": 5940,
      "August": 5941,
      "bidding": 5942,
      "messeng": 5943,
      "enormous": 5944,
      "irresistible": 5945,
      "landscape": 5946,
      "valuable": 5947,
      "sympathising": 5948,
      "Granby": 5949,
      "Pretty": 5950,
      "Tappleton": 5951,
      "Wugsby": 5952,
      "Young": 5953,
      "accustomed": 5954,
      "velvet": 5955,
      "Nockemorf": 5956,
      "Luffey": 5957,
      "Ain": 5958,
      "Bar": 5959,
      "Bes": 5960,
      "Bran": 5961,
      "BRI": 5962,
      "Cos": 5963,
      "Edin": 5964,
      "FF": 5965,
      "GO": 5966,
      "Gu": 5967,
      "Hur": 5968,
      "IES": 5969,
      "ILL": 5970,
      "Know": 5971,
      "Lion": 5972,
      "Lie": 5973,
      "Mer": 5974,
      "Neddy": 5975,
      "OC": 5976,
      "Out": 5977,
      "Rever": 5978,
      "Rather": 5979,
      "Sun": 5980,
      "Sil": 5981,
      "SOM": 5982,
      "TW": 5983,
      "Tem": 5984,
      "Tho": 5985,
      "Was": 5986,
      "Wither": 5987,
      "Wash": 5988,
      "WINK": 5989,
      "_me": 5990,
      "bat": 5991,
      "bable": 5992,
      "bath": 5993,
      "bts": 5994,
      "coffin": 5995,
      "dance": 5996,
      "dig": 5997,
      "file": 5998,
      "itory": 5999,
      "jump": 6000,
      "jail": 6001,
      "lof": 6002,
      "laz": 6003,
      "laud": 6004,
      "leness": 6005,
      "mum": 6006,
      "nished": 6007,
      "oh": 6008,
      "plied": 6009,
      "pooh": 6010,
      "slo": 6011,
      "stor": 6012,
      "sending": 6013,
      "tro": 6014,
      "treas": 6015,
      "uated": 6016,
      "vage": 6017,
      "vulgar": 6018,
      "wag": 6019,
      "waf": 6020,
      "winks": 6021,
      "wounded": 6022,
      "yal": 6023,
      "’-": 6024,
      "’.’": 6025,
      "’--‘": 6026,
      "thread": 6027,
      "thony": 6028,
      "iny": 6029,
      "intr": 6030,
      "inmat": 6031,
      "inches": 6032,
      "eries": 6033,
      "anthro": 6034,
      "edge": 6035,
      "encounter": 6036,
      "ato": 6037,
      "atters": 6038,
      "attained": 6039,
      "reiterated": 6040,
      "ands": 6041,
      "anded": 6042,
      "tori": 6043,
      "toler": 6044,
      "asing": 6045,
      "ashes": 6046,
      "icate": 6047,
      "leap": 6048,
      "arbour": 6049,
      "llor": 6050,
      "orth": 6051,
      "itute": 6052,
      "stur": 6053,
      "stare": 6054,
      "sell": 6055,
      "secl": 6056,
      "omen": 6057,
      "sages": 6058,
      "irst": 6059,
      "bead": 6060,
      "begging": 6061,
      "immin": 6062,
      "verse": 6063,
      "amber": 6064,
      "waste": 6065,
      "withdraw": 6066,
      "addock": 6067,
      "altered": 6068,
      "manuscript": 6069,
      "lig": 6070,
      "liven": 6071,
      "liked": 6072,
      "unken": 6073,
      "unmoved": 6074,
      "univer": 6075,
      "unfortunately": 6076,
      "ril": 6077,
      "rival": 6078,
      "riages": 6079,
      "chan": 6080,
      "chuck": 6081,
      "detailed": 6082,
      "uration": 6083,
      "abashed": 6084,
      "mechan": 6085,
      "confir": 6086,
      "concur": 6087,
      "conspic": 6088,
      "constru": 6089,
      "sher": 6090,
      "shud": 6091,
      "shove": 6092,
      "aining": 6093,
      "suspect": 6094,
      "compose": 6095,
      "feared": 6096,
      "examin": 6097,
      "apping": 6098,
      "bystand": 6099,
      "sober": 6100,
      "bottled": 6101,
      "artific": 6102,
      "perity": 6103,
      "perceived": 6104,
      "perceptible": 6105,
      "perceiving": 6106,
      "obtained": 6107,
      "rah": 6108,
      "raly": 6109,
      "pling": 6110,
      "plates": 6111,
      "areleigh": 6112,
      "umpi": 6113,
      "ote": 6114,
      "weal": 6115,
      "weary": 6116,
      "wearing": 6117,
      "lookin": 6118,
      "proved": 6119,
      "propriety": 6120,
      "disappearance": 6121,
      "disagreeable": 6122,
      "emin": 6123,
      "intox": 6124,
      "akes": 6125,
      "whenever": 6126,
      "ancellor": 6127,
      "thereupon": 6128,
      "bland": 6129,
      "blance": 6130,
      "illed": 6131,
      "traced": 6132,
      "strag": 6133,
      "ishly": 6134,
      "ishop": 6135,
      "major": 6136,
      "retained": 6137,
      "tort": 6138,
      "insin": 6139,
      "scri": 6140,
      "scound": 6141,
      "scrup": 6142,
      "scale": 6143,
      "brick": 6144,
      "inevit": 6145,
      "shaken": 6146,
      "lightning": 6147,
      "anges": 6148,
      "angrily": 6149,
      "Anthony": 6150,
      "tying": 6151,
      "vos": 6152,
      "Nothin": 6153,
      "stole": 6154,
      "stooping": 6155,
      "extrem": 6156,
      "rights": 6157,
      "compar": 6158,
      "compelled": 6159,
      "backed": 6160,
      "working": 6161,
      "contemporary": 6162,
      "joint": 6163,
      "commer": 6164,
      "rules": 6165,
      "lasted": 6166,
      "takin": 6167,
      "engine": 6168,
      "engage": 6169,
      "crou": 6170,
      "mering": 6171,
      "mercy": 6172,
      "merrily": 6173,
      "interf": 6174,
      "drunken": 6175,
      "Stareleigh": 6176,
      "momentary": 6177,
      "expressively": 6178,
      "wrapped": 6179,
      "countenances": 6180,
      "Hows": 6181,
      "submit": 6182,
      "charity": 6183,
      "surely": 6184,
      "marvell": 6185,
      "relish": 6186,
      "relax": 6187,
      "lingering": 6188,
      "pursued": 6189,
      "spirited": 6190,
      "patiently": 6191,
      "playful": 6192,
      "playfully": 6193,
      "penn": 6194,
      "sentences": 6195,
      "refused": 6196,
      "cutting": 6197,
      "powered": 6198,
      "Church": 6199,
      "Chancellor": 6200,
      "trifl": 6201,
      "wishing": 6202,
      "dining": 6203,
      "instantaneously": 6204,
      "Does": 6205,
      "judgment": 6206,
      "cordial": 6207,
      "honoured": 6208,
      "Royal": 6209,
      "reasons": 6210,
      "reasonably": 6211,
      "famous": 6212,
      "thirst": 6213,
      "helped": 6214,
      "ATE": 6215,
      "slide": 6216,
      "terminated": 6217,
      "delivery": 6218,
      "darkness": 6219,
      "postman": 6220,
      "offices": 6221,
      "animals": 6222,
      "wondered": 6223,
      "warmth": 6224,
      "burgh": 6225,
      "gratifying": 6226,
      "Before": 6227,
      "OUS": 6228,
      "testified": 6229,
      "candid": 6230,
      "passages": 6231,
      "declare": 6232,
      "decline": 6233,
      "surprising": 6234,
      "porters": 6235,
      "paying": 6236,
      "admiring": 6237,
      "eighteen": 6238,
      "remote": 6239,
      "remotest": 6240,
      "necklace": 6241,
      "listen": 6242,
      "listening": 6243,
      "daughters": 6244,
      "boarders": 6245,
      "frog": 6246,
      "inflicted": 6247,
      "requis": 6248,
      "striped": 6249,
      "Doctors": 6250,
      "consequent": 6251,
      "mounting": 6252,
      "destined": 6253,
      "tumblers": 6254,
      "intimating": 6255,
      "wildly": 6256,
      "clothed": 6257,
      "contemplating": 6258,
      "bills": 6259,
      "muttered": 6260,
      "safely": 6261,
      "convict": 6262,
      "passionate": 6263,
      "eagerness": 6264,
      "contemptuously": 6265,
      "ACQU": 6266,
      "ACCOUN": 6267,
      "consulting": 6268,
      "tranqu": 6269,
      "pantom": 6270,
      "locking": 6271,
      "calmness": 6272,
      "intelligible": 6273,
      "spring": 6274,
      "flesh": 6275,
      "leaned": 6276,
      "superior": 6277,
      "marks": 6278,
      "terrific": 6279,
      "convenient": 6280,
      "involved": 6281,
      "kicking": 6282,
      "belonging": 6283,
      "shawls": 6284,
      "benign": 6285,
      "sensation": 6286,
      "adventur": 6287,
      "recognition": 6288,
      "accidentally": 6289,
      "turnkeys": 6290,
      "jumping": 6291,
      "arguments": 6292,
      "anguish": 6293,
      "harsh": 6294,
      "harness": 6295,
      "boldly": 6296,
      "growled": 6297,
      "majestically": 6298,
      "improved": 6299,
      "originally": 6300,
      "hoped": 6301,
      "accommodation": 6302,
      "ticket": 6303,
      "counsels": 6304,
      "PRO": 6305,
      "cigars": 6306,
      "accounts": 6307,
      "struggles": 6308,
      "brushed": 6309,
      "breathing": 6310,
      "VERY": 6311,
      "fainting": 6312,
      "hedge": 6313,
      "royal": 6314,
      "reptile": 6315,
      "indulge": 6316,
      "Angel": 6317,
      "gathered": 6318,
      "punct": 6319,
      "virtuous": 6320,
      "congratulate": 6321,
      "cotton": 6322,
      "commencement": 6323,
      "ruffle": 6324,
      "issue": 6325,
      "imparted": 6326,
      "indications": 6327,
      "desirous": 6328,
      "desirable": 6329,
      "attentions": 6330,
      "magnanim": 6331,
      "calculated": 6332,
      "NEW": 6333,
      "stroke": 6334,
      "relapsed": 6335,
      "impudence": 6336,
      "corpulent": 6337,
      "constitution": 6338,
      "materials": 6339,
      "Craddock": 6340,
      "mildly": 6341,
      "branch": 6342,
      "guinea": 6343,
      "philosophical": 6344,
      "junior": 6345,
      "recovering": 6346,
      "ghastly": 6347,
      "noticed": 6348,
      "gallantry": 6349,
      "ecst": 6350,
      "language": 6351,
      "chorus": 6352,
      "neglect": 6353,
      "reserved": 6354,
      "glistened": 6355,
      "independent": 6356,
      "innocence": 6357,
      "vehemently": 6358,
      "Isabella": 6359,
      "Parliament": 6360,
      "stupid": 6361,
      "quantity": 6362,
      "exertions": 6363,
      "discharged": 6364,
      "twinkling": 6365,
      "imprisonment": 6366,
      "dispersed": 6367,
      "pronounced": 6368,
      "scenes": 6369,
      "glimpse": 6370,
      "desolate": 6371,
      "portrait": 6372,
      "declaration": 6373,
      "coincidence": 6374,
      "PLEASANT": 6375,
      "Dutch": 6376,
      "Keep": 6377,
      "Lodge": 6378,
      "hitherto": 6379,
      "messenger": 6380,
      "Branch": 6381,
      "BRIEF": 6382,
      "Edinburgh": 6383,
      "Lieutenant": 6384,
      "Reverend": 6385,
      "SOME": 6386,
      "Those": 6387,
      "Witherfield": 6388,
      "WINKLE": 6389,
      "lofty": 6390,
      "inmates": 6391,
      "imminent": 6392,
      "confirmed": 6393,
      "shudder": 6394,
      "umpires": 6395,
      "inevitably": 6396,
      "ACQUAIN": 6397,
      ";--": 6398,
      "AW": 6399,
      "Ad": 6400,
      "Bir": 6401,
      "Bush": 6402,
      "Coun": 6403,
      "Crush": 6404,
      "Dan": 6405,
      "Dor": 6406,
      "Fire": 6407,
      "Free": 6408,
      "First": 6409,
      "GE": 6410,
      "GG": 6411,
      "Gone": 6412,
      "Glad": 6413,
      "Grand": 6414,
      "Hem": 6415,
      "Hunt": 6416,
      "Ivy": 6417,
      "Long": 6418,
      "Mo": 6419,
      "MEN": 6420,
      "MOR": 6421,
      "OB": 6422,
      "Over": 6423,
      "Our": 6424,
      "Pl": 6425,
      "Part": 6426,
      "Pruffle": 6427,
      "Run": 6428,
      "SH": 6429,
      "Send": 6430,
      "Soc": 6431,
      "Tur": 6432,
      "True": 6433,
      "UP": 6434,
      "URE": 6435,
      "Ve": 6436,
      "Vere": 6437,
      "Water": 6438,
      "_was": 6439,
      "_will": 6440,
      "awe": 6441,
      "ailing": 6442,
      "bere": 6443,
      "bash": 6444,
      "buff": 6445,
      "bury": 6446,
      "dre": 6447,
      "dried": 6448,
      "dared": 6449,
      "dangled": 6450,
      "ez": 6451,
      "eul": 6452,
      "elo": 6453,
      "eem": 6454,
      "eff": 6455,
      "evol": 6456,
      "fust": 6457,
      "food": 6458,
      "fired": 6459,
      "fame": 6460,
      "gas": 6461,
      "gal": 6462,
      "hired": 6463,
      "ires": 6464,
      "iot": 6465,
      "ipping": 6466,
      "ju": 6467,
      "job": 6468,
      "lum": 6469,
      "ltor": 6470,
      "lts": 6471,
      "liter": 6472,
      "midst": 6473,
      "nap": 6474,
      "nib": 6475,
      "nail": 6476,
      "oe": 6477,
      "prem": 6478,
      "piled": 6479,
      "puzz": 6480,
      "pouring": 6481,
      "ration": 6482,
      "rity": 6483,
      "rings": 6484,
      "rash": 6485,
      "san": 6486,
      "sich": 6487,
      "sunk": 6488,
      "swar": 6489,
      "tle": 6490,
      "tune": 6491,
      "uity": 6492,
      "urious": 6493,
      "uosity": 6494,
      "vind": 6495,
      "vine": 6496,
      "thunder": 6497,
      "inco": 6498,
      "innum": 6499,
      "inement": 6500,
      "infancy": 6501,
      "anuph": 6502,
      "thes": 6503,
      "enliven": 6504,
      "atmo": 6505,
      "reck": 6506,
      "reward": 6507,
      "revol": 6508,
      "recesses": 6509,
      "isy": 6510,
      "totter": 6511,
      "tomat": 6512,
      "tokens": 6513,
      "aspect": 6514,
      "icule": 6515,
      "level": 6516,
      "orltor": 6517,
      "heaven": 6518,
      "ites": 6519,
      "itical": 6520,
      "stat": 6521,
      "stain": 6522,
      "idge": 6523,
      "idney": 6524,
      "haught": 6525,
      "seed": 6526,
      "sees": 6527,
      "sets": 6528,
      "icket": 6529,
      "whirl": 6530,
      "sail": 6531,
      "sallow": 6532,
      "savage": 6533,
      "bein": 6534,
      "begg": 6535,
      "bespoke": 6536,
      "betray": 6537,
      "hisself": 6538,
      "entine": 6539,
      "wiped": 6540,
      "wiping": 6541,
      "immo": 6542,
      "imitation": 6543,
      "imposing": 6544,
      "imprud": 6545,
      "acle": 6546,
      "acles": 6547,
      "acrity": 6548,
      "amusing": 6549,
      "wasted": 6550,
      "adorn": 6551,
      "admin": 6552,
      "nob": 6553,
      "altern": 6554,
      "alacrity": 6555,
      "manage": 6556,
      "lial": 6557,
      "likes": 6558,
      "forman": 6559,
      "unned": 6560,
      "unwilling": 6561,
      "rope": 6562,
      "alling": 6563,
      "detain": 6564,
      "deceived": 6565,
      "destru": 6566,
      "ayed": 6567,
      "poen": 6568,
      "conw": 6569,
      "conject": 6570,
      "contract": 6571,
      "contracted": 6572,
      "shr": 6573,
      "shown": 6574,
      "shrank": 6575,
      "ardent": 6576,
      "outward": 6577,
      "quart": 6578,
      "quiver": 6579,
      "sulk": 6580,
      "sullen": 6581,
      "comic": 6582,
      "composition": 6583,
      "combin": 6584,
      "extr": 6585,
      "expose": 6586,
      "moist": 6587,
      "soever": 6588,
      "soiled": 6589,
      "repent": 6590,
      "noted": 6591,
      "resight": 6592,
      "resign": 6593,
      "resource": 6594,
      "bolted": 6595,
      "performan": 6596,
      "indiffer": 6597,
      "ulating": 6598,
      "cose": 6599,
      "lot": 6600,
      "loaf": 6601,
      "butic": 6602,
      "butter": 6603,
      "rare": 6604,
      "herent": 6605,
      "ilities": 6606,
      "ums": 6607,
      "wealth": 6608,
      "gruff": 6609,
      "provided": 6610,
      "dish": 6611,
      "dismay": 6612,
      "disease": 6613,
      "awn": 6614,
      "assented": 6615,
      "assigned": 6616,
      "elid": 6617,
      "greg": 6618,
      "opposition": 6619,
      "gentlemanly": 6620,
      "foresight": 6621,
      "blowing": 6622,
      "trum": 6623,
      "traces": 6624,
      "stren": 6625,
      "shel": 6626,
      "blem": 6627,
      "bleed": 6628,
      "esteem": 6629,
      "retreat": 6630,
      "derived": 6631,
      "forefinger": 6632,
      "partake": 6633,
      "smoo": 6634,
      "smack": 6635,
      "insist": 6636,
      "inspect": 6637,
      "eyelid": 6638,
      "scrap": 6639,
      "brings": 6640,
      "active": 6641,
      "serpent": 6642,
      "glare": 6643,
      "glided": 6644,
      "overcome": 6645,
      "abouts": 6646,
      "lighting": 6647,
      "speci": 6648,
      "county": 6649,
      "alked": 6650,
      "failing": 6651,
      "bodyguard": 6652,
      "compared": 6653,
      "backward": 6654,
      "backwards": 6655,
      "pression": 6656,
      "jokes": 6657,
      "jocose": 6658,
      "minit": 6659,
      "waved": 6660,
      "rude": 6661,
      "ignor": 6662,
      "Whiff": 6663,
      "pleasing": 6664,
      "cleared": 6665,
      "Permit": 6666,
      "undertake": 6667,
      "undertaken": 6668,
      "undergone": 6669,
      "parents": 6670,
      "watching": 6671,
      "Insolvent": 6672,
      "INV": 6673,
      "duel": 6674,
      "newly": 6675,
      "throughout": 6676,
      "larly": 6677,
      "legend": 6678,
      "surg": 6679,
      "surface": 6680,
      "surgeon": 6681,
      "enemy": 6682,
      "fellowship": 6683,
      "pocke": 6684,
      "career": 6685,
      "staircases": 6686,
      "gued": 6687,
      "smalls": 6688,
      "subpoen": 6689,
      "lieutenant": 6690,
      "largest": 6691,
      "broker": 6692,
      "watering": 6693,
      "lingered": 6694,
      "pati": 6695,
      "direct": 6696,
      "players": 6697,
      "pencil": 6698,
      "confess": 6699,
      "fastened": 6700,
      "doubts": 6701,
      "ugly": 6702,
      "Smorltor": 6703,
      "kinds": 6704,
      "kindly": 6705,
      "reflected": 6706,
      "knocks": 6707,
      "knocker": 6708,
      "pleasantly": 6709,
      "bowing": 6710,
      "cornered": 6711,
      "murder": 6712,
      "dropping": 6713,
      "value": 6714,
      "topics": 6715,
      "dinners": 6716,
      "resuming": 6717,
      "choked": 6718,
      "continue": 6719,
      "astonish": 6720,
      "astonishing": 6721,
      "hurled": 6722,
      "arrive": 6723,
      "filial": 6724,
      "square": 6725,
      "honours": 6726,
      "syll": 6727,
      "reasoned": 6728,
      "bargain": 6729,
      "bitter": 6730,
      "approving": 6731,
      "EST": 6732,
      "exciting": 6733,
      "sleepy": 6734,
      "promised": 6735,
      "gravel": 6736,
      "preparing": 6737,
      "Once": 6738,
      "hostlers": 6739,
      "effectually": 6740,
      "imply": 6741,
      "smoked": 6742,
      "seats": 6743,
      "produce": 6744,
      "OUT": 6745,
      "respectful": 6746,
      "describe": 6747,
      "brightly": 6748,
      "cups": 6749,
      "constables": 6750,
      "apartments": 6751,
      "properly": 6752,
      "saluted": 6753,
      "declined": 6754,
      "bands": 6755,
      "affections": 6756,
      "sharply": 6757,
      "ORD": 6758,
      "Snuph": 6759,
      "eighty": 6760,
      "malice": 6761,
      "removal": 6762,
      "learn": 6763,
      "tapping": 6764,
      "jacket": 6765,
      "inquiring": 6766,
      "Brit": 6767,
      "missis": 6768,
      "potato": 6769,
      "innin": 6770,
      "complex": 6771,
      "occurrence": 6772,
      "Blues": 6773,
      "dingy": 6774,
      "destination": 6775,
      "hymn": 6776,
      "experiment": 6777,
      "figures": 6778,
      "mysteriously": 6779,
      "REAT": 6780,
      "eaten": 6781,
      "garnished": 6782,
      "mingham": 6783,
      "musing": 6784,
      "vunce": 6785,
      "clearly": 6786,
      "hurriedly": 6787,
      "needn": 6788,
      "gracefully": 6789,
      "practition": 6790,
      "contemptuous": 6791,
      "dragging": 6792,
      "wishes": 6793,
      "duties": 6794,
      "romance": 6795,
      "assembly": 6796,
      "apparition": 6797,
      "neighbours": 6798,
      "conceive": 6799,
      "exhilar": 6800,
      "speculation": 6801,
      "crossed": 6802,
      "calmly": 6803,
      "echoes": 6804,
      "department": 6805,
      "copper": 6806,
      "Prison": 6807,
      "slept": 6808,
      "shadow": 6809,
      "debtor": 6810,
      "succession": 6811,
      "sized": 6812,
      "bosoms": 6813,
      "plainly": 6814,
      "dusty": 6815,
      "poetic": 6816,
      "frowned": 6817,
      "blinds": 6818,
      "flower": 6819,
      "Everything": 6820,
      "birth": 6821,
      "cautious": 6822,
      "joining": 6823,
      "OLV": 6824,
      "guns": 6825,
      "enjoyed": 6826,
      "appealed": 6827,
      "surveyed": 6828,
      "prompted": 6829,
      "alteration": 6830,
      "represented": 6831,
      "hesitation": 6832,
      "imaginable": 6833,
      "struggled": 6834,
      "crimin": 6835,
      "concealment": 6836,
      "swallow": 6837,
      "decision": 6838,
      "contrad": 6839,
      "contrary": 6840,
      "consented": 6841,
      "hurrying": 6842,
      "insulted": 6843,
      "discussion": 6844,
      "Downs": 6845,
      "jerked": 6846,
      "slyness": 6847,
      "immers": 6848,
      "sparkled": 6849,
      "sparkling": 6850,
      "fatigue": 6851,
      "Order": 6852,
      "leathern": 6853,
      "entreaties": 6854,
      "Both": 6855,
      "darted": 6856,
      "tipstaff": 6857,
      "vigour": 6858,
      "injured": 6859,
      "bodies": 6860,
      "groaned": 6861,
      "Arms": 6862,
      "sleeve": 6863,
      "eloquent": 6864,
      "sneez": 6865,
      "impatiently": 6866,
      "ferocious": 6867,
      "sentimental": 6868,
      "splendour": 6869,
      "acknowledged": 6870,
      "Impossible": 6871,
      "ascended": 6872,
      "liquor": 6873,
      "liquid": 6874,
      "modern": 6875,
      "writin": 6876,
      "impudent": 6877,
      "alleybi": 6878,
      "CLU": 6879,
      "document": 6880,
      "documents": 6881,
      "perplexity": 6882,
      "scorbutic": 6883,
      "crumpets": 6884,
      "reflecting": 6885,
      "confidential": 6886,
      "Damn": 6887,
      "PORT": 6888,
      "fixing": 6889,
      "hideous": 6890,
      "implicit": 6891,
      "obscure": 6892,
      "civilised": 6893,
      "newspaper": 6894,
      "summoned": 6895,
      "softened": 6896,
      "saddle": 6897,
      "swiftly": 6898,
      "Office": 6899,
      "investig": 6900,
      "settin": 6901,
      "replaced": 6902,
      "DESCRIPT": 6903,
      "Queer": 6904,
      "comprehensive": 6905,
      "dissipation": 6906,
      "awaited": 6907,
      "estimable": 6908,
      "cuffs": 6909,
      "tombstone": 6910,
      "Misses": 6911,
      "Speak": 6912,
      "cushion": 6913,
      "lustre": 6914,
      "obeyed": 6915,
      "vanished": 6916,
      "wictim": 6917,
      "invariably": 6918,
      "impetuosity": 6919,
      "matrimony": 6920,
      "fervently": 6921,
      "Charles": 6922,
      "summary": 6923,
      "correspond": 6924,
      "building": 6925,
      "sympathy": 6926,
      "apology": 6927,
      "Hotel": 6928,
      "STORY": 6929,
      "divested": 6930,
      "organ": 6931,
      "bewildered": 6932,
      "disguised": 6933,
      "insensible": 6934,
      "paralysed": 6935,
      "indefatigable": 6936,
      "Smithie": 6937,
      "CONTAINING": 6938,
      "Hurrah": 6939,
      "_me_": 6940,
      "secluded": 6941,
      "conspicuous": 6942,
      "examination": 6943,
      "bystanders": 6944,
      "commercial": 6945,
      "marvellous": 6946,
      "relaxed": 6947,
      "trifling": 6948,
      "pantomime": 6949,
      "ACQUAINTANCE": 6950,
      "Birmingham": 6951,
      "Crushton": 6952,
      "Daniel": 6953,
      "Freeman": 6954,
      "Society": 6955,
      "evolutions": 6956,
      "puzzled": 6957,
      "innumerable": 6958,
      "immovable": 6959,
      "specials": 6960,
      "Smorltork": 6961,
      "Snuphanuph": 6962,
      ".--‘": 6963,
      "18": 6964,
      "Ay": 6965,
      "Blo": 6966,
      "Bill": 6967,
      "Bull": 6968,
      "Boots": 6969,
      "BLE": 6970,
      "Bring": 6971,
      "CO": 6972,
      "Corn": 6973,
      "CES": 6974,
      "Ceremon": 6975,
      "Dri": 6976,
      "Day": 6977,
      "DAY": 6978,
      "ET": 6979,
      "EV": 6980,
      "Eve": 6981,
      "EIN": 6982,
      "FE": 6983,
      "Faster": 6984,
      "Fren": 6985,
      "Gr": 6986,
      "JOUR": 6987,
      "Kate": 6988,
      "Lud": 6989,
      "Love": 6990,
      "ME": 6991,
      "Men": 6992,
      "Mother": 6993,
      "Matters": 6994,
      "Next": 6995,
      "NOT": 6996,
      "Nature": 6997,
      "OLL": 6998,
      "PI": 6999,
      "Sat": 7000,
      "Sar": 7001,
      "Sit": 7002,
      "Simp": 7003,
      "SION": 7004,
      "TE": 7005,
      "Tad": 7006,
      "UL": 7007,
      "USTR": 7008,
      "Ven": 7009,
      "VOT": 7010,
      "_so": 7011,
      "_have": 7012,
      "ares": 7013,
      "bay": 7014,
      "bab": 7015,
      "bul": 7016,
      "bought": 7017,
      "bree": 7018,
      "bition": 7019,
      "brave": 7020,
      "bony": 7021,
      "bounced": 7022,
      "cow": 7023,
      "cort": 7024,
      "cated": 7025,
      "cret": 7026,
      "cious": 7027,
      "cally": 7028,
      "craw": 7029,
      "cabri": 7030,
      "dar": 7031,
      "dain": 7032,
      "dru": 7033,
      "dined": 7034,
      "duration": 7035,
      "eur": 7036,
      "fid": 7037,
      "fits": 7038,
      "fidd": 7039,
      "gorge": 7040,
      "hon": 7041,
      "hing": 7042,
      "hire": 7043,
      "harp": 7044,
      "kened": 7045,
      "lon": 7046,
      "len": 7047,
      "lun": 7048,
      "lap": 7049,
      "link": 7050,
      "liness": 7051,
      "lung": 7052,
      "lament": 7053,
      "lengthen": 7054,
      "mid": 7055,
      "mill": 7056,
      "mered": 7057,
      "pir": 7058,
      "pum": 7059,
      "paced": 7060,
      "praise": 7061,
      "packet": 7062,
      "rul": 7063,
      "race": 7064,
      "racket": 7065,
      "sin": 7066,
      "tread": 7067,
      "tuck": 7068,
      "task": 7069,
      "tier": 7070,
      "uses": 7071,
      "vide": 7072,
      "winter": 7073,
      "”;": 7074,
      "inse": 7075,
      "insides": 7076,
      "infinite": 7077,
      "erated": 7078,
      "thetic": 7079,
      "enh": 7080,
      "envi": 7081,
      "enveloped": 7082,
      "enlightened": 7083,
      "reen": 7084,
      "recon": 7085,
      "reak": 7086,
      "recl": 7087,
      "reci": 7088,
      "reating": 7089,
      "asol": 7090,
      "ington": 7091,
      "ico": 7092,
      "icious": 7093,
      "arian": 7094,
      "argued": 7095,
      "llied": 7096,
      "orse": 7097,
      "sten": 7098,
      "stim": 7099,
      "stum": 7100,
      "stret": 7101,
      "stile": 7102,
      "stating": 7103,
      "stuck": 7104,
      "hams": 7105,
      "havin": 7106,
      "seal": 7107,
      "selection": 7108,
      "secured": 7109,
      "oms": 7110,
      "whir": 7111,
      "sag": 7112,
      "sale": 7113,
      "sack": 7114,
      "sally": 7115,
      "sallied": 7116,
      "irregular": 7117,
      "bewi": 7118,
      "betook": 7119,
      "bewit": 7120,
      "entice": 7121,
      "impair": 7122,
      "imming": 7123,
      "actor": 7124,
      "vert": 7125,
      "veres": 7126,
      "verbal": 7127,
      "veracity": 7128,
      "amations": 7129,
      "ambition": 7130,
      "vex": 7131,
      "vether": 7132,
      "ado": 7133,
      "adap": 7134,
      "advers": 7135,
      "ghter": 7136,
      "noses": 7137,
      "noisy": 7138,
      "lier": 7139,
      "forgive": 7140,
      "forgetting": 7141,
      "forgiven": 7142,
      "--”": 7143,
      "upwards": 7144,
      "unto": 7145,
      "unction": 7146,
      "unged": 7147,
      "unnatural": 7148,
      "unsettled": 7149,
      "uneasily": 7150,
      "unfolded": 7151,
      "wicker": 7152,
      "rogu": 7153,
      "allusion": 7154,
      "alluded": 7155,
      "chast": 7156,
      "charms": 7157,
      "changes": 7158,
      "dew": 7159,
      "deceased": 7160,
      "urs": 7161,
      "aband": 7162,
      "meek": 7163,
      "pew": 7164,
      "poll": 7165,
      "pots": 7166,
      "agingly": 7167,
      "conse": 7168,
      "conqu": 7169,
      "conced": 7170,
      "consigned": 7171,
      "congreg": 7172,
      "kettle": 7173,
      "shar": 7174,
      "ardour": 7175,
      "outly": 7176,
      "quaint": 7177,
      "sus": 7178,
      "susp": 7179,
      "sustained": 7180,
      "suffo": 7181,
      "comed": 7182,
      "composure": 7183,
      "extract": 7184,
      "mock": 7185,
      "appr": 7186,
      "apsed": 7187,
      "apron": 7188,
      "sovere": 7189,
      "repress": 7190,
      "rescent": 7191,
      "resigned": 7192,
      "resounded": 7193,
      "perceive": 7194,
      "perusal": 7195,
      "lful": 7196,
      "ults": 7197,
      "whoever": 7198,
      "loit": 7199,
      "lover": 7200,
      "load": 7201,
      "lots": 7202,
      "local": 7203,
      "loaded": 7204,
      "gentry": 7205,
      "obsequ": 7206,
      "butcher": 7207,
      "plic": 7208,
      "plush": 7209,
      "usive": 7210,
      "usions": 7211,
      "hero": 7212,
      "ils": 7213,
      "ilance": 7214,
      "ustr": 7215,
      "ween": 7216,
      "wels": 7217,
      "propens": 7218,
      "procure": 7219,
      "disgrace": 7220,
      "dispens": 7221,
      "disinterested": 7222,
      "disappointment": 7223,
      "ems": 7224,
      "embell": 7225,
      "els": 7226,
      "elic": 7227,
      "ellect": 7228,
      "elapsed": 7229,
      "anywhere": 7230,
      "Head": 7231,
      "trace": 7232,
      "tooth": 7233,
      "strain": 7234,
      "shell": 7235,
      "sheet": 7236,
      "sheets": 7237,
      "isting": 7238,
      "intens": 7239,
      "intellect": 7240,
      "blew": 7241,
      "plead": 7242,
      "pless": 7243,
      "earn": 7244,
      "earliest": 7245,
      "offence": 7246,
      "offering": 7247,
      "torn": 7248,
      "foreman": 7249,
      "parted": 7250,
      "partition": 7251,
      "partial": 7252,
      "insp": 7253,
      "insanity": 7254,
      "spell": 7255,
      "spread": 7256,
      "scant": 7257,
      "bred": 7258,
      "acts": 7259,
      "acting": 7260,
      "glit": 7261,
      "glances": 7262,
      "overpowered": 7263,
      "challen": 7264,
      "lightly": 7265,
      "ppin": 7266,
      "inquis": 7267,
      "counted": 7268,
      "firing": 7269,
      "donkey": 7270,
      "hog": 7271,
      "youngest": 7272,
      "remn": 7273,
      "bedchamber": 7274,
      "presum": 7275,
      "sideboard": 7276,
      "stowed": 7277,
      "turnpike": 7278,
      "reader": 7279,
      "attribut": 7280,
      "compliance": 7281,
      "nights": 7282,
      "justified": 7283,
      "vesk": 7284,
      "waves": 7285,
      "igning": 7286,
      "whereat": 7287,
      "wherever": 7288,
      "mustn": 7289,
      "parasol": 7290,
      "critical": 7291,
      "merit": 7292,
      "satin": 7293,
      "tablets": 7294,
      "interior": 7295,
      "Indi": 7296,
      "portable": 7297,
      "begu": 7298,
      "feelin": 7299,
      "INS": 7300,
      "INTO": 7301,
      "carriages": 7302,
      "flick": 7303,
      "flashed": 7304,
      "undles": 7305,
      "THAT": 7306,
      "passions": 7307,
      "tton": 7308,
      "news": 7309,
      "ideas": 7310,
      "happily": 7311,
      "hearers": 7312,
      "arranging": 7313,
      "cessation": 7314,
      "Hereupon": 7315,
      "legible": 7316,
      "angel": 7317,
      "follower": 7318,
      "collection": 7319,
      "Ask": 7320,
      "caps": 7321,
      "capit": 7322,
      "careless": 7323,
      "chariot": 7324,
      "waitin": 7325,
      "related": 7326,
      "THEIR": 7327,
      "visage": 7328,
      "considering": 7329,
      "considerations": 7330,
      "eks": 7331,
      "purple": 7332,
      "patent": 7333,
      "startling": 7334,
      "penit": 7335,
      "pensa": 7336,
      "confinement": 7337,
      "keyhole": 7338,
      "spective": 7339,
      "pretended": 7340,
      "occasional": 7341,
      "sentiments": 7342,
      "useless": 7343,
      "stealth": 7344,
      "tripped": 7345,
      "homely": 7346,
      "wider": 7347,
      "ONE": 7348,
      "calico": 7349,
      "Jove": 7350,
      "booked": 7351,
      "chosen": 7352,
      "viewed": 7353,
      "sounded": 7354,
      "repet": 7355,
      "chiefly": 7356,
      "judges": 7357,
      "pulls": 7358,
      "admire": 7359,
      "admission": 7360,
      "fireside": 7361,
      "gives": 7362,
      "lderment": 7363,
      "continuing": 7364,
      "acquired": 7365,
      "acquies": 7366,
      "Magpie": 7367,
      "rays": 7368,
      "helor": 7369,
      "helpless": 7370,
      "barrel": 7371,
      "barmaid": 7372,
      "talked": 7373,
      "talkative": 7374,
      "ATION": 7375,
      "slim": 7376,
      "termination": 7377,
      "vithout": 7378,
      "appalling": 7379,
      "worldly": 7380,
      "roadside": 7381,
      "doesn": 7382,
      "recollected": 7383,
      "advance": 7384,
      "ictive": 7385,
      "Market": 7386,
      "oblig": 7387,
      "oblige": 7388,
      "Being": 7389,
      "guards": 7390,
      "brightening": 7391,
      "swearing": 7392,
      "twopen": 7393,
      "professed": 7394,
      "feature": 7395,
      "interrupt": 7396,
      "interrupting": 7397,
      "feeble": 7398,
      "crowds": 7399,
      "cares": 7400,
      "cavern": 7401,
      "impressed": 7402,
      "galleries": 7403,
      "situated": 7404,
      "cats": 7405,
      "humane": 7406,
      "furthermore": 7407,
      "taps": 7408,
      "announcing": 7409,
      "signific": 7410,
      "confidently": 7411,
      "frost": 7412,
      "pinched": 7413,
      "sticking": 7414,
      "Bridge": 7415,
      "seize": 7416,
      "shutters": 7417,
      "devotion": 7418,
      "introducing": 7419,
      "grandeur": 7420,
      "executed": 7421,
      "Blessed": 7422,
      "WHAT": 7423,
      "troubles": 7424,
      "hamper": 7425,
      "aggrav": 7426,
      "contemplative": 7427,
      "filling": 7428,
      "articulate": 7429,
      "makin": 7430,
      "treble": 7431,
      "treacher": 7432,
      "according": 7433,
      "Consid": 7434,
      "existed": 7435,
      "advantages": 7436,
      "delicious": 7437,
      "peaceful": 7438,
      "witnessed": 7439,
      "faintest": 7440,
      "consulted": 7441,
      "reverence": 7442,
      "neighbouring": 7443,
      "Excuse": 7444,
      "Reg": 7445,
      "balls": 7446,
      "applic": 7447,
      "applau": 7448,
      "resistance": 7449,
      "locks": 7450,
      "specim": 7451,
      "recollections": 7452,
      "winning": 7453,
      "instruments": 7454,
      "recollecting": 7455,
      "increase": 7456,
      "increasing": 7457,
      "expectation": 7458,
      "minutely": 7459,
      "funny": 7460,
      "tights": 7461,
      "whistled": 7462,
      "desperately": 7463,
      "commanded": 7464,
      "commanding": 7465,
      "creeturs": 7466,
      "Under": 7467,
      "poetical": 7468,
      "Ladies": 7469,
      "flowing": 7470,
      "flowers": 7471,
      "slipped": 7472,
      "preceded": 7473,
      "vehicles": 7474,
      "beholding": 7475,
      "thoroughfare": 7476,
      "cautiously": 7477,
      "rascally": 7478,
      "thousands": 7479,
      "adventure": 7480,
      "blaze": 7481,
      "basin": 7482,
      "appealing": 7483,
      "promptly": 7484,
      "politics": 7485,
      "Buffs": 7486,
      "rustled": 7487,
      "imagined": 7488,
      "imaginary": 7489,
      "alternative": 7490,
      "principles": 7491,
      "ADV": 7492,
      "TALE": 7493,
      "fantastic": 7494,
      "separate": 7495,
      "liberal": 7496,
      "inscribed": 7497,
      "attendance": 7498,
      "customary": 7499,
      "bisness": 7500,
      "prospects": 7501,
      "scrat": 7502,
      "scram": 7503,
      "scrut": 7504,
      "pursue": 7505,
      "pursuing": 7506,
      "pursuits": 7507,
      "jerk": 7508,
      "jerking": 7509,
      "vague": 7510,
      "assault": 7511,
      "protested": 7512,
      "protestations": 7513,
      "tempered": 7514,
      "PRIS": 7515,
      "bloom": 7516,
      "dockyard": 7517,
      "humouredly": 7518,
      "shrieked": 7519,
      "fainter": 7520,
      "tiptoe": 7521,
      "staggering": 7522,
      "indulged": 7523,
      "villainy": 7524,
      "recently": 7525,
      "groups": 7526,
      "frequent": 7527,
      "slippers": 7528,
      "sneer": 7529,
      "releasing": 7530,
      "instruction": 7531,
      "instructions": 7532,
      "acknowledgment": 7533,
      "DEVOT": 7534,
      "NEY": 7535,
      "ominated": 7536,
      "irritation": 7537,
      "converted": 7538,
      "fetched": 7539,
      "dubious": 7540,
      "anecdotes": 7541,
      "fighting": 7542,
      "inconvenience": 7543,
      "perplexed": 7544,
      "protection": 7545,
      "guineas": 7546,
      "newspapers": 7547,
      "mournful": 7548,
      "bugle": 7549,
      "lux": 7550,
      "muffled": 7551,
      "sandwich": 7552,
      "talent": 7553,
      "stammered": 7554,
      "precipit": 7555,
      "patronising": 7556,
      "piercing": 7557,
      "Cheers": 7558,
      "FULL": 7559,
      "Robert": 7560,
      "yielded": 7561,
      "habited": 7562,
      "beckoned": 7563,
      "shrugged": 7564,
      "exceedingly": 7565,
      "motions": 7566,
      "negus": 7567,
      "resorted": 7568,
      "antiquity": 7569,
      "performing": 7570,
      "indispensa": 7571,
      "razor": 7572,
      "preliminary": 7573,
      "skirts": 7574,
      "ASSIS": 7575,
      "reproachfully": 7576,
      "POS": 7577,
      "gaily": 7578,
      "lamps": 7579,
      "niece": 7580,
      "tendency": 7581,
      "secuted": 7582,
      "quarrel": 7583,
      "ravings": 7584,
      "afflicted": 7585,
      "horrible": 7586,
      "brilliant": 7587,
      "borrowed": 7588,
      "persuasion": 7589,
      "peremptory": 7590,
      "conviviality": 7591,
      "July": 7592,
      "Markis": 7593,
      "rheumat": 7594,
      "score": 7595,
      "charming": 7596,
      "decorated": 7597,
      "quadril": 7598,
      "assiduity": 7599,
      "audience": 7600,
      "joyous": 7601,
      "correct": 7602,
      "energetic": 7603,
      "furiously": 7604,
      "Besides": 7605,
      "ILLUSTR": 7606,
      "Merri": 7607,
      "Sunday": 7608,
      "Silence": 7609,
      "lazy": 7610,
      "storm": 7611,
      "omenon": 7612,
      "beadle": 7613,
      "mechanically": 7614,
      "concurrence": 7615,
      "insinu": 7616,
      "extremity": 7617,
      "ACCOUNT": 7618,
      "tranquil": 7619,
      "Dorking": 7620,
      "swarry": 7621,
      "incoherent": 7622,
      "atmosphere": 7623,
      "tomato": 7624,
      "destruction": 7625,
      "combination": 7626,
      "performance": 7627,
      "strenuously": 7628,
      "inspecting": 7629,
      "Whiffers": 7630,
      "pocketed": 7631,
      "syllable": 7632,
      "Blotton": 7633,
      "Ceremonies": 7634,
      "French": 7635,
      "JOURNEY": 7636,
      "Simpson": 7637,
      "Tadger": 7638,
      "breeches": 7639,
      "cabrio": 7640,
      "gorgeous": 7641,
      "lungs": 7642,
      "bewilderment": 7643,
      "bewitching": 7644,
      "sovereign": 7645,
      "intensity": 7646,
      "challenge": 7647,
      "ILLUSTRATIVE": 7648,
      ");": 7649,
      "-’": 7650,
      ".--’": 7651,
      "00": 7652,
      "27": 7653,
      ";”": 7654,
      "AI": 7655,
      "AK": 7656,
      "Aha": 7657,
      "Away": 7658,
      "Athen": 7659,
      "BR": 7660,
      "Bra": 7661,
      "Bus": 7662,
      "BUS": 7663,
      "Break": 7664,
      "CR": 7665,
      "Cy": 7666,
      "Cor": 7667,
      "Cir": 7668,
      "Cal": 7669,
      "Cru": 7670,
      "Cler": 7671,
      "Curious": 7672,
      "Dr": 7673,
      "Dou": 7674,
      "DER": 7675,
      "DEL": 7676,
      "DOU": 7677,
      "DELL": 7678,
      "Devil": 7679,
      "Eli": 7680,
      "Even": 7681,
      "Five": 7682,
      "Fill": 7683,
      "Field": 7684,
      "FIR": 7685,
      "Finding": 7686,
      "GH": 7687,
      "Gl": 7688,
      "Grun": 7689,
      "GREAT": 7690,
      "Hen": 7691,
      "Had": 7692,
      "Hal": 7693,
      "IANS": 7694,
      "Jew": 7695,
      "Knock": 7696,
      "LO": 7697,
      "Lar": 7698,
      "Lant": 7699,
      "Law": 7700,
      "Little": 7701,
      "Like": 7702,
      "Mon": 7703,
      "Mall": 7704,
      "Mut": 7705,
      "Morn": 7706,
      "MIS": 7707,
      "MAG": 7708,
      "Other": 7709,
      "PE": 7710,
      "PL": 7711,
      "Pres": 7712,
      "Port": 7713,
      "Post": 7714,
      "Red": 7715,
      "Rich": 7716,
      "Rum": 7717,
      "Right": 7718,
      "Sor": 7719,
      "Sco": 7720,
      "Sus": 7721,
      "Sure": 7722,
      "Sud": 7723,
      "SON": 7724,
      "SEL": 7725,
      "Span": 7726,
      "Too": 7727,
      "Turn": 7728,
      "Tran": 7729,
      "Vy": 7730,
      "Vill": 7731,
      "Wel": 7732,
      "Wret": 7733,
      "Walk": 7734,
      "Zep": 7735,
      "_he": 7736,
      "_had": 7737,
      "_do": 7738,
      "abe": 7739,
      "aghast": 7740,
      "bb": 7741,
      "bone": 7742,
      "bation": 7743,
      "bil": 7744,
      "bum": 7745,
      "bite": 7746,
      "buck": 7747,
      "bending": 7748,
      "bishop": 7749,
      "bundles": 7750,
      "cue": 7751,
      "dup": 7752,
      "date": 7753,
      "dus": 7754,
      "dint": 7755,
      "dies": 7756,
      "fan": 7757,
      "foun": 7758,
      "fitted": 7759,
      "flying": 7760,
      "fender": 7761,
      "gid": 7762,
      "gra": 7763,
      "gau": 7764,
      "gates": 7765,
      "gasping": 7766,
      "hob": 7767,
      "horn": 7768,
      "hilar": 7769,
      "iers": 7770,
      "iary": 7771,
      "jar": 7772,
      "ky": 7773,
      "lion": 7774,
      "lain": 7775,
      "lend": 7776,
      "lery": 7777,
      "lav": 7778,
      "lately": 7779,
      "lank": 7780,
      "mam": 7781,
      "mally": 7782,
      "nut": 7783,
      "nur": 7784,
      "naught": 7785,
      "ox": 7786,
      "ogi": 7787,
      "py": 7788,
      "pam": 7789,
      "pup": 7790,
      "pies": 7791,
      "paint": 7792,
      "sitt": 7793,
      "sits": 7794,
      "swind": 7795,
      "sions": 7796,
      "smother": 7797,
      "sung": 7798,
      "sinc": 7799,
      "swore": 7800,
      "sassa": 7801,
      "sinner": 7802,
      "tent": 7803,
      "twi": 7804,
      "tac": 7805,
      "tie": 7806,
      "ties": 7807,
      "taught": 7808,
      "uv": 7809,
      "usage": 7810,
      "vord": 7811,
      "vity": 7812,
      "vagin": 7813,
      "vait": 7814,
      "vying": 7815,
      "wan": 7816,
      "wri": 7817,
      "wist": 7818,
      "zabe": 7819,
      "iner": 7820,
      "init": 7821,
      "income": 7822,
      "inwent": 7823,
      "inexpress": 7824,
      "insol": 7825,
      "infall": 7826,
      "injury": 7827,
      "inhabit": 7828,
      "inaries": 7829,
      "invented": 7830,
      "inestimable": 7831,
      "erted": 7832,
      "anno": 7833,
      "anhed": 7834,
      "thest": 7835,
      "oubted": 7836,
      "ensu": 7837,
      "enable": 7838,
      "enem": 7839,
      "enomenon": 7840,
      "atically": 7841,
      "recall": 7842,
      "rebell": 7843,
      "reliance": 7844,
      "recapit": 7845,
      "isen": 7846,
      "istered": 7847,
      "towel": 7848,
      "torily": 7849,
      "tokened": 7850,
      "ingu": 7851,
      "leth": 7852,
      "leer": 7853,
      "lets": 7854,
      "letoe": 7855,
      "army": 7856,
      "aristo": 7857,
      "arrested": 7858,
      "heaps": 7859,
      "heaped": 7860,
      "itled": 7861,
      "stif": 7862,
      "stump": 7863,
      "strolled": 7864,
      "strolling": 7865,
      "stalked": 7866,
      "idav": 7867,
      "hale": 7868,
      "hagg": 7869,
      "secon": 7870,
      "sequest": 7871,
      "seals": 7872,
      "selected": 7873,
      "saic": 7874,
      "sactions": 7875,
      "bess": 7876,
      "beings": 7877,
      "bespeak": 7878,
      "betokened": 7879,
      "owe": 7880,
      "ower": 7881,
      "entreated": 7882,
      "entitled": 7883,
      "esy": 7884,
      "essay": 7885,
      "esmaid": 7886,
      "escort": 7887,
      "imperfectly": 7888,
      "acc": 7889,
      "acter": 7890,
      "achers": 7891,
      "amused": 7892,
      "aments": 7893,
      "withered": 7894,
      "vet": 7895,
      "adj": 7896,
      "adw": 7897,
      "adjac": 7898,
      "adequ": 7899,
      "adjoining": 7900,
      "noo": 7901,
      "novel": 7902,
      "alman": 7903,
      "manu": 7904,
      "manly": 7905,
      "management": 7906,
      "manoe": 7907,
      "lip": 7908,
      "lift": 7909,
      "--,": 7910,
      "celer": 7911,
      "upset": 7912,
      "uproar": 7913,
      "unci": 7914,
      "unte": 7915,
      "uncomm": 7916,
      "unav": 7917,
      "unknown": 7918,
      "unequ": 7919,
      "unusually": 7920,
      "unwelcome": 7921,
      "unbounded": 7922,
      "unlucky": 7923,
      "unearthly": 7924,
      "unsuccessful": 7925,
      "untying": 7926,
      "robe": 7927,
      "roast": 7928,
      "robor": 7929,
      "riv": 7930,
      "Pickv": 7931,
      "alled": 7932,
      "chol": 7933,
      "chuckle": 7934,
      "chumm": 7935,
      "chops": 7936,
      "detained": 7937,
      "depressed": 7938,
      "dearest": 7939,
      "urth": 7940,
      "urging": 7941,
      "abject": 7942,
      "abol": 7943,
      "absol": 7944,
      "absent": 7945,
      "abbess": 7946,
      "mest": 7947,
      "meals": 7948,
      "peel": 7949,
      "pection": 7950,
      "pecun": 7951,
      "postill": 7952,
      "polic": 7953,
      "agrap": 7954,
      "conwen": 7955,
      "conference": 7956,
      "consumption": 7957,
      "shrun": 7958,
      "shiver": 7959,
      "shining": 7960,
      "outright": 7961,
      "outrage": 7962,
      "suits": 7963,
      "comment": 7964,
      "comical": 7965,
      "comprehend": 7966,
      "feast": 7967,
      "feigned": 7968,
      "ources": 7969,
      "moan": 7970,
      "cts": 7971,
      "ctive": 7972,
      "cture": 7973,
      "sob": 7974,
      "soc": 7975,
      "sobs": 7976,
      "soda": 7977,
      "doom": 7978,
      "negro": 7979,
      "boiled": 7980,
      "bolting": 7981,
      "inking": 7982,
      "antically": 7983,
      "oldest": 7984,
      "frank": 7985,
      "fruit": 7986,
      "frantically": 7987,
      "ift": 7988,
      "perv": 7989,
      "pered": 7990,
      "perse": 7991,
      "perch": 7992,
      "perjury": 7993,
      "perception": 7994,
      "perspective": 7995,
      "indescri": 7996,
      "ulace": 7997,
      "coated": 7998,
      "coals": 7999,
      "lore": 8000,
      "losing": 8001,
      "genteel": 8002,
      "obed": 8003,
      "pluck": 8004,
      "plung": 8005,
      "plunged": 8006,
      "uss": 8007,
      "ushes": 8008,
      "ilanthro": 8009,
      "umin": 8010,
      "weep": 8011,
      "wears": 8012,
      "pros": 8013,
      "prosy": 8014,
      "protracted": 8015,
      "prodig": 8016,
      "dissol": 8017,
      "dispen": 8018,
      "disengaged": 8019,
      "dismally": 8020,
      "hereby": 8021,
      "afresh": 8022,
      "aked": 8023,
      "oped": 8024,
      "prow": 8025,
      "therefrom": 8026,
      "thereafter": 8027,
      "blame": 8028,
      "blended": 8029,
      "cks": 8030,
      "trade": 8031,
      "clad": 8032,
      "clut": 8033,
      "ladder": 8034,
      "strous": 8035,
      "mahog": 8036,
      "airy": 8037,
      "retiring": 8038,
      "retreated": 8039,
      "retaining": 8040,
      "earning": 8041,
      "earlier": 8042,
      "offend": 8043,
      "partners": 8044,
      "willin": 8045,
      "inspection": 8046,
      "thence": 8047,
      "ornament": 8048,
      "bru": 8049,
      "brow": 8050,
      "brute": 8051,
      "series": 8052,
      "serves": 8053,
      "seriously": 8054,
      "overing": 8055,
      "overwhe": 8056,
      "chay": 8057,
      "lightful": 8058,
      "warden": 8059,
      "hoof": 8060,
      "holid": 8061,
      "rying": 8062,
      "tyard": 8063,
      "daylight": 8064,
      "despon": 8065,
      "desert": 8066,
      "desiring": 8067,
      "redou": 8068,
      "reduce": 8069,
      "voters": 8070,
      "howled": 8071,
      "presumed": 8072,
      "stolen": 8073,
      "extingu": 8074,
      "housekeeper": 8075,
      "attired": 8076,
      "attire": 8077,
      "casual": 8078,
      "everywhere": 8079,
      "addresses": 8080,
      "cili": 8081,
      "cipher": 8082,
      "justify": 8083,
      "courte": 8084,
      "courtyard": 8085,
      "teach": 8086,
      "teachers": 8087,
      "cheered": 8088,
      "Therefore": 8089,
      "puttin": 8090,
      "ERG": 8091,
      "wax": 8092,
      "rule": 8093,
      "ruined": 8094,
      "ignomin": 8095,
      "Whatever": 8096,
      "lasts": 8097,
      "lastly": 8098,
      "vived": 8099,
      "clearing": 8100,
      "thoughtfully": 8101,
      "engagement": 8102,
      "parish": 8103,
      "paragrap": 8104,
      "cris": 8105,
      "cricket": 8106,
      "supplied": 8107,
      "merits": 8108,
      "interference": 8109,
      "dram": 8110,
      "chairmen": 8111,
      "begins": 8112,
      "beginnin": 8113,
      "INESS": 8114,
      "dening": 8115,
      "denial": 8116,
      "denoted": 8117,
      "denunci": 8118,
      "Still": 8119,
      "callin": 8120,
      "cared": 8121,
      "carpets": 8122,
      "flash": 8123,
      "undoubted": 8124,
      "monstrous": 8125,
      "happening": 8126,
      "happiest": 8127,
      "array": 8128,
      "avow": 8129,
      "avail": 8130,
      "fervour": 8131,
      "horrid": 8132,
      "wholesome": 8133,
      "CHI": 8134,
      "paved": 8135,
      "ension": 8136,
      "ensconced": 8137,
      "collect": 8138,
      "colouring": 8139,
      "Weeks": 8140,
      "indebted": 8141,
      "rewd": 8142,
      "curl": 8143,
      "smaller": 8144,
      "ithers": 8145,
      "submitted": 8146,
      "subscri": 8147,
      "certainty": 8148,
      "Follow": 8149,
      "cutor": 8150,
      "ubility": 8151,
      "prize": 8152,
      "pattern": 8153,
      "patriot": 8154,
      "whispers": 8155,
      "profit": 8156,
      "Serve": 8157,
      "ize": 8158,
      "drawers": 8159,
      "ugal": 8160,
      "prettier": 8161,
      "Smithers": 8162,
      "ponder": 8163,
      "covering": 8164,
      "Without": 8165,
      "rung": 8166,
      "cuts": 8167,
      "bowled": 8168,
      "pian": 8169,
      "pieman": 8170,
      "particulars": 8171,
      "satisf": 8172,
      "!”’": 8173,
      "phys": 8174,
      "phenomenon": 8175,
      "philanthro": 8176,
      "steal": 8177,
      "steep": 8178,
      "humility": 8179,
      "humbug": 8180,
      "trifle": 8181,
      "misfortun": 8182,
      "misgiving": 8183,
      "widders": 8184,
      "results": 8185,
      "ials": 8186,
      "forwarded": 8187,
      "century": 8188,
      "centric": 8189,
      "devices": 8190,
      "devoutly": 8191,
      "volunt": 8192,
      "volunte": 8193,
      "volubility": 8194,
      "coldly": 8195,
      "pairs": 8196,
      "prisons": 8197,
      "varied": 8198,
      "Missis": 8199,
      "judged": 8200,
      "childish": 8201,
      "giant": 8202,
      "cordingly": 8203,
      "falls": 8204,
      "speaker": 8205,
      "tavern": 8206,
      "taxed": 8207,
      "concluding": 8208,
      "uggles": 8209,
      "barrels": 8210,
      "END": 8211,
      "ENCE": 8212,
      "terminating": 8213,
      "approved": 8214,
      "approbation": 8215,
      "sixty": 8216,
      "drily": 8217,
      "morsel": 8218,
      "skill": 8219,
      "skittle": 8220,
      "prepare": 8221,
      "leaden": 8222,
      "damage": 8223,
      "INGLE": 8224,
      "roads": 8225,
      "firmness": 8226,
      "hostilities": 8227,
      "castle": 8228,
      "mistletoe": 8229,
      "cork": 8230,
      "corpor": 8231,
      "corrobor": 8232,
      "warned": 8233,
      "production": 8234,
      "answering": 8235,
      "gardens": 8236,
      "respecting": 8237,
      "respective": 8238,
      "describing": 8239,
      "guardian": 8240,
      "pending": 8241,
      "tested": 8242,
      "comforts": 8243,
      "response": 8244,
      "responding": 8245,
      "brig": 8246,
      "semi": 8247,
      "salut": 8248,
      "metap": 8249,
      "jurymen": 8250,
      "lanes": 8251,
      "porch": 8252,
      "lodging": 8253,
      "ARY": 8254,
      "deadly": 8255,
      "shock": 8256,
      "barristers": 8257,
      "humanity": 8258,
      "touter": 8259,
      "conscience": 8260,
      "travelled": 8261,
      "signal": 8262,
      "quicker": 8263,
      "confided": 8264,
      "built": 8265,
      "frosty": 8266,
      "missed": 8267,
      "innings": 8268,
      "reality": 8269,
      "completed": 8270,
      "murmuring": 8271,
      "palm": 8272,
      "informing": 8273,
      "polish": 8274,
      "consequently": 8275,
      "destroy": 8276,
      "descending": 8277,
      "delivering": 8278,
      "songs": 8279,
      "tumbled": 8280,
      "incred": 8281,
      "healthy": 8282,
      "defence": 8283,
      "grandfather": 8284,
      "attempted": 8285,
      "baize": 8286,
      "hyr": 8287,
      "hys": 8288,
      "richly": 8289,
      "blessing": 8290,
      "contemplate": 8291,
      "softness": 8292,
      "depends": 8293,
      "grog": 8294,
      "maker": 8295,
      "REC": 8296,
      "garment": 8297,
      "bestow": 8298,
      "earnestness": 8299,
      "needed": 8300,
      "wigs": 8301,
      "PICKWICKIANS": 8302,
      "pickpocket": 8303,
      "ternal": 8304,
      "wiser": 8305,
      "wisit": 8306,
      "emerging": 8307,
      "Expiring": 8308,
      "golden": 8309,
      "simult": 8310,
      "repairing": 8311,
      "cloths": 8312,
      "speculations": 8313,
      "deserved": 8314,
      "straightway": 8315,
      "Didn": 8316,
      "bustled": 8317,
      "ceremonies": 8318,
      "ridge": 8319,
      "ridicule": 8320,
      "sprink": 8321,
      "springs": 8322,
      "sprung": 8323,
      "concern": 8324,
      "journeys": 8325,
      "AMONG": 8326,
      "labours": 8327,
      "sleek": 8328,
      "shady": 8329,
      "tittered": 8330,
      "populace": 8331,
      "superint": 8332,
      "marked": 8333,
      "sends": 8334,
      "sizes": 8335,
      "whistle": 8336,
      "conveniently": 8337,
      "expensive": 8338,
      "expanded": 8339,
      "authors": 8340,
      "authorities": 8341,
      "Going": 8342,
      "United": 8343,
      "clients": 8344,
      "frowning": 8345,
      "blinded": 8346,
      "sternness": 8347,
      "kicked": 8348,
      "slily": 8349,
      "tasted": 8350,
      "belongs": 8351,
      "peculiarly": 8352,
      "conveying": 8353,
      "conveyance": 8354,
      "devilish": 8355,
      "triumphant": 8356,
      "amusements": 8357,
      "velled": 8358,
      "affidav": 8359,
      "exhibit": 8360,
      "balance": 8361,
      "behaved": 8362,
      "pledge": 8363,
      "games": 8364,
      "welcomed": 8365,
      "despatch": 8366,
      "hesitate": 8367,
      "flatten": 8368,
      "griev": 8369,
      "harmless": 8370,
      "turf": 8371,
      "staying": 8372,
      "impropriety": 8373,
      "depended": 8374,
      "contrast": 8375,
      "afeered": 8376,
      "laun": 8377,
      "label": 8378,
      "pitched": 8379,
      "accommodated": 8380,
      "nervously": 8381,
      "OUND": 8382,
      "falsehood": 8383,
      "squeeze": 8384,
      "squeezing": 8385,
      "Showing": 8386,
      "daily": 8387,
      "tickets": 8388,
      "bedsteads": 8389,
      "substitute": 8390,
      "families": 8391,
      "TRA": 8392,
      "TRU": 8393,
      "credit": 8394,
      "hinted": 8395,
      "sickness": 8396,
      "encouragingly": 8397,
      "amazed": 8398,
      "unexpectedly": 8399,
      "dexterous": 8400,
      "obstacles": 8401,
      "plexy": 8402,
      "breathe": 8403,
      "Bolo": 8404,
      "bachelor": 8405,
      "hedges": 8406,
      "swim": 8407,
      "treatment": 8408,
      "treatise": 8409,
      "settlement": 8410,
      "bridesmaid": 8411,
      "Anything": 8412,
      "preserve": 8413,
      "preserved": 8414,
      "benevolence": 8415,
      "customer": 8416,
      "Arter": 8417,
      "gathering": 8418,
      "virtues": 8419,
      "recital": 8420,
      "tossing": 8421,
      "adjusting": 8422,
      "greeted": 8423,
      "smelling": 8424,
      "designs": 8425,
      "distressing": 8426,
      "demonstrations": 8427,
      "umbrellas": 8428,
      "Accordingly": 8429,
      "Delightful": 8430,
      "release": 8431,
      "impartial": 8432,
      "agonised": 8433,
      "exclamations": 8434,
      "expenses": 8435,
      "discoveries": 8436,
      "elbows": 8437,
      "transfixed": 8438,
      "attentively": 8439,
      "purchase": 8440,
      "systematic": 8441,
      "representation": 8442,
      "representative": 8443,
      "rook": 8444,
      "rooks": 8445,
      "cherry": 8446,
      "feathers": 8447,
      "assurances": 8448,
      "retirement": 8449,
      "relapse": 8450,
      "milk": 8451,
      "rambling": 8452,
      "valet": 8453,
      "inconvenient": 8454,
      "protect": 8455,
      "cracked": 8456,
      "hysterical": 8457,
      "philosophy": 8458,
      "Struggles": 8459,
      "Seeing": 8460,
      "URES": 8461,
      "renew": 8462,
      "renewed": 8463,
      "implor": 8464,
      "noticing": 8465,
      "perseverance": 8466,
      "despite": 8467,
      "vocif": 8468,
      "memorable": 8469,
      "sufferings": 8470,
      "anticipated": 8471,
      "recommendation": 8472,
      "mournfully": 8473,
      "Cole": 8474,
      "snatched": 8475,
      "resemblance": 8476,
      "adopt": 8477,
      "adopted": 8478,
      "admonitory": 8479,
      "adviser": 8480,
      "advisable": 8481,
      "complacently": 8482,
      "meditations": 8483,
      "jealousy": 8484,
      "drowning": 8485,
      "pierced": 8486,
      "ruminating": 8487,
      "picturesque": 8488,
      "abstractedly": 8489,
      "DESCRIB": 8490,
      "baker": 8491,
      "baked": 8492,
      "multitude": 8493,
      "swagg": 8494,
      "sarcast": 8495,
      "vacantly": 8496,
      "warrant": 8497,
      "habits": 8498,
      "preliminaries": 8499,
      "INTEREST": 8500,
      "appropriate": 8501,
      "transacted": 8502,
      "diminished": 8503,
      "discernible": 8504,
      "Betsy": 8505,
      "banisters": 8506,
      "fowl": 8507,
      "fowls": 8508,
      "mouldy": 8509,
      "ragged": 8510,
      "atrocious": 8511,
      "searching": 8512,
      "manifestations": 8513,
      "festivity": 8514,
      "coaxingly": 8515,
      "graph": 8516,
      "control": 8517,
      "flags": 8518,
      "penetrated": 8519,
      "hospitality": 8520,
      "Pleasant": 8521,
      "Friend": 8522,
      "eldest": 8523,
      "eggs": 8524,
      "elegant": 8525,
      "lounging": 8526,
      "nicety": 8527,
      "restrained": 8528,
      "associations": 8529,
      "accuracy": 8530,
      "condescension": 8531,
      "screwed": 8532,
      "slammed": 8533,
      "Blazes": 8534,
      "politely": 8535,
      "Porkenham": 8536,
      "filthy": 8537,
      "OCK": 8538,
      "laudable": 8539,
      "troops": 8540,
      "treasures": 8541,
      "sturdy": 8542,
      "universal": 8543,
      "sherry": 8544,
      "shovel": 8545,
      "artifices": 8546,
      "eminent": 8547,
      "straggling": 8548,
      "interfere": 8549,
      "ecstasy": 8550,
      "Mosaic": 8551,
      "bashful": 8552,
      "dreary": 8553,
      "eulogi": 8554,
      "elope": 8555,
      "sanct": 8556,
      "vindictive": 8557,
      "revolving": 8558,
      "statue": 8559,
      "haughty": 8560,
      "adorned": 8561,
      "administered": 8562,
      "sulky": 8563,
      "gruffly": 8564,
      "smooth": 8565,
      "scraping": 8566,
      "patients": 8567,
      "approvingly": 8568,
      "potatoes": 8569,
      "complexion": 8570,
      "practitioners": 8571,
      "exhilarating": 8572,
      "immersed": 8573,
      "CLUB": 8574,
      "Cornhill": 8575,
      "Drive": 8576,
      "_so_": 8577,
      "drugs": 8578,
      "hinges": 8579,
      "lapse": 8580,
      "midnight": 8581,
      "enviable": 8582,
      "impaired": 8583,
      "vexation": 8584,
      "adapted": 8585,
      "forgiveness": 8586,
      "roguish": 8587,
      "abandon": 8588,
      "pewter": 8589,
      "conquered": 8590,
      "congregated": 8591,
      "apprentice": 8592,
      "plicity": 8593,
      "scanty": 8594,
      "inquisitive": 8595,
      "India": 8596,
      "twopenny": 8597,
      "significantly": 8598,
      "Consider": 8599,
      "applauded": 8600,
      "specimen": 8601,
      "ADVENT": 8602,
      "scrutin": 8603,
      "blooming": 8604,
      "quadrille": 8605,
      "Bravo": 8606,
      "BUSINESS": 8607,
      "Cyrus": 8608,
      "Circum": 8609,
      "Elizabe": 8610,
      "FIRST": 8611,
      "Grundy": 8612,
      "Half": 8613,
      "Large": 8614,
      "Mallard": 8615,
      "Mutanhed": 8616,
      "MISSION": 8617,
      "Sorry": 8618,
      "Sudden": 8619,
      "Transactions": 8620,
      "Zephyr": 8621,
      "_he_": 8622,
      "fountain": 8623,
      "hilarity": 8624,
      "pamph": 8625,
      "sittin": 8626,
      "sincere": 8627,
      "sassages": 8628,
      "tacit": 8629,
      "vords": 8630,
      "inhabitants": 8631,
      "annoy": 8632,
      "enemies": 8633,
      "aristocr": 8634,
      "sequestered": 8635,
      "adjacent": 8636,
      "almanac": 8637,
      "manoeuv": 8638,
      "uncommonly": 8639,
      "unavailing": 8640,
      "unequi": 8641,
      "choler": 8642,
      "chummage": 8643,
      "pecuniary": 8644,
      "policy": 8645,
      "mahogany": 8646,
      "overwhel": 8647,
      "holiday": 8648,
      "paragraph": 8649,
      "Elizabeth": 8650,
      "AU": 8651,
      "Apo": 8652,
      "Alas": 8653,
      "Adel": 8654,
      "AFF": 8655,
      "Bri": 8656,
      "Bel": 8657,
      "Boffer": 8658,
      "BAG": 8659,
      "Cob": 8660,
      "City": 8661,
      "Clar": 8662,
      "Cause": 8663,
      "Cross": 8664,
      "CLE": 8665,
      "Chair": 8666,
      "Coffee": 8667,
      "CUR": 8668,
      "DI": 8669,
      "Dick": 8670,
      "Des": 8671,
      "Done": 8672,
      "Draw": 8673,
      "DOD": 8674,
      "Descri": 8675,
      "EW": 8676,
      "Easter": 8677,
      "Ebene": 8678,
      "EEN": 8679,
      "FO": 8680,
      "Fe": 8681,
      "Fro": 8682,
      "Fort": 8683,
      "Fact": 8684,
      "FIN": 8685,
      "FAS": 8686,
      "FELL": 8687,
      "Feel": 8688,
      "FAI": 8689,
      "Ground": 8690,
      "GOT": 8691,
      "Him": 8692,
      "Hut": 8693,
      "Hast": 8694,
      "Hill": 8695,
      "Hark": 8696,
      "Hamp": 8697,
      "IOUS": 8698,
      "Jane": 8699,
      "Junction": 8700,
      "Lic": 8701,
      "Live": 8702,
      "Life": 8703,
      "LAW": 8704,
      "Mull": 8705,
      "MAR": 8706,
      "Made": 8707,
      "Mead": 8708,
      "Missu": 8709,
      "Miner": 8710,
      "Num": 8711,
      "Ob": 8712,
      "Ought": 8713,
      "Pers": 8714,
      "PAN": 8715,
      "PAP": 8716,
      "Punch": 8717,
      "PED": 8718,
      "Place": 8719,
      "Rem": 8720,
      "SO": 8721,
      "Sto": 8722,
      "Sha": 8723,
      "Sup": 8724,
      "Sur": 8725,
      "Set": 8726,
      "Spl": 8727,
      "Sever": 8728,
      "Sav": 8729,
      "Story": 8730,
      "South": 8731,
      "Ter": 8732,
      "Tain": 8733,
      "Try": 8734,
      "Taking": 8735,
      "TLE": 8736,
      "Time": 8737,
      "TUR": 8738,
      "Ugh": 8739,
      "VE": 8740,
      "Vinkle": 8741,
      "Wish": 8742,
      "WAS": 8743,
      "Wheel": 8744,
      "Watch": 8745,
      "XIV": 8746,
      "XLI": 8747,
      "Yo": 8748,
      "Yard": 8749,
      "_I": 8750,
      "_am": 8751,
      "_that": 8752,
      "_for": 8753,
      "_You": 8754,
      "aun": 8755,
      "boo": 8756,
      "bard": 8757,
      "bra": 8758,
      "baw": 8759,
      "bass": 8760,
      "bub": 8761,
      "border": 8762,
      "bugs": 8763,
      "cit": 8764,
      "cation": 8765,
      "cage": 8766,
      "cav": 8767,
      "cult": 8768,
      "ctory": 8769,
      "crushed": 8770,
      "crav": 8771,
      "crescent": 8772,
      "dum": 8773,
      "dess": 8774,
      "dile": 8775,
      "dwell": 8776,
      "ditch": 8777,
      "ebull": 8778,
      "fed": 8779,
      "fard": 8780,
      "fret": 8781,
      "fought": 8782,
      "fug": 8783,
      "fanci": 8784,
      "flies": 8785,
      "fasc": 8786,
      "gno": 8787,
      "gments": 8788,
      "gross": 8789,
      "hook": 8790,
      "hugg": 8791,
      "hovering": 8792,
      "iw": 8793,
      "igent": 8794,
      "iate": 8795,
      "ige": 8796,
      "iately": 8797,
      "iences": 8798,
      "itoes": 8799,
      "kidney": 8800,
      "limp": 8801,
      "lude": 8802,
      "mma": 8803,
      "matt": 8804,
      "mended": 8805,
      "na": 8806,
      "nation": 8807,
      "nally": 8808,
      "oil": 8809,
      "oak": 8810,
      "pom": 8811,
      "pter": 8812,
      "pall": 8813,
      "pour": 8814,
      "pul": 8815,
      "pany": 8816,
      "page": 8817,
      "pug": 8818,
      "pool": 8819,
      "pages": 8820,
      "pisto": 8821,
      "pistol": 8822,
      "plot": 8823,
      "rant": 8824,
      "rable": 8825,
      "rouse": 8826,
      "range": 8827,
      "rents": 8828,
      "rical": 8829,
      "rhy": 8830,
      "sman": 8831,
      "sive": 8832,
      "sings": 8833,
      "swords": 8834,
      "sland": 8835,
      "snor": 8836,
      "sandy": 8837,
      "slaughter": 8838,
      "sangu": 8839,
      "source": 8840,
      "tar": 8841,
      "tinkle": 8842,
      "tint": 8843,
      "tite": 8844,
      "tile": 8845,
      "tted": 8846,
      "tub": 8847,
      "tallow": 8848,
      "tics": 8849,
      "uge": 8850,
      "uroy": 8851,
      "vow": 8852,
      "vous": 8853,
      "vice": 8854,
      "viously": 8855,
      "voured": 8856,
      "vices": 8857,
      "voted": 8858,
      "vards": 8859,
      "wy": 8860,
      "witt": 8861,
      "wings": 8862,
      "waking": 8863,
      "wanity": 8864,
      "wakes": 8865,
      "yr": 8866,
      "zz": 8867,
      "zer": 8868,
      "tham": 8869,
      "ina": 8870,
      "inwe": 8871,
      "invent": 8872,
      "incess": 8873,
      "incur": 8874,
      "incing": 8875,
      "incident": 8876,
      "invisible": 8877,
      "inaudible": 8878,
      "eral": 8879,
      "theory": 8880,
      "edom": 8881,
      "edged": 8882,
      "edifying": 8883,
      "ouche": 8884,
      "enz": 8885,
      "encing": 8886,
      "envying": 8887,
      "attain": 8888,
      "atives": 8889,
      "rear": 8890,
      "review": 8891,
      "relig": 8892,
      "recounted": 8893,
      "revived": 8894,
      "ishes": 8895,
      "iseration": 8896,
      "asp": 8897,
      "assage": 8898,
      "assume": 8899,
      "asperity": 8900,
      "ingin": 8901,
      "icing": 8902,
      "icament": 8903,
      "lee": 8904,
      "leered": 8905,
      "legg": 8906,
      "arrest": 8907,
      "llim": 8908,
      "llity": 8909,
      "llands": 8910,
      "oration": 8911,
      "hem": 8912,
      "itate": 8913,
      "itations": 8914,
      "stin": 8915,
      "stress": 8916,
      "stake": 8917,
      "strew": 8918,
      "stages": 8919,
      "idleness": 8920,
      "hailed": 8921,
      "saving": 8922,
      "saint": 8923,
      "sacri": 8924,
      "sauc": 8925,
      "ira": 8926,
      "beating": 8927,
      "betimes": 8928,
      "becomes": 8929,
      "beads": 8930,
      "entially": 8931,
      "wield": 8932,
      "improbable": 8933,
      "imbi": 8934,
      "acen": 8935,
      "ache": 8936,
      "acies": 8937,
      "accum": 8938,
      "accost": 8939,
      "acute": 8940,
      "ackets": 8941,
      "verted": 8942,
      "versed": 8943,
      "verdict": 8944,
      "amed": 8945,
      "amity": 8946,
      "ample": 8947,
      "ammat": 8948,
      "washer": 8949,
      "wassail": 8950,
      "erect": 8951,
      "withal": 8952,
      "vement": 8953,
      "veget": 8954,
      "ady": 8955,
      "adie": 8956,
      "adject": 8957,
      "advoc": 8958,
      "nowhere": 8959,
      "nobs": 8960,
      "alo": 8961,
      "manservant": 8962,
      "liloqu": 8963,
      "ford": 8964,
      "forcing": 8965,
      "forbear": 8966,
      "cease": 8967,
      "upward": 8968,
      "uncom": 8969,
      "unted": 8970,
      "unlike": 8971,
      "unpar": 8972,
      "unseen": 8973,
      "uncou": 8974,
      "unlikely": 8975,
      "undecided": 8976,
      "unalter": 8977,
      "unheed": 8978,
      "undisguised": 8979,
      "unmanly": 8980,
      "elling": 8981,
      "wicket": 8982,
      "rip": 8983,
      "chum": 8984,
      "chill": 8985,
      "chances": 8986,
      "deem": 8987,
      "decan": 8988,
      "deje": 8989,
      "dete": 8990,
      "deport": 8991,
      "degrad": 8992,
      "developed": 8993,
      "depression": 8994,
      "aye": 8995,
      "urgent": 8996,
      "abuse": 8997,
      "abbey": 8998,
      "melo": 8999,
      "melted": 9000,
      "peal": 9001,
      "poke": 9002,
      "poison": 9003,
      "concent": 9004,
      "conceived": 9005,
      "keen": 9006,
      "shod": 9007,
      "shuff": 9008,
      "ships": 9009,
      "shunned": 9010,
      "shrewd": 9011,
      "ardly": 9012,
      "outs": 9013,
      "quet": 9014,
      "mystic": 9015,
      "compr": 9016,
      "commotion": 9017,
      "feed": 9018,
      "feit": 9019,
      "fees": 9020,
      "felic": 9021,
      "feigning": 9022,
      "exposed": 9023,
      "exposure": 9024,
      "moil": 9025,
      "appreh": 9026,
      "apprehend": 9027,
      "sore": 9028,
      "soap": 9029,
      "soles": 9030,
      "soliloqu": 9031,
      "dod": 9032,
      "dogged": 9033,
      "repay": 9034,
      "repud": 9035,
      "rescue": 9036,
      "boat": 9037,
      "bother": 9038,
      "boiling": 9039,
      "endured": 9040,
      "olden": 9041,
      "frenz": 9042,
      "artist": 9043,
      "perman": 9044,
      "perance": 9045,
      "permitted": 9046,
      "persecuted": 9047,
      "indist": 9048,
      "indicated": 9049,
      "ultim": 9050,
      "ulted": 9051,
      "ulting": 9052,
      "collo": 9053,
      "cogno": 9054,
      "loan": 9055,
      "obvious": 9056,
      "obviously": 9057,
      "bute": 9058,
      "plum": 9059,
      "plans": 9060,
      "ilated": 9061,
      "ilson": 9062,
      "astounded": 9063,
      "aret": 9064,
      "usters": 9065,
      "weap": 9066,
      "weeping": 9067,
      "grain": 9068,
      "grins": 9069,
      "grows": 9070,
      "graced": 9071,
      "granted": 9072,
      "ablest": 9073,
      "probe": 9074,
      "provid": 9075,
      "propri": 9076,
      "propound": 9077,
      "projected": 9078,
      "provide": 9079,
      "disappear": 9080,
      "dispar": 9081,
      "dishes": 9082,
      "distrust": 9083,
      "disregarded": 9084,
      "discontented": 9085,
      "awned": 9086,
      "asser": 9087,
      "assured": 9088,
      "assert": 9089,
      "emen": 9090,
      "emac": 9091,
      "elm": 9092,
      "elastic": 9093,
      "greasy": 9094,
      "opposed": 9095,
      "opens": 9096,
      "anyhow": 9097,
      "hated": 9098,
      "hatred": 9099,
      "prime": 9100,
      "thereat": 9101,
      "fox": 9102,
      "blunder": 9103,
      "blending": 9104,
      "blushes": 9105,
      "timorous": 9106,
      "sayin": 9107,
      "illing": 9108,
      "illness": 9109,
      "trough": 9110,
      "trimmed": 9111,
      "trades": 9112,
      "handing": 9113,
      "clown": 9114,
      "clusters": 9115,
      "epi": 9116,
      "string": 9117,
      "strings": 9118,
      "iger": 9119,
      "acks": 9120,
      "acked": 9121,
      "authen": 9122,
      "auses": 9123,
      "achie": 9124,
      "woters": 9125,
      "shelf": 9126,
      "intent": 9127,
      "estate": 9128,
      "knowingly": 9129,
      "derision": 9130,
      "offended": 9131,
      "offrey": 9132,
      "offspring": 9133,
      "torture": 9134,
      "foremost": 9135,
      "parting": 9136,
      "partic": 9137,
      "partridge": 9138,
      "veneration": 9139,
      "willingly": 9140,
      "smir": 9141,
      "insane": 9142,
      "inspected": 9143,
      "inserted": 9144,
      "spite": 9145,
      "spacious": 9146,
      "scand": 9147,
      "screen": 9148,
      "irest": 9149,
      "positive": 9150,
      "brut": 9151,
      "brimmed": 9152,
      "brows": 9153,
      "bricks": 9154,
      "actuated": 9155,
      "sert": 9156,
      "serjeant": 9157,
      "fullest": 9158,
      "glim": 9159,
      "iley": 9160,
      "overheard": 9161,
      "chaplain": 9162,
      "chalk": 9163,
      "shal": 9164,
      "shape": 9165,
      "shapes": 9166,
      "ppar": 9167,
      "seein": 9168,
      "canv": 9169,
      "canal": 9170,
      "meditated": 9171,
      "mediately": 9172,
      "wardrobe": 9173,
      "counting": 9174,
      "Ann": 9175,
      "remorse": 9176,
      "appeals": 9177,
      "appetite": 9178,
      "thinkin": 9179,
      "jewell": 9180,
      "redder": 9181,
      "madly": 9182,
      "voy": 9183,
      "vocal": 9184,
      "thrice": 9185,
      "preface": 9186,
      "prefer": 9187,
      "preferred": 9188,
      "presumption": 9189,
      "prelude": 9190,
      "favoured": 9191,
      "fairest": 9192,
      "stove": 9193,
      "storey": 9194,
      "extend": 9195,
      "extending": 9196,
      "household": 9197,
      "atting": 9198,
      "attle": 9199,
      "casm": 9200,
      "cased": 9201,
      "ocular": 9202,
      "everyday": 9203,
      "fellers": 9204,
      "lesson": 9205,
      "lessened": 9206,
      "ggin": 9207,
      "check": 9208,
      "checking": 9209,
      "jovial": 9210,
      "jollity": 9211,
      "commiseration": 9212,
      "halfpenny": 9213,
      "EREIN": 9214,
      "minced": 9215,
      "minits": 9216,
      "waver": 9217,
      "whereof": 9218,
      "mustered": 9219,
      "vife": 9220,
      "vithin": 9221,
      "pleasures": 9222,
      "undertook": 9223,
      "undergoing": 9224,
      "undertaking": 9225,
      "walkin": 9226,
      "Allow": 9227,
      "paren": 9228,
      "crust": 9229,
      "lowering": 9230,
      "supposition": 9231,
      "supreme": 9232,
      "interposition": 9233,
      "internal": 9234,
      "presses": 9235,
      "Into": 9236,
      "Inst": 9237,
      "drained": 9238,
      "breed": 9239,
      "mornings": 9240,
      "heartfelt": 9241,
      "gency": 9242,
      "denominated": 9243,
      "instinct": 9244,
      "Step": 9245,
      "flur": 9246,
      "flav": 9247,
      "THAN": 9248,
      "THFU": 9249,
      "monot": 9250,
      "monarch": 9251,
      "passers": 9252,
      "passive": 9253,
      "winding": 9254,
      "hears": 9255,
      "hearth": 9256,
      "ANOTHER": 9257,
      "arring": 9258,
      "legate": 9259,
      "bells": 9260,
      "belliger": 9261,
      "expressly": 9262,
      "CHR": 9263,
[...]
